#version: 0.2
त ि</w>
व ा
ह ै</w>
र ा
य ा
व ि
क े</w>
त ा</w>
म े
म ा
क ा
न े</w>
क र
न ा
य ा</w>
त े</w>
स े</w>
मे ं</w>
ै ं</w>
क ा</w>
ो ं</w>
न ि
न ा</w>
क ो</w>
त ा
ज ा
द े
ह ैं</w>
क ी</w>
र ि
क र</w>
प ा
क ि
स ा
ह ा
त ि
भ ा
ल ि
स ं
ि त</w>
प ु
द ि
भ ी</w>
औ र</w>
त ी</w>
ह ो
य े</w>
च ा
ह ु
क ृ
त ु
क ु
ब ा
द ा
त ः</w>
स ु
ी ं</w>
ल ा
र ह
र ी
प र</w>
म ु
य ो
र े</w>
ह ीं</w>
का र</w>
व र</w>
र ी</w>
म ि
र ा</w>
न हीं</w>
अ प
व ह</w>
र ु
न े
व े
न ु
ल े</w>
श ा
ह ी</w>
य ं</w>
र ो
ह ि
ह ो</w>
ध ा
ू र</w>
र े
अ स</w>
न ं</w>
ल ा</w>
य ु
स र</w>
स म
थ ा</w>
ग ा
थ ा
व ा</w>
श ि
ल ो
व न</w>
म ि</w>
त ु</w>
य ति</w>
न ि</w>
स न</w>
द ु
ग ु
र ं</w>
न ी</w>
य ः</w>
ध ि
क े
य न</w>
वा न</w>
ह ू
ज ि
स ा</w>
सं स</w>
उ स
त म</w>
त ं</w>
ण ा
प ि
त स</w>
स ः</w>
ष ा
क ो
त ी
भ व
म ैं</w>
च ि
त ो</w>
न ी
हू ँ</w>
स ि
अ ह
ल े
र ू
वि द</w>
ख ा
ए क</w>
र म</w>
व े</w>
भ ि
लि ए</w>
म न</w>
स मा
र क</w>
स म</w>
त े
प ि</w>
तु म</w>
र ण</w>
य े
ष ा</w>
य ों</w>
व ृ
ल ी</w>
छ ा
स ी
ग ा</w>
भ ू
उ त</w>
र स</w>
द र</w>
र ः</w>
क ः</w>
द ा</w>
ञ ा
व स</w>
ज न</w>
य म</w>
हा ँ</w>
य क</w>
न म</w>
द ो
उ प
अ न</w>
म ा</w>
ह े</w>
ग च</w>
प ूर</w>
भा र
न ों</w>
व ं</w>
य ह</w>
कि या</w>
ग या</w>
द ू
ज ा</w>
स े
च ित</w>
s ;</w>
p o
po s;</w>
a pos;</w>
& apos;</w>
श ु
त त</w>
ष ि
या ः</w>
प रि
ज ी
व ी
प त</w>
ब ो
क ं</w>
द ी
य ते</w>
र ण
कर ने</w>
नि र</w>
कर ता</w>
र म
थ ि
अह ं</w>
ग े</w>
द ि</w>
रा प</w>
कृ त</w>
ग ृ
ज ी</w>
ज ो</w>
न ः</w>
इ स</w>
क ि</w>
ल क</w>
अ नु
पु त</w>
य त</w>
स ी</w>
र ह</w>
हु ए</w>
व त</w>
प ी
ध ु
भ ो
न न</w>
य स</w>
कर ते</w>
अप ि</w>
क ह
र ति
कर ो
दे ख
जा ता</w>
श ी
ना म</w>
र ों</w>
स त</w>
द ृ
ब ि
प ू
ब हु
ष ु</w>
वा रा</w>
चा हि
च न</w>
त था</w>
म ृ
हो ता</w>
या ं</w>
कर ना</w>
म म</w>
ब ु
स ब</w>
द ी</w>
ध र</w>
मा न</w>
ग ि
रा म
या ल
अ व
हु आ</w>
ह म</w>
वा ले</w>
त क</w>
वि श</w>
व ै
स भी</w>
कृ त
श ो
त र</w>
म ित</w>
आ प
म हा
अ र</w>
क ल</w>
ध न</w>
सा थ</w>
म ो
प र
ल ं</w>
शि क</w>
स ू
र कार</w>
इ स
ए व</w>
वा ला</w>
रह ा</w>
ना ं</w>
घ र</w>
ग ो
ण ि</w>
छा त</w>
मा र</w>
वि ष</w>
ट ि
आ प</w>
म ः</w>
ओ ं</w>
बहु त</w>
स ि</w>
न ो
र त</w>
प न</w>
म नु
क म</w>
दो नों</w>
दे श
अप ने</w>
दे व
उ न</w>
इ ति</w>
स ो
त ो
ष े
ष ण
यु क</w>
थ े</w>
भव ति</w>
रा ष</w>
ता ः</w>
& #
अ धि
आ ज</w>
यो ग</w>
क ौ
वा र</w>
स ह
प ृ
द न</w>
ज न
दे श</w>
रा ज</w>
या मि</w>
चा र</w>
या त</w>
प ढ</w>
रा म</w>
प े
त व</w>
व ः</w>
रू प</w>
त वान</w>
च ल
छ ति</w>
ै ः</w>
अ त</w>
सम य</w>
ं ग
क स</w>
ज ना
ं त</w>
प श</w>
ह र</w>
समा न</w>
लि ये</w>
ट ा
व क</w>
त न</w>
अ द</w>
मनु ष</w>
ध ी
क ी
मे रे</w>
लो ग</w>
रा त</w>
रह े</w>
ग र</w>
मा ता</w>
ग ी
उ द</w>
े ं</w>
रा ज
पु स</w>
मा न
ल म</w>
थ ं</w>
े न</w>
ब न</w>
त ृ
म े</w>
उ न
करो ति</w>
म ू
छ ा</w>
सी त</w>
श क</w>
ध ि</w>
द ो</w>
वि ष
ब ह
ल ी
कु र</w>
प ह
म ी
ज ल</w>
म ी</w>
जा न
ै व</w>
वा स</w>
का ः</w>
इ न</w>
ह ि</w>
व ती</w>
य ि
कि ं</w>
पु रु
म स</w>
ट ी</w>
उस के</w>
र न</w>
बा ल
ग ी</w>
लि ख
अ ं
भ क</w>
ल ता</w>
कह ा</w>
ो ड</w>
म ह
सा र</w>
थ ी</w>
ति ः</w>
अ ने
इ च</w>
ं द</w>
ध ा</w>
ष ण</w>
उ स</w>
या न</w>
प ठ
अ भि
गु रु
म र</w>
श री
प क</w>
अ ध</w>
दि या</w>
चाहि ए</w>
व यं</w>
आ सीत</w>
स क
य ू
1 2
दु र</w>
न स</w>
फ ि
वृ क</w>
य ज</w>
मा त</w>
कु छ</w>
श े
म ण</w>
को ई</w>
त र
ण ी</w>
शा स</w>
ब ै
मे व</w>
द त</w>
ं ने</w>
4 ;</w>
12 4;</w>
&# 124;</w>
भ ग
स मु
अ च</w>
म ै
ण ि
ण ं</w>
हो ती</w>
त ब</w>
कर के</w>
रह ी</w>
र ता</w>
ड ा
वा द
दि न</w>
ट ा</w>
ब े
र ु</w>
म त</w>
तु ं</w>
च े
क ै
ह स</w>
प ो
आ ग
व हाँ</w>
जा ते</w>
आ दि</w>
स ब
बु द</w>
इ त</w>
ह ृ
ज ग
र का
व ी</w>
या म</w>
चाहि ये</w>
वि त</w>
मि न</w>
ग ई</w>
भार त</w>
का रण</w>
म पि</w>
घ ा
जना ः</w>
ञा न</w>
ं गे</w>
भ ु
भ वन</w>
श ः</w>
दू स
कु त</w>
हु ई</w>
का म</w>
र ति</w>
ख ि
य ो</w>
अ ब</w>
मु ख</w>
पि ता</w>
णा ं</w>
द े</w>
कृ ष</w>
कर ती</w>
ख े
ण ः</w>
कौ न</w>
आ त</w>
हो ने</w>
मु झ
सि द</w>
दा न</w>
च ी
क ू
बा द</w>
वे द
वृ त</w>
चि न</w>
ब ी
हो ते</w>
च क</w>
भ े
फि र</w>
दृ ष</w>
पा र</w>
अ ग</w>
फ ल</w>
प ति</w>
ज ै
अ ति
श ा</w>
म धु
ग ों</w>
ए क
वा ली</w>
रा जा</w>
भव त</w>
स ूर</w>
ने न</w>
ते न</w>
गृ ह
स ह</w>
ष ः</w>
रा णि</w>
र थ
व ल</w>
य दि</w>
पा स</w>
म ध</w>
ण ा</w>
र ख
यो ं
भ ी
कि सी</w>
रू प
भो जन</w>
आ गच</w>
ल ों</w>
जि स
u o
uo t
uot ;</w>
q uot;</w>
& quot;</w>
था न</w>
सु न
या स</w>
ता नि</w>
ना म
सु ख
रे ष</w>
रा ः</w>
बि ना</w>
च े</w>
क न</w>
व म</w>
ठ ा
च ु
कर ि
द दा
त द</w>
शा न</w>
भा ग</w>
ड ि
ग ए</w>
ल ः</w>
ता म</w>
रि त</w>
याल य</w>
क ों</w>
क म
चा ह
हो कर</w>
स ै
वा स
रा न</w>
ना स</w>
द ति</w>
व श</w>
छ न</w>
षा ं</w>
ता ं</w>
क हाँ</w>
हा र</w>
ऐ सा</w>
र वि
बो ल
ं ग</w>
भ विष</w>
आ श</w>
यु द</w>
ब ना
ल स</w>
भ ा</w>
दु ः
ता न</w>
अ धु
स ङ</w>
मृ त</w>
सु न</w>
यो ग
य ु</w>
ब ड</w>
मुझ े</w>
ण ी
का न</w>
ज ब</w>
ै र</w>
ध ं</w>
त ौ</w>
ग ण
थ ित</w>
जा ती</w>
शी घ</w>
द क</w>
ँ गा</w>
ज ु
र णा
ग न</w>
रे ण</w>
ह न</w>
य हाँ</w>
नि ष</w>
अधु ना</w>
श त</w>
ल न</w>
र व
शरी र</w>
ब र</w>
पु ष</w>
च ा</w>
ृ त</w>
ब ढ</w>
छा मि</w>
च र</w>
मा ँ</w>
व न
ना नि</w>
अधि क</w>
या र</w>
य मा
के न</w>
पा ठ
उ से</w>
प ति
द ं</w>
बह ु</w>
र ो</w>
भि ः</w>
ज े</w>
उस का</w>
शि ष</w>
भा व</w>
श न</w>
लो गों</w>
अह म</w>
ऽ पि</w>
समु द</w>
षे त</w>
क भी</w>
अने क</w>
मि ष</w>
म ूर</w>
कि म</w>
रि क</w>
पह ले</w>
य व
ह मा
म ंत</w>
न ग
दे ता</w>
कि न</w>
र वा
र धा
ये न</w>
प ड</w>
त प
र सन</w>
जा ने</w>
गु ण
र ि</w>
ं स</w>
मे री</w>
बै ठ
वि क</w>
भग वान</w>
कर ो</w>
पा त</w>
ज ल
प द</w>
नि श</w>
प ञ</w>
जा ना</w>
ए वं</w>
द स</w>
उस की</w>
य ी</w>
ट ु
यो ज
वृ द</w>
ल ड</w>
ख ा</w>
त वती</w>
ह ी
पा नी</w>
ह रि
हृ द
सि ं
या ँ</w>
त ै
ध ः</w>
कर े
आ म</w>
वि धा
र द</w>
मे रा</w>
म न
भार ती
पा द
नि त</w>
जा ए
सक ता</w>
र मा
त रं</w>
गृ हे</w>
ष ी
अप नी</w>
म हि
था त</w>
य र</w>
अ भ</w>
बा र</w>
भा षा</w>
दे व</w>
द श
शु द</w>
ं ड
लो क</w>
हा ं</w>
वि ज
ट े
छ ोड</w>
ह ित</w>
का ल</w>
श ं
वि स</w>
श ब</w>
द ूर</w>
त वन</w>
च तु
रा क</w>
देख कर</w>
आ र</w>
सम र</w>
त दा</w>
का श</w>
रा ह</w>
प ै
च ो
क थ
हा थ</w>
घ ट
ष क</w>
र स
पुरु ष</w>
दा न
त म
वा ं</w>
मै ंने</w>
धा रण</w>
क ड</w>
भ वान</w>
बा लक</w>
ओ र</w>
मु ख
बा लि
का र
ति ष</w>
ए ँ</w>
यो ः</w>
न ष</w>
ध े
था प
त रह</w>
री क</w>
ट े</w>
ख ु
क ट</w>
र ज
या नं</w>
ब च</w>
स ज</w>
वा क</w>
पु नः</w>
छ े</w>
कि स
लि या</w>
रह ता</w>
ने त</w>
उन के</w>
आ सन</w>
वे श</w>
ध न
ट ि</w>
का नि</w>
अ थ
स ौ
रि य
र सा
ना न</w>
ग ौ
करि ष</w>
अ नन</w>
म ने</w>
दु ष</w>
ग त</w>
कि स</w>
लो क
रि य</w>
न ू
द ः</w>
भो ज
ब ल</w>
दू ध</w>
कि त</w>
हो ना</w>
भा व
सम ी
कृ ते</w>
उ पा
घ ु
य म
मि ल
का म
ग ये</w>
क रा
स क</w>
य था</w>
क ल
वि शे
दृ श</w>
न ौ
ट र</w>
क क</w>
&# 9
ष ित</w>
उ च</w>
ण म</w>
कु ल</w>
मु क</w>
जि स</w>
छ ि
ष ी</w>
श ू
श स</w>
का री</w>
अ न
हो ंने</w>
ह ें</w>
बा त</w>
दा र</w>
उस ने</w>
इ न
आप के</w>
स दा</w>
वि शा
रि यों</w>
ध ू
त या</w>
अ भवत</w>
भा र</w>
ग ः</w>
ो ं
हो गा</w>
धा न</w>
ठ ी
कर ें</w>
रह ते</w>
यों कि</w>
रा व
र -
प ण</w>
ददा ति</w>
कर ने
अथ वा</w>
या न
फ े
प ः</w>
ज लं</w>
च ल</w>
हा रे</w>
स प</w>
र व</w>
र भ
य सि</w>
पु रा
ं च</w>
व विद</w>
ब हि
अ तः</w>
ल ग
गु रु</w>
सै नि
ष ु
भ र</w>
च रण
ह े
दूस रे</w>
द ौ
जै से</w>
व ं
ना ः</w>
. .
श ी</w>
ल गा
ठ ा</w>
य ं
पि ता
त प</w>
घ ू
अप ना</w>
अ भी</w>
वा द</w>
प हु
न मस</w>
ध नं</w>
ती न</w>
कि त
का ल
क ता</w>
व स
त ों</w>
रा स</w>
रह ित</w>
ठ ि
छ ो
कि मर</w>
षण ं</w>
व च</w>
र ती
र ज</w>
मू ल</w>
भा षा
ध म</w>
त न
ण ु
जि न
प ा</w>
ण े</w>
जा ना
च ते</w>
कै से</w>
ह ं</w>
र दर</w>
य दा</w>
य द</w>
म ौ
ब जे</w>
त ू
क ष</w>
आ न
पृ थ</w>
के वल</w>
वि ज</w>
का ले</w>
व च
या द</w>
ती र</w>
जी व
उ क</w>
र श</w>
र ं
भा ग
पुरु ष
पु ण</w>
का ं</w>
उस ी</w>
अ श</w>
अ ङ</w>
ठी क</w>
स ं</w>
ह त</w>
प रा
दु ग</w>
अ ल
शो भ
भा ई</w>
द म</w>
थ म</w>
चतु र</w>
ख ो
व दति</w>
चि कित</w>
च रण</w>
ख ी</w>
कर े</w>
सं सार</w>
वा णी</w>
र भा
यि ष</w>
प ं</w>
प ं
न व
त ते</w>
जी वन</w>
म ल</w>
ब ल
त मा
प ित</w>
ता ओं</w>
ज ो
ऽ स</w>
सम स</w>
स हा
वे द</w>
मा कं</w>
प रीक</w>
न ता</w>
ष े</w>
व ो</w>
व र
भ व</w>
पा ल
ग ं
व द</w>
र ौ</w>
भि न</w>
ब ू
ग मिष</w>
क दा</w>
क दा
समा प</w>
ब ं
ध ी</w>
सु ख</w>
र मा</w>
ना र</w>
ध ो
के र
से वा</w>
ष ि</w>
राम चन</w>
न -
द ण</w>
थ ः</w>
की र</w>
क ण</w>
सह स</w>
मा र
म ण
धा र</w>
तु ः</w>
ट ी
च ना</w>
क ब</w>
आ वश</w>
आ ँ
अ क</w>
इस के</w>
श ृ
ध े</w>
दि व
ञ ा</w>
स ु</w>
ल ौ
न ो</w>
ज े
कु न</w>
कि ये</w>
अ म</w>
री य</w>
भार तस</w>
पु रस</w>
प स</w>
ना त</w>
च ी</w>
ल ु
य तः</w>
छ ु
चा ल
ग म</w>
ह ा</w>
व ो
व प</w>
ल ब</w>
र ू</w>
ये त</w>
न दी</w>
ड ा</w>
म नो
श ं</w>
वी र</w>
रा र</w>
दे ते</w>
ता र</w>
ता त</w>
चाह ता</w>
रो ध</w>
मा स</w>
महा न</w>
द ै
घ ो
सम झ
म ं</w>
अव श</w>
ं ड</w>
ला ता</w>
रधा न
या व
या ख</w>
न ृत</w>
दे ने</w>
दा स</w>
ग े
वे त</w>
म द</w>
न र</w>
त तः</w>
कु ल
हमा रे</w>
सुन कर</w>
सब से</w>
ले ख
रूप ी</w>
बा हर</w>
न ैव</w>
ञा न
जाए गा</w>
नी य</w>
दे ना</w>
दि ष</w>
द ित</w>
च य</w>
कर ू
ह ः</w>
या नि</w>
म क</w>
भोज नं</w>
ना श</w>
कृ तं</w>
वि चार</w>
देख ा</w>
सा न</w>
स ृ
स स</w>
रा तः</w>
फ ल
ना य</w>
ना ङ</w>
त द
ह ों</w>
सं ग</w>
पा ठ</w>
पठ ति</w>
दे ख</w>
ण ो
गृह ं</w>
ख ड</w>
कि मपि</w>
क ं
श र</w>
विष य</w>
ले कर</w>
य ित</w>
भ र
ति ं</w>
जान ता</w>
आ नन</w>
श न
र ष</w>
य था
पर न</w>
थ ि</w>
ञा नि
ग म
कृ तम</w>
ओ ह</w>
या प
फ ू
पृ ष</w>
ख री
ऊ पर</w>
षि का</w>
वा मी</w>
या ग</w>
य प</w>
मु द</w>
ई श</w>
रि या</w>
र यत</w>
भू त</w>
का श
शा ला</w>
दि खा
इस लिए</w>
आप का</w>
ह मे
ष स</w>
रा ण
भू मि</w>
आ या</w>
व ज</w>
ल ं
रु द</w>
प त
औ ष
ऐ से</w>
सम ू
सं ख</w>
म ं
भारती य</w>
भ गि
प तिः</w>
चे त</w>
कृत वान</w>
का रः</w>
सु रक</w>
र वर</w>
य ै</w>
म या</w>
त कं</w>
जा र</w>
च ौ
ऊ ँगा</w>
र देश
या मः</w>
य ता</w>
दान ीं</w>
ता व
त मे</w>
ख ल
ह ँ
सा ध
स ौ</w>
स ञ</w>
रो ग</w>
याल यस</w>
य तु</w>
फ ा
प ी</w>
दे ती</w>
ता ला
गी त</w>
ग ति</w>
ष ं</w>
रु त</w>
र मे
म हो
पू जा</w>
प ौ
नाम क</w>
छ त</w>
के व
कृ ति</w>
सी ता</w>
ष म</w>
रा णां</w>
रह ने</w>
प द
करो मि</w>
ए षा</w>
आ र
आ चार</w>
ल य</w>
रण म</w>
य य
म ग</w>
ट ः</w>
हमे शा</w>
सा त</w>
व दा</w>
नो ति</w>
दि ल</w>
ण ु</w>
कु श
स र
प वित</w>
दी प</w>
ट ं</w>
अ ष</w>
वाद ने</w>
रण ं</w>
पठ ि
त था
ठ े</w>
गा ँ
ए कं</w>
आ दि
ह ै
सू त</w>
स भा
स द</w>
श ु</w>
ले न</w>
प रम</w>
ना ट</w>
ध नु
चा त</w>
वै ज</w>
वा त</w>
रा य
र ौ
भू मि
पे ण</w>
स भा</w>
रे म</w>
मि ति</w>
मा ं</w>
बो ला</w>
बो लता</w>
ब ता
चा र
हि ं
ला नि</w>
र थ</w>
यो गि
बह न</w>
फ लं</w>
तु ष</w>
ख ण</w>
करे ंगे</w>
य यन</w>
म ै</w>
प रं</w>
दि र</w>
द ल</w>
ज ू
कर ण</w>
वा यु</w>
रि का</w>
य -
बी च</w>
ज स</w>
छ े
क थं</w>
आ कर</w>
हू ं</w>
सह ित</w>
शा म</w>
र सिद</w>
म त
भव तः</w>
जग त</w>
ग त
सा क</w>
वि ती
या य</w>
मु नि
म य</w>
भार त
न गर</w>
दुः ख
जा ग
जग ह</w>
आ ता</w>
अ रे</w>
व द
रि या
ने वाला</w>
धि क</w>
देख ता</w>
जा कर</w>
ह ति</w>
वे न</w>
वि ना</w>
र च
फ ो
न ृ
दि नाङ</w>
गु ण</w>
क श</w>
अ ल</w>
अ प</w>
राम ः</w>
र ृ
मधु र</w>
बा ल</w>
ब ह</w>
न रे
देव ता</w>
ट म</w>
उन का</w>
उ द
वा च
व य
लि त</w>
री रामचन</w>
रका श
र वेश</w>
त रा
जि ये</w>
छ ी</w>
ँ च</w>
हृद य</w>
वै द</w>
बाल कः</w>
ब ी</w>
प े</w>
दी र</w>
त रम</w>
णा म</w>
ं से</w>
सं सा
स च</w>
वि का
मह त</w>
जान ते</w>
च ढ</w>
से व
शा ला
वा यु
रति दि
महि ला
फ ु
नि न</w>
धी रे</w>
ति क</w>
ण स</w>
उस को</w>
अ ना
ं के</w>
रे षु</w>
यु व
बालि का</w>
तो ऽ
गृ हम</w>
खा ता</w>
सं वत</w>
शु क</w>
ल ो</w>
री डा
य ताम</w>
य ंत</w>
मह ी
पु र</w>
न क</w>
दुः ख</w>
कर णी
उप स</w>
आ योज
सिं ह</w>
श कुन</w>
विष ये</w>
वा हन</w>
भव ती</w>
बहि ः</w>
फ ै
ठ ी</w>
च ू
घू म
घ ोड</w>
गा य</w>
ग ण</w>
खु श</w>
कह ते</w>
ए कः</w>
आ गे</w>
3 ;</w>
&#9 3;</w>
सा हित</w>
ष कः</w>
वा रं</w>
व ि</w>
ल ू
पू छ
नी चे</w>
त थ
गृ हा
खल ु</w>
क ला
अ मे
अ ति</w>
षा त</w>
श ै
श ङ</w>
वि न</w>
री ड
रा मा
न द</w>
ण न</w>
उस से</w>
हा री</w>
ष त</w>
वि वि
व दा
य वस</w>
गाँ व</w>
ं स
े श</w>
हि मा
हा रा</w>
सी ता
वे ष</w>
रो चते</w>
री कृष</w>
रति दिन</w>
या म
पी छे</w>
प ल</w>
दौ ड</w>
त ला</w>
च ला
े षु</w>
शु रू</w>
व रूप</w>
रू पेण</w>
ना ग
देख ते</w>
ति यों</w>
तप स</w>
च ंद</w>
उन की</w>
1 ;</w>
&#9 1;</w>
र ै
ये षु</w>
या प</w>
ब स</w>
पा ल</w>
ने षु</w>
नि वा
त ल
खा ना</w>
क ति</w>
आ स</w>
अ ज</w>
सम ये</w>
र शं
म रण</w>
ट न</w>
कू ल</w>
इ दानीं</w>
वि न
ले ता</w>
र देश</w>
र जा
महो द
पी ड</w>
ना थ</w>
ज म</w>
ए षः</w>
इ व</w>
आ द
अनु सार</w>
ह नु
ष मा</w>
शा स
वि धि
व ही</w>
ल गे</w>
र वी
प ढ़
त ः
त ं
च त</w>
खा ते</w>
उ ड</w>
आ वा
े क</w>
ह ल</w>
वि वा
वा न
व ौ</w>
रि द</w>
य श</w>
य ज
मि ल</w>
बो ले</w>
दि व</w>
ते षु</w>
ड ी</w>
ज र</w>
आ ते</w>
आ काश</w>
सा मने</w>
शि व</w>
श ति</w>
व हां</w>
र कट</w>
म ह</w>
ब ा</w>
पा लन</w>
ध ित</w>
द श</w>
जि न</w>
ग तः</w>
कह ता</w>
इस से</w>
इस लिये</w>
आप की</w>
आ ए</w>
सु बह</w>
शि व
वि भा
व सन</w>
पा किस</w>
प ट</w>
न ै
त ल</w>
जिस के</w>
चा री</w>
गा न</w>
के ंद</w>
उप देश</w>
उ ठ
रे ल
रा णि
र ता
यु त</w>
पृ थि
नि वास</w>
था न
ति म</w>
ट ो
ग स</w>
कि ए</w>
अव दत</w>
2 0
ऽ ऽ
हँ स
सक ते</w>
शोभ ित</w>
वे षां</w>
व ति</w>
ल ग</w>
रा य</w>
म नः</w>
ते षां</w>
जै सा</w>
चा रों</w>
गृह ी
खे ल
केव लं</w>
कर नी</w>
उ चित</w>
ं क</w>
शु भ
श य</w>
वि भिन</w>
वा ः</w>
व यम</w>
व चन</w>
रो क</w>
रह ण</w>
रती क</w>
र प</w>
मा ला</w>
भ वेत</w>
पृ च</w>
पा न</w>
नि द</w>
दा नी
ज हाँ</w>
ज ः</w>
च ै
का रि
आप को</w>
से ना</w>
स ो</w>
विशे ष
वि प</w>
ल भ
भगि नी</w>
बे टा</w>
त रिक</w>
कु मा
ं गा</w>
२ ०
हो गी</w>
र मि
मा ण</w>
नग रे</w>
दि तम</w>
दि क</w>
ता नां</w>
क पड</w>
सु वर</w>
स रे</w>
रह ना</w>
रम ः</w>
र या
यव हार</w>
मो क</w>
ब ना</w>
ध ते</w>
थ ों</w>
तृ त</w>
ती व</w>
तथा पि</w>
गृ ह</w>
गा ं
ग ं</w>
कित ने</w>
का नां</w>
ं ट</w>
समू ह</w>
समा रो
स ति</w>
वा र
व भाव</w>
रतिदि नं</w>
र वृत</w>
र जी</w>
र घु
या ण</w>
ध नम</w>
दि ने</w>
गा ड</w>
ग तवान</w>
कु रु</w>
क हीं</w>
ए का
0 0</w>
ह र
स रस</w>
षण म</w>
ष ों</w>
शो भा</w>
वास रे</w>
वा य
ला या</w>
ला भ</w>
प शु
धि ः</w>
ध स</w>
थ ू
जा ओ</w>
आयोज ित</w>
सि र</w>
ल ै
रम ण</w>
मा ध</w>
भू त
भा षण</w>
पहु ँ
नि क</w>
न त</w>
दो ष</w>
थि ति</w>
ते ज</w>
जी वि
जा तः</w>
ख ी
क ठि
ए ं</w>
ष णा
राम ं</w>
रा ग</w>
र तः</w>
मा नं</w>
भ य</w>
ब द</w>
नि वे
नि ः
थ ोड</w>
त ना</w>
त के
ठ ति</w>
ग ल
कु रु
कि ञ</w>
उ ठा
आ ने</w>
अने के</w>
अ सत</w>
सु शोभित</w>
सा म</w>
व या</w>
रु प
र य</w>
य च</w>
ने वाले</w>
नि स</w>
दूस रा</w>
तु ल</w>
त नं</w>
टि का</w>
च म
गी तं</w>
इ सी</w>
आ यु
सू क</w>
श ल</w>
रा यः</w>
य मान</w>
भि क</w>
पर ं
प ता</w>
न ौ</w>
देश ः</w>
तथ ैव</w>
जाना ति</w>
ची न</w>
च ि</w>
ग ू
खरी द
कर ी</w>
आ ग</w>
ल व
रो प
म णि
पू ज</w>
दी प
तु म
ज नों</w>
ग ल</w>
ए स</w>
ं श
स ों</w>
स व</w>
स द
षा ः</w>
शी ल</w>
शी र</w>
वे ं</w>
विशे ष</w>
वा च</w>
रा ता</w>
याल यं</w>
य पि</w>
मे ल
बे टी</w>
बाल काः</w>
प रस</w>
न म
धि मान</w>
ध ैर</w>
द रिद</w>
थ क</w>
झ ू
गा ः</w>
कु क</w>
करे गा</w>
क ैः</w>
आ यो
ंग ल</w>
ं को</w>
.. .</w>
हा थी</w>
सु प</w>
सु ग</w>
षि यों</w>
वि वे
ल गा</w>
रधान मन</w>
र ंग</w>
य कर</w>
मो द
मा ता
भू षण</w>
पु न
प दार</w>
नि या</w>
नि क
ट क</w>
ज नः</w>
घट ना</w>
केर ल</w>
आ ती</w>
अ मृ
ह म
सि क</w>
षि प</w>
रणा म</w>
मा लि
महि ला</w>
भ ि</w>
भ ग</w>
पे ड</w>
पा ंच</w>
नि युक</w>
न यति</w>
दे हि</w>
दे ह</w>
था नं</w>
जी व</w>
ज ला
खे ल</w>
कृ प
का न
कम ल</w>
कम ल
ए गा</w>
ए का</w>
आ ह</w>
आ लस</w>
अ वस</w>
ा ई</w>
स रो
वै सा</w>
व रं</w>
लिख ि
राम स</w>
रा जा
र यो
र पि</w>
ये ं</w>
या वत</w>
मे श</w>
मा तृ
म र
पा ँच</w>
त ू</w>
ड ॉ
छ सि</w>
गा र</w>
खा ने</w>
क था</w>
ंग ी</w>
ं का</w>
ँ गे</w>
से वि
सा मान</w>
सा ं
ष ो
वा णि</w>
व सि
ले ने</w>
लि का</w>
र दान</w>
याल ये</w>
या ग
मो दी</w>
भ स</w>
ब द
न ु</w>
देख ो</w>
चल ता</w>
च ला</w>
कृत वन</w>
कु मार</w>
का व</w>
का याः</w>
कर ः</w>
ऊ र</w>
उ ल</w>
आ रो
आ क</w>
ही न</w>
सा ल</w>
स ल</w>
षा र</w>
श म</w>
भ ो</w>
प सं
प रम
प थ</w>
नि ग</w>
दे ह
ते ं</w>
ड े</w>
ड ी
ट ू
जु न</w>
जन प
ए स
आ वां</w>
आ ठ</w>
षे प
शन ैः</w>
वि देश
ल भ</w>
रा णा
र यति</w>
यु ः</w>
या ने</w>
या ण
य मु
म ल
भ द</w>
ना व</w>
न ई</w>
थ ीं</w>
त कानि</w>
त -
टु म</w>
जिन के</w>
चाह ते</w>
घ ृ
ग ङ</w>
के चन</w>
करो तु</w>
ए तद</w>
अं ग</w>
हनु मान</w>
वृ न</w>
वी कार</w>
वि शिष</w>
वि ना
व दन</w>
रो गी</w>
र शिक</w>
म ों</w>
देव ताओं</w>
दा य</w>
थ ना</w>
घ ड</w>
ग यी</w>
का यां</w>
ए कस</w>
ऊ ँ
ं ति</w>
हि रण</w>
सृ ष</w>
श य
वा ह
ले ना</w>
रा ह
रह ती</w>
रथ म
यो ऽ
ये ष</w>
म ना</w>
परि त</w>
प म</w>
ना राय
द या</w>
ति र</w>
ड े
करो त</w>
क हा
क प</w>
ह जार</w>
समी प</w>
षा म</w>
लि ष</w>
राव ण</w>
र के</w>
या या
य ल</w>
प का
थि र</w>
थि तः</w>
त ंत</w>
गु प</w>
कि ल</w>
करने वाला</w>
इस का</w>
इ सी
आग मिष</w>
हा स</w>
हा य</w>
सब को</w>
सक ती</w>
सं युक</w>
स दा
श ौ
श हर</w>
वै से</w>
विशा ल</w>
वि भाग</w>
वस ति</w>
ली न</w>
र ैव</w>
र ख</w>
य मेव</w>
य का
मा तु
भ ः</w>
नि वृत</w>
णा ति</w>
ठ ः</w>
ज य</w>
च ले</w>
गी ता</w>
खा दति</w>
क वि
क -
इ ल</w>
आ चरण</w>
आ ओ</w>
सा गर</w>
ले श</w>
लिख ति</w>
रि ष</w>
रा ं</w>
मि क</w>
फ लानि</w>
पू ज
पा प
ना थ
न ति</w>
जान ने</w>
च ों</w>
गि र</w>
खि ला
ख र</w>
क ॉ
अ भवन</w>
अ धी
s पि</w>
हि न</w>
सा धु
सं ग
स त
शू न</w>
व रः</w>
री त</w>
यो गा
या ति</w>
य धिक</w>
मा ना</w>
म द
भ य
फू ल</w>
पा प</w>
प कड</w>
न या</w>
ध ृ
थ ो
ता ल</w>
ञा नी</w>
जाना मि</w>
आँ ख
हि त
शु भ</w>
वृ ष</w>
र य
यि तुं</w>
मु नि</w>
मि ट</w>
भ ौ
बि ल</w>
ब ृ
पहु ं
परि वार</w>
नि रन</w>
ध ो</w>
दु रा
थ र</w>
जि ले</w>
ज ोड</w>
चाह ती</w>
चल ति</w>
गुण ों</w>
गा यति</w>
कु तः</w>
कदा पि</w>
ए ष</w>
आन यति</w>
अ व</w>
व नि
व नं</w>
ला स</w>
रथ म</w>
र मेव</w>
र में</w>
य ही</w>
बोल ते</w>
पू री</w>
पसं द</w>
परि वर</w>
ता क</w>
त रे</w>
त कम</w>
जा य</w>
कृप या</w>
कृत -
कह कर</w>
ए ते</w>
उ ष</w>
ह में</w>
विधा न
वा लों</w>
रवि न</w>
रधान मंत</w>
र ती</w>
या घ</w>
य स
य मन</w>
म ज</w>
भ ै
भ ृ
ने ष</w>
ने ता</w>
ना नं</w>
देश े</w>
दा नं</w>
ट ता</w>
ञा नं</w>
छ तु</w>
गुरु जी</w>
उप रि</w>
इ ं
अति थि</w>
सो च
से ना
वदा मि</w>
व ों</w>
ला ः</w>
राज स</w>
र से</w>
र ते</w>
र ंग
या सं</w>
य ौ
य या</w>
म ना
दे वा
णा नि</w>
ड ु
ञ ः</w>
जिस का</w>
जा तम</w>
ग ड</w>
क ट
ऐ सी</w>
आ ं
अप ेक</w>
ो र</w>
ृ द</w>
हु ये</w>
सू च
सा ध</w>
ष य</w>
शे ष</w>
ल ज</w>
रा ल
रा ण</w>
र चा
या नम</w>
मु प
मा या</w>
भो ग</w>
भग वन</w>
प ला
नरे न</w>
ध त</w>
थ े
थ ु
तके ं</w>
त ैः</w>
ठ न</w>
च रित</w>
गुरु ः</w>
खा द
कृत भाषा
का रण
ए तत</w>
उप ग</w>
अ ट
से वन</w>
से न</w>
सा फ</w>
सह न</w>
सम ृद</w>
सं बं
व ल
रम ो
रण ी
ये क</w>
या य
मि लता</w>
महा त</w>
भार ते</w>
ब े</w>
पो र</w>
पू रा</w>
पु नर</w>
पर मात</w>
पठ न</w>
ने तृत</w>
ना ई</w>
न य
धनु ष</w>
दो प
दे र</w>
णा ः</w>
ञा त</w>
ज ना</w>
ची त</w>
कि ं
करि ये</w>
ए तस</w>
इस में</w>
अ थ</w>
से वा
षि ण
वि प
वि घ</w>
व का
ला ल</w>
ला ल
लग ता</w>
रो त</w>
रे म
रम स</w>
र को
यु वक</w>
य ग</w>
म ति</w>
ब लि
पू छा</w>
पा ण</w>
नी ति</w>
देख ने</w>
तद नन</w>
ढ ा
ठ ं</w>
जा ये
जा न</w>
घा स</w>
घा ट
ख ू
कर ण
क ई</w>
इसी लिए</w>
इ दानी
आ ये</w>
ं में</w>
हमा रा</w>
सा यं
वा दि
ल ङ</w>
रो ध
रे ल</w>
रशं सा</w>
रति ष</w>
रका श</w>
र जा</w>
य मे
म लि
भाव ना</w>
प ैर</w>
धि ष</w>
तु ल
ताला ब</w>
ड ू
ड र</w>
ट वान</w>
जी र</w>
करने वाले</w>
उ दा
ं दर</w>
ू ँगा</w>
ह रण</w>
सा ं</w>
सब के</w>
सं कल</w>
ष न</w>
वि नी
वा धी
रख ने</w>
र ङ</w>
र को</w>
यो ध</w>
म चारी</w>
बोल ना</w>
ब ने</w>
पा द</w>
पर मेश</w>
प ष</w>
प राक</w>
प ट
नि ग
दूस रों</w>
तै यार</w>
ड ित</w>
जी त</w>
जा ऊँगा</w>
ज ों</w>
ज ने</w>
च ूर</w>
गा त</w>
कृ ति
क ौ</w>
क या</w>
क था
इ से</w>
आ नी
सु ना</w>
सा मा
सं रक</w>
षा ल
शा ली</w>
ले किन</w>
ला ई</w>
ल ता
री व</w>
र यास</w>
र दा
य ै
मा ध
बोल ने</w>
बो ल</w>
पै दा</w>
पिता जी</w>
प दा
नी ति
न य</w>
दे न</w>
थाप ित</w>
तू नि</w>
तु त</w>
त ने</w>
जि ज</w>
ज ंगल</w>
खा दा
कृ ता
ं की</w>
ँ ग
े गा</w>
सि न</w>
सा मग</w>
स रकार</w>
स फ
शा सन</w>
श यति</w>
वि मान</w>
ला ह
र योग</w>
र पति</w>
ये ण</w>
या नां</w>
मही ने</w>
भार तं</w>
भ े</w>
फो न</w>
पठ ा
प रा</w>
ना मा
न ही</w>
दु निया</w>
ददा मि</w>
था पि
तो ष</w>
ता दृ
ट ों</w>
जा ए</w>
ज य
चल ते</w>
घ ी</w>
को sपि</w>
का ष</w>
कह ना</w>
उप वि
इ तः</w>
इ क</w>
आवा ज</w>
आप ने</w>
आ वे
आ देश</w>
अल ग</w>
अनु भव</w>
अ के
हरि द</w>
सैनि क</w>
सै न</w>
स दस</w>
ष र</w>
ष ति</w>
शो ध
वे भ</w>
वि भाग
वि ंश
ले ं</w>
लि ख</w>
रि श</w>
रथ मं</w>
य ैव</w>
म छ
म ङ</w>
बोल ती</w>
पिता मह
पि ब
पर मा
प ना</w>
नि वर</w>
न ए</w>
दि ये</w>
द न
था ने</w>
तृ प</w>
तु ओं</w>
त नानि</w>
ज ित</w>
चि द</w>
ग ति
आ रक</w>
ा ने</w>
समा ज</w>
वे ग
वि चक</w>
वि क
व ने</w>
ला न</w>
र त
य ौ</w>
मि च</w>
मा तुः</w>
भा षणं</w>
भ वि
भ यं</w>
बा रे</w>
पौ त</w>
पे ट</w>
पुरुष ों</w>
नि रीक</w>
देव ी</w>
दू रवा
दी जिये</w>
थि ः</w>
ते ऽ
तृ ती
ता वत</w>
त तो</w>
गृ हस</w>
कि शो
कर ं</w>
क ठ
ई ं</w>
अप रा
अ रु
अ खि
ड़ ा</w>
हा ड</w>
सो म
सु रे
सि ल</w>
सम न</w>
वि मान
व ह
व यस</w>
ले ंगे</w>
राम े</w>
र हा
र विष</w>
ये व</w>
य हां</w>
मु त</w>
भो ग
भि र</w>
बा ह</w>
पा ता</w>
परि श</w>
धा ः</w>
ते जस</w>
ड ू</w>
च ति</w>
ग तं</w>
कथ म</w>
उप योग</w>
आ सक</w>
आ दर</w>
आ काश
ह सति</w>
सुख ी</w>
सा रे</w>
सा इ
षि ण</w>
वा म</w>
व म
व की
लिख ता</w>
रूप ं</w>
री ड</w>
रि यते</w>
रि णः</w>
राणि यों</w>
रा तः
रख ा</w>
र ब</w>
या द
य ती
मि ला</w>
मा ल
मा नित</w>
मं दिर</w>
बो ली</w>
बा बा
बा न</w>
बा त
बा ँ
फ ा</w>
फ लम</w>
पी ने</w>
परं तु</w>
द र
द ना</w>
था य</w>
तु ति</w>
ता ड
त ृ</w>
णो ति</w>
ण ता</w>
टि ः</w>
ज टा
च म</w>
च ं
गु ज
ग ह
ग ले</w>
ख े</w>
को वि
कित ना</w>
का स
उपा स
आग तवान</w>
आ तं
अ योध</w>
सो ने</w>
सु र
सामा जि
सा ग
शो क</w>
वि पत</w>
वसि ष</w>
व तन</w>
लि प</w>
ल घु
रम े</w>
रभ ृ
र योग
र यन</w>
यि तुम</w>
मि व</w>
भे द</w>
ब हा
ब न
निवे दन</w>
दि न
द ों</w>
थ ल</w>
ते ल</w>
ता प
त श</w>
त मः</w>
त च</w>
त क
ड ः</w>
ट ने</w>
ज लि
को ट</w>
कु ण</w>
कि ना
का य</w>
करणी यम</w>
क हां</w>
ए ँगे</w>
आ रम</w>
अ हो</w>
अ यं</w>
सब का</w>
सद ैव</w>
स ख</w>
वा मित</w>
व मेव</w>
रे त</w>
या पि</w>
या धि
या दि</w>
य से</w>
य तां</w>
य कता</w>
मि श</w>
मा ंस</w>
बात चीत</w>
पृ थक</w>
पा य
पह ली</w>
नौ का</w>
ध ौ</w>
देश स</w>
दृ ढ</w>
ते ः</w>
त ला
त नम</w>
ञ ं</w>
जी वन
जिन का</w>
ज ड</w>
छो टा</w>
चे ष</w>
च ने</w>
गा ती</w>
कर ु
कदा चित</w>
उप लब</w>
अप ि
अ मृत</w>
शु ल</w>
श े</w>
वै श</w>
वा रि
वा ताव
ले षु</w>
ला ली</w>
रे ष
योज ना</w>
यु ज</w>
या याः</w>
म ही</w>
म णि</w>
भो जन
भो ः</w>
भु क</w>
भ रत</w>
बा तें</w>
नि वेद
दे शी
दृ ढ
थ ै
तृ ष</w>
ति स</w>
ण ेन</w>
ड ो
टि क</w>
जि ह</w>
जा यते</w>
चल चित</w>
गृहा त</w>
के श</w>
के भ</w>
की दृ
कर ा</w>
क ने</w>
क ना</w>
क त</w>
ई ये</w>
अह मपि</w>
अनु वर</w>
हो ने
हो ंगे</w>
हमा री</w>
ह जा
सू चना</w>
सुन ता</w>
सा ह
समारो ह</w>
सं चा
षे ण</w>
वा ध</w>
व सु
व तः</w>
ल ने</w>
रि पोर</w>
रह ः</w>
रति वेद
या णि</w>
म ंग
प दं</w>
नी यम</w>
नि यंत</w>
नि कल
न श</w>
धा नं</w>
दो ष
दिखा ई</w>
ददा तु</w>
थि यों</w>
तो ड</w>
तु र</w>
ती नों</w>
ति का</w>
ता रः</w>
त को
ठ स</w>
झ ा
जिस की</w>
गि रि
ग द</w>
को ऽपि</w>
कै के
क लि
क च</w>
उपा य</w>
आ भूषण</w>
अने न</w>
अ गच</w>
अ करोत</w>
अ ंग
ं कार</w>
हि तः</w>
सा रा</w>
षि तम</w>
ष द</w>
शी त
श रण</w>
वे दा
वि लम</w>
ला ती</w>
रु चि
रु ग</w>
रि णा</w>
रह स</w>
र ैः</w>
र च</w>
र कृति</w>
य दा
मिल कर</w>
मा सस</w>
म रति</w>
बो ध
नी ल
दी पक</w>
दि नों</w>
द ु</w>
द द</w>
तर ति</w>
टा ः</w>
जिस से</w>
जा नन</w>
ज ति</w>
चा न</w>
गो विन</w>
ग रम</w>
कृ ता</w>
इ ष</w>
इ ति
आर भ</w>
आर ब</w>
. .</w>
ि ये</w>
सम झ</w>
सं न</w>
स ित</w>
स फल</w>
शय नं</w>
वाद ः</w>
वा मि</w>
वा प</w>
व ज
ले ख</w>
रुप ये</w>
रवि वार</w>
रदेश े</w>
र की</w>
र का</w>
या ह</w>
य भि
मू ल
मु म</w>
मा रा</w>
बा ण</w>
बता या</w>
पृथि वी</w>
पि तृ
नि शा</w>
नि ः</w>
ना सि
न मः</w>
ध कार</w>
दै त</w>
दि शा</w>
त पो
त ना
ड स</w>
ड ल</w>
जी वित</w>
जा या</w>
छि द</w>
छ ता</w>
खा द</w>
के श
करू ँगा</w>
क ला</w>
क पो
ऋ षि
उस में</w>
इन के</w>
आतं क
अं दर</w>
- प</w>
ि या</w>
हिं सा</w>
सैनि काः</w>
सा ँ
स मे
शे र</w>
विज य
वा ई</w>
ल ह
रे भ</w>
री य
रि का
रामा य
र वः</w>
यो र</w>
यो गी</w>
यु वां</w>
याव रण</w>
या पक</w>
या नेन</w>
या नस</w>
मी र</w>
मा रे</w>
म प</w>
म ज
ब हू
प ल
प राज
प न
नि र
नि य
नि म</w>
धा व
दोप हर</w>
देव दत</w>
दे कर</w>
दूस री</w>
दिव ंग
द ते</w>
त ट</w>
ण े
झ ु
ज वा
छ ू
गा ते</w>
कृ तः</w>
कठ ोर</w>
क ह</w>
ऋ तु</w>
आ स
आ व
आ ना</w>
अ धर</w>
ं घ
ँ गी</w>
े ंगे</w>
सं घर</w>
स दृ
श नी</w>
वि देश</w>
व ै</w>
लो च
रि यः</w>
रधा न</w>
रति द</w>
र वे
मू त</w>
मी ठा</w>
मा म
म नस</w>
म दा
बालि का
बना ता</w>
ब र
पि छ
परि क</w>
प ते</w>
प ढ
ने ह</w>
नि रा
न ट</w>
धा री</w>
देख ना</w>
द पि</w>
थ ी
तृ णं</w>
ता याः</w>
ता य</w>
जा री</w>
ज लम</w>
चि ह</w>
चल न</w>
ग ो</w>
कृ पा</w>
कु म</w>
कु ट</w>
काम ना</w>
कठि न</w>
क मा
आ यु</w>
अव सर</w>
अपि तु</w>
ं श</w>
ौ र</w>
ह रा</w>
से वक</w>
सा धन</w>
षि क</w>
शु ष</w>
श नं</w>
विवि ध</w>
विवा ह</w>
विका स</w>
वि व
वि रुद</w>
वि राज
वास रः</w>
व हीं</w>
लि ङ</w>
लि खा
रण े</w>
र ना</w>
यू यं</w>
य ू</w>
य में</w>
मो ह
मान स</w>
मा ला
मा या
भा षण
भ ृत</w>
फि ल</w>
पे न</w>
पी ता</w>
पह ला</w>
प शु</w>
नि वसति</w>
नि ल
नि मित</w>
नि काल
ना ना
ध ु</w>
ध या</w>
दि वस</w>
द रवा
द नम</w>
थाप यति</w>
तु एँ</w>
त के</w>
डि तः</w>
ट स</w>
झू ठ</w>
ज ली</w>
ज नम</w>
चाल यति</w>
चल ो</w>
च ैव</w>
ग ताः</w>
खेल ते</w>
खा दन</w>
ओ गे</w>
अधि कं</w>
हि स</w>
हि ता</w>
हँस ता</w>
सा ह</w>
सा री</w>
षे भ</w>
शो ध</w>
वै दिक</w>
वे क</w>
वा नु
वा ङ</w>
व ती
ल ू</w>
री णाति</w>
रा रम</w>
यु ष</w>
यव हा
य ैः</w>
म णः</w>
भू ल</w>
बना ने</w>
ब त</w>
ब ई</w>
फू लों</w>
पिब ति</w>
पितामह ः</w>
ने ह
नू तन
ना क</w>
नरे ंद</w>
दि ति</w>
दा ता</w>
दा ँ
द या
तो त</w>
णा र</w>
ठ म</w>
छो टे</w>
छो टी</w>
छि न</w>
छा मः</w>
च ता</w>
घ ि
ग तम</w>
को मल</w>
किस के</w>
एक त</w>
उन को</w>
उ म</w>
आ धा
आ गा
अं तरिक</w>
1 0</w>
ह रा
सेवि का</w>
सुख म</w>
सु ंदर</w>
सम ं</w>
वि षा
वि र
वि चित</w>
वि च
वा सि
ल व</w>
रह ी
रण ा</w>
रकाश ित</w>
रका शि
र भाव</w>
र चना</w>
यि का</w>
या पि
य ि</w>
मु र</w>
मि ता</w>
मा म</w>
म ो</w>
म रा
म ति
भव तु</w>
बै ठ</w>
फे ं
पूछ ता</w>
न व</w>
धा वति</w>
दे ं</w>
थ स</w>
ता स</w>
तर फ</w>
तम ं</w>
त दर</w>
णा य</w>
णा त</w>
ज ब
छु ट</w>
चु नाव</w>
चि ं
चल ने</w>
ख ट</w>
को च</w>
कृ तिः</w>
कु सु
कु लं</w>
कि सान</w>
का त</w>
का ं
उ भ
आ शा</w>
आ ई</w>
अ धः</w>
1 9</w>
० ०</w>
ों से</w>
ह ंस
साध ु</w>
समा चार</w>
स ना
शि ल</w>
शा ः</w>
श ि</w>
वि भा</w>
वि दा
वि त
वा ल</w>
वा रम</w>
व नि</w>
लिख ा</w>
रो ज</w>
रु क</w>
रा णी</w>
रह ि
रण ि
र मुख</w>
र दू
यो त</w>
या दा</w>
मौ त</w>
मुख े</w>
महा राज</w>
मधु रं</w>
म ता</w>
भा री</w>
बा दल</w>
ब गी
पा त
पा णि
प तन</w>
प ङ</w>
ना द</w>
ना ति</w>
न यन</w>
धा य</w>
देश ों</w>
देश ं</w>
दुः खी</w>
दी पः</w>
दा र
था ः</w>
ता र
जो र</w>
छा या</w>
गं गा
कैके यी</w>
किना रे</w>
करो षि</w>
क हे</w>
ऋ षि</w>
आग त</w>
आ न</w>
अनु कूल</w>
अ त
ंड ा</w>
20 2
1 9
२० २
हजा रों</w>
सो ना</w>
सैनि कों</w>
सु खा
सा य</w>
सं क</w>
स नं</w>
ष ते</w>
ष काः</w>
विशा खा</w>
वि भू
वि धि</w>
वा दी</w>
वय मेव</w>
व रि
व रम</w>
व था</w>
ले गा</w>
ला कर</w>
रे क</w>
रु त
रि के
रवी त</w>
र मु
यु ग</w>
या ऽ
या पा
या नानि</w>
या कुल</w>
य क
मे लन</w>
मुझ से</w>
मुख ं</w>
मा मा</w>
मा भिः</w>
म यू
भ यं
बैठ े</w>
बैठ ा</w>
बा ं
प ताल</w>
ने ं</w>
नि मे
ना श
नग रं</w>
दि ख
दा त</w>
द नं</w>
तु मने</w>
ट ना</w>
जना नां</w>
ज हा
ची न
चि तम</w>
च रणा
गृही त</w>
गु फा</w>
गा ता</w>
ग ता</w>
खा दिष</w>
कुश ल</w>
एक मात</w>
एक दा</w>
ऋ चा</w>
आ सम</w>
अधि का
ह ंस</w>
सु ना
सा व
स रा
स खी</w>
स ख
ष मा
शरी रं</w>
वे दि
विज य</w>
वि पक</w>
वा ग</w>
व यति</w>
व नस</w>
व त
ल कड</w>
रो ह
रे व</w>
रु ओं</w>
रि ः</w>
रति ज</w>
र यः</w>
र द
ये गा</w>
यु ग
य ी
य कं</w>
मो बा
मे घ
मृ ग</w>
मु ं
मि दं</w>
मा द</w>
म हे</w>
म ञ</w>
भर त
भ रे</w>
बि न</w>
बा ग</w>
बना या</w>
पे क</w>
पी ठ</w>
पा दा
प हाड</w>
प यति</w>
नि यन</w>
न ती</w>
दि नम</w>
ति याँ</w>
ति त</w>
ति के</w>
तल वार</w>
त री</w>
त य</w>
टु कड</w>
टु ं</w>
ञ ेश</w>
जन स</w>
ज ं</w>
घा टन</w>
गो प
को ऽ
कै सा</w>
कृत वती</w>
किस का</w>
कहा -</w>
कह ने</w>
क पा
औष धि</w>
उन में</w>
इन का</w>
इ दं</w>
आ धार</w>
अभि नय</w>
अं तर</w>
अ का
ॉ ल</w>
हि तम</w>
हि तं</w>
हा नि</w>
सु गन</w>
सा यं</w>
स चि
शी ल
शि ख
श तं</w>
वे षु</w>
वि धा</w>
वि चा
वा सी</w>
वा ं
वं श
व -
ल ॉ
ल प</w>
रृ णोति</w>
री ष</w>
री णां</w>
रा पि</w>
रख ना</w>
र भु
योग ः</w>
यों के</w>
या वः</w>
मै त</w>
मिल ति</w>
मि लित</w>
मि थ</w>
मार ने</w>
भी र</w>
भार ती</w>
बोल ो</w>
बु ध
बु क</w>
बि जली</w>
ब ड़
पाठ ं</w>
पा दन</w>
पठा मि</w>
प प</w>
प दक</w>
प चा
निग दितम</w>
नि यों</w>
न दि
न के</w>
दी क</w>
दश रथ</w>
द ग</w>
था स</w>
थ -
त री
त दा
ड ं</w>
जान ती</w>
जा ताः</w>
छ ित</w>
घूम ते</w>
कर णं</w>
ऐ श</w>
उ ज</w>
आ धु
ंग न</w>
ा या</w>
हि म
सुख ं</w>
सिं हः</w>
सिं ह
सायं काले</w>
सा र
सम ग</w>
संबं ध</w>
षण े</w>
ष रं</w>
ष ट</w>
शा मिल</w>
श ह
श त
वी र
विवि ध
वा पस</w>
वा त
व मे
लिख न</w>
लिख ते</w>
ला प</w>
री राम</w>
री राम
री मान</w>
रि णी</w>
रा जन</w>
रा घ
रदेश स</w>
रति योगि
र मन</w>
मोबा इल</w>
मे न</w>
मि नट</w>
मान व</w>
मा ं
महा भा
म श</w>
भू षण
भारती य
भा ँ
बि भे
फ लों</w>
पिछ ले</w>
पर ि</w>
प थ
ने व</w>
ने भ</w>
नि कल</w>
ना नां</w>
ध क</w>
दु ख</w>
दि श</w>
था याः</w>
ते रे</w>
ता ह</w>
तप ः</w>
ण ो</w>
ड म</w>
ञानि क</w>
जिस ने</w>
जि ए</w>
जा नी
जा त</w>
ज हां</w>
ज नो
चो र</w>
चि तं</w>
च ः</w>
घ ं
गण ना</w>
ग मन</w>
काम ना
का रक</w>
का ँ
उ तर
इन में</w>
इ ंद</w>
अत एव</w>
हे तु</w>
सौ न</w>
सी मा</w>
सा कं</w>
सख ि</w>
सं लग</w>
सं तुष</w>
षण ा</w>
ष ड</w>
ष कों</w>
शि शु
वि धे
वाद न
वा ह</w>
वा नों</w>
वा दिष</w>
वा गत</w>
वद तु</w>
व ीं</w>
ले ते</w>
ला ते</w>
ल ते</w>
रौ प
रो ता</w>
रे रित</w>
रु ध</w>
रि तः</w>
रा णाम</w>
रमे ण</w>
रमा ः</w>
रख ते</w>
रख ता</w>
यो द</w>
या मास</w>
या ज</w>
या ं
य की</w>
मो र</w>
मे घ</w>
मान ो</w>
मा ल</w>
मा नु
म णा</w>
भो जना
भयं कर</w>
भ ित</w>
बी स</w>
बि ता
पू जन</w>
पु रा</w>
पा लः</w>
पा ं
परि वा
प ों</w>
प ने</w>
नी च</w>
नी ंद</w>
ना न
न दी
दिव से</w>
दिव सी
दि शा
था नों</w>
ता री
त मान</w>
त मस</w>
टि कां</w>
ज नं</w>
च ेन</w>
घू मने</w>
गुरु कुल</w>
गा स</w>
गा यत</w>
खा या</w>
ख ों</w>
कौ न-
कृ तस</w>
कित नी</w>
कि यत</w>
का लि
का रं</w>
ऊ ँ</w>
इस को</w>
आ हु
आ विष</w>
आ का
अधि कारी</w>
ँ ह</w>
ह ू</w>
ह वा</w>
सीता जी</w>
सहा यता</w>
समा चार
सफ लता</w>
स ती
शि र</w>
शि र
शा ंति</w>
वेग ेन</w>
वे दान</w>
वि नाश</w>
वि कार</w>
वा राण
वा मि
लो के</w>
ला ख</w>
ल ताओं</w>
ल -
रि यं</w>
रा लय</w>
रम ं</w>
रख कर</w>
रको ष</w>
र पतिः</w>
योग ं</w>
य श
मा ः</w>
मछ ली</w>
म ौ</w>
म हर</w>
म रण
बालि काः</w>
बा रिश</w>
बल वान</w>
ब ला</w>
ब चा
ब गु
ब ंद</w>
फ ला
पाठ ि
पाठ शाला</w>
पाठ यति</w>
पा ने</w>
प रोप
नौ कर</w>
नो त</w>
नु सार</w>
नि वसन</w>
ना टक</w>
न हा
धा नी</w>
देव ता
देख ती</w>
दि रं</w>
दि नानि</w>
दि खा</w>
थि ता</w>
ति थि</w>
त नी</w>
ण ों</w>
ण ीं</w>
ठा न</w>
जी ता</w>
ज प</w>
च रन</w>
च ं</w>
घट ना
गो ष</w>
गा ल</w>
गत दिने</w>
खा दि
के षु</w>
कृत सम</w>
का ला</w>
का रा
क द
क ते</w>
ए ल</w>
ए म</w>
आन ंद</w>
आ हार</w>
अनु स
अ तीव</w>
ह वन</w>
ह ड</w>
साइ किल</w>
सह सा</w>
सह योग</w>
सर ल</w>
सं ज</w>
स दृश</w>
ष ता</w>
शु भा
शा त</w>
वे ष
विंश तिः</w>
वि वर</w>
वि रो
वि ग</w>
वा रि</w>
व रु
व ध</w>
व ते</w>
व कर</w>
लौ ट</w>
र सो
र सार</w>
र शस</w>
र ने</w>
यों को</w>
या चि
य ष</w>
य व</w>
मृ ति</w>
मी टर</w>
मा री</w>
मा जी</w>
म रन</w>
म ती</w>
भ रा</w>
बी ज</w>
पो षण</w>
पु रो
पु रतः</w>
पि तुः</w>
पा या</w>
पा ते</w>
पशु ओं</w>
प हि
नु सा
नि यम</w>
ना पि</w>
न वी
न मा
न प</w>
न ता
देव ों</w>
दू रदर</w>
दि कं</w>
द ने</w>
द ं
तो ऽस</w>
ती क</w>
तारी ख</w>
ढ ो
डा ल</w>
टा न</w>
ट ो</w>
ट कर</w>
जै सी</w>
जिस में</w>
जि तः</w>
जा ये</w>
छ ः</w>
च ञ</w>
घ ु</w>
घ ण</w>
गी ता
गां व</w>
खे त</w>
खादा मि</w>
खा ती</w>
को टि</w>
कै ला
किस लिए</w>
उपास ना</w>
ई र</w>
इ ये</w>
आँ ख</w>
अव शिष</w>
अनु ज</w>
अ पा
अ ट</w>
अ ंत</w>
ों के</w>
ो त</w>
ू ँ</w>
ि याँ</w>
है -
सो ऽ
सु भा
सु धा
समु दाय</w>
समाचार पत</w>
सं श
स रः</w>
ष ष</w>
ष या</w>
शी तल</w>
वि रा
वा दन</w>
वच नों</w>
व भा
लै ंड</w>
लि तवान</w>
लभ ते</w>
लग भग</w>
ल ये</w>
रा ब</w>
रा नी</w>
रस ं</w>
रभ ो</w>
रति क</w>
रज ः</w>
र क
यो प
यु वती</w>
या स
या श</w>
यका णि</w>
य मंत</w>
य कम</w>
मु ँह</w>
भोज नम</w>
भे ज</w>
भाग ं</w>
भाँ ति</w>
बै ल</w>
प रे
प ठ</w>
ने वाली</w>
ना ऽ
ध ों</w>
दे वस</w>
दे गा</w>
द रं</w>
थि तम</w>
थि क</w>
तो ऽपि</w>
ते री</w>
ते भ</w>
ति लक</w>
ति ल
ति मान</w>
तर ङ</w>
त काल
ड ॉ</w>
ट ेन</w>
जि ता</w>
जान ना</w>
जा ः</w>
चल ती</w>
च ैः</w>
च स</w>
गा यन</w>
ख न
की जिये</w>
का रणा
करू ँ</w>
कं प</w>
क ूर</w>
क बू
आप णं</w>
आग तवन</w>
अह ंकार</w>
अधि क
अ समर</w>
अ शुद</w>
अ भाव</w>
अ ग
3 0</w>
ा ता</w>
हा र
सा म
समी पे</w>
संचा लन</w>
सं योज
स ही</w>
स वि
स वः</w>
षी ण</w>
षा यां</w>
ष तः</w>
शो क
शु चि
शि खर</w>
शा ं
श म
वे ग</w>
वि विधा
वा ता
ले खि
लि स</w>
ला ने</w>
ला ना</w>
ल ि</w>
ल घु</w>
रू क</w>
रु ष</w>
रु चि</w>
रा द</w>
रम ी</w>
र बन</w>
य हीं</w>
य कः</w>
मृ ति
मु र
मु खा
मा नि
मा ण
महा विद</w>
मंग ल
म -
बा जार</w>
ब रा
ब करी</w>
पु री</w>
पिता मही</w>
पा ँ
परि पूर</w>
परि णा
नि वास
नि वार</w>
नि देश
नाराय ण</w>
न ीं</w>
धू प</w>
धि ं</w>
धा म</w>
दा नन</w>
ते रा</w>
त वत</w>
त योः</w>
त ट
णि मा</w>
ड ेन</w>
जीव नं</w>
जाए गी</w>
जन नी</w>
जग दी
ज यति</w>
चाल कः</w>
चल भा
चल च</w>
चरणा रविन</w>
च कर</w>
गो ल
खो ज</w>
कुल पति</w>
कुरु तः</w>
कु टुम</w>
कि रण
का स</w>
क कर</w>
उप ेक</w>
उप विष</w>
आद मी</w>
अमे रिका</w>
अमृ त
अप रि
अनु मति</w>
अ सु
अ ञ</w>
अ गस</w>
ं द
े त</w>
हिमा ं
ह ं
से व</w>
सुन ो</w>
सुन ने</w>
सा हाय</w>
सम यः</w>
सत तं</w>
सं जय</w>
स ड</w>
षे प</w>
षा णां</w>
शृ ङ</w>
शि बि
वृ था</w>
विधान सभा</w>
वि वाद</w>
वा ऽ
वा सः</w>
वा य</w>
वं श</w>
व हन</w>
व ना
व नम</w>
व दे
लो भ</w>
लि याँ</w>
रौप दी</w>
रो ग
रि स</w>
रा धि
रवि वासरे</w>
रघु नाथ
यो धन</w>
या याम</w>
या ओं</w>
य न
य द
य ञ</w>
मू ढ
मु ग</w>
मा णं</w>
महिला ओं</w>
मण ों</w>
म शा
भू ख</w>
भार तेन</w>
भ जन</w>
बा हु
बहि र</w>
बना ते</w>
ब ला
पू जा
पुरु षः</w>
पुरा ना</w>
पी ना</w>
पि तः</w>
पाठ शाला
पा क
परि च
नो मि</w>
नु वन</w>
नि पुण</w>
ना यक</w>
ना ट
ध म
ध ना
दू रं</w>
दि रम</w>
द यः</w>
द दति</w>
ता भ</w>
त नु
डॉ .</w>
ठ त</w>
जि लों</w>
जल ि</w>
जनप दे</w>
चि त
चा हे</w>
चा वल</w>
च ट
गु ल</w>
गु णा
गा रे</w>
गम नं</w>
गं गा</w>
ग ढ</w>
खु शी</w>
खी र</w>
कु श</w>
कु ञ</w>
का ट</w>
करे गी</w>
क फ
क ती</w>
ए न</w>
ई स</w>
ई ं
इस की</w>
इ यं</w>
आयु र</w>
आ धा</w>
आ दित</w>
अमे रिक</w>
अनु सन</w>
अं तिम</w>
अ वि
ं दा</w>
0 00</w>
ड़ े</w>
ो ऽ
ा ते</w>
ह थि
सुन ते</w>
सु हृ
सा द</w>
सा ः</w>
सहा रा</w>
सरो वर</w>
समु त</w>
स के</w>
षि तः</w>
षा न</w>
षण ी
शो भा
शृ णु</w>
श नम</w>
श क
वी करोति</w>
विष यों</w>
वि नो
वा रे</w>
ली ला
लि यों</w>
लं का</w>
ल र</w>
रो दिति</w>
रो द</w>
रु ः</w>
रि तं</w>
राम ो</w>
राण ों</w>
रा श</w>
रा मे
रम ण
र पा
र ग</w>
याल यः</w>
यय नं</w>
यथा र</w>
य शो
य प
य जन</w>
य ङ</w>
मे ं
मृ ग
मु नी
मि त
मा नः</w>
मा ति</w>
महोद य</w>
म ू</w>
भे जा</w>
भू षणं</w>
भी तर</w>
भा स</w>
भ वामि</w>
भ ट</w>
भ ं</w>
बाल कों</w>
बा रह</w>
ब ू</w>
ब क</w>
पै दल</w>
पृथि व</w>
पु ल</w>
पि ष</w>
पि प</w>
पा लक</w>
ना री</w>
ना ना</w>
न मन</w>
न ना</w>
न ते</w>
न चित</w>
न कर</w>
धे नु
दौ रान</w>
देव ः</w>
देख िये</w>
दी न</w>
दि ए</w>
दा दा
द ही</w>
द ल
द य</w>
थि ताः</w>
ति थिः</w>
त वर</w>
त यन</w>
त यति</w>
त यः</w>
ण य</w>
डा ला</w>
ञानि काः</w>
जि से</w>
जि घ</w>
जना न</w>
चे त
चरण ों</w>
गो ल</w>
ग ज
खू न</w>
खा र</w>
कौ आ</w>
कोवि ड</w>
का लः</w>
उन से</w>
आयो जन</w>
आग न</w>
आग तः</w>
आ शीर</w>
अति रिक</w>
अ फ</w>
ंड े</w>
१ ९
ो प
ह सन</w>
ह री</w>
ह रि</w>
ह तः</w>
सो पा
सै कड</w>
से वां</w>
सू चित</w>
संग ठन</w>
स ला</w>
शा लि
वेद ों</w>
वी प</w>
वि नी</w>
वि चार
वा रः</w>
वा ञ</w>
व मा
ले प</w>
लि क</w>
ला नां</w>
ल यं</w>
रे खा
रु धि
री -
रा जी
रव हति</w>
रम णं</w>
रती त</w>
र चित</w>
र कर</w>
यों का</w>
यो क</w>
यान क</w>
य र
य य</w>
य ट
य जे
य को</w>
मो हन</w>
मै थु
मु हु
मान ता</w>
मा से</w>
भु त</w>
भाषा यां</w>
भरत जी</w>
भग वद</w>
भ ज</w>
बहू नि</w>
फु ल</w>
पि ण</w>
पा ली</w>
पा णि</w>
पा ः</w>
पराज ित</w>
पठि ष</w>
प रे</w>
प दे</w>
नी या</w>
नि षे
धा तु</w>
धनु र</w>
ध वान</w>
दो स</w>
दुरा पन</w>
दु खी</w>
दादा जी</w>
दाँ त</w>
था नम</w>
थ न</w>
तै ल
तुम को</w>
त रु
त रः</w>
डि या</w>
ड ु</w>
ञानि कों</w>
जीव ति</w>
जन ता</w>
छ ी
चि तः</w>
घूम ता</w>
घं टे</w>
घ न</w>
गौ र
गो द</w>
ग ै
ग तवती</w>
ख र
को र</w>
को यल</w>
काश े</w>
करो गे</w>
उठ ता</w>
उ धर</w>
उ ठा</w>
आग तम</w>
आ एगा</w>
अति क</w>
अ ती
अ गर</w>
अ ँ
२० १
ऽ नु
हृद यं</w>
हा सिल</w>
हा स
ह वाई</w>
ह ट</w>
सू ंघ
सु नि
सां प</w>
साँ प</w>
सं वर</w>
सं गति</w>
स वा
षा णि</w>
ष यति</w>
ष का
शा री
शरी रे</w>
शरी र
वे ल</w>
वी रों</w>
वी राः</w>
विन य</w>
वाद ं</w>
वय ि</w>
व रस</w>
रो ऽ
रि तम</w>
राजा ओं</w>
रा धा</w>
रा ध</w>
रा चीन</w>
रवि शति</w>
रमो दी</w>
रम णी
रम णार</w>
रघुनाथ जी</w>
र ूर</w>
र हार</w>
र शास
र कृति
या दि
यमा नं</w>
य वर</w>
य यः</w>
मो ह</w>
मु स</w>
मिल ते</w>
मि र</w>
मा प</w>
मा ंग
महो त</w>
मरा मि</w>
म री
म ंड
भा ति</w>
भा ज
बैठ ते</w>
बाल कस</w>
बह वः</w>
बगी चे</w>
पो ता</w>
पू रे</w>
पि तर
पा स
पा पी</w>
परि तः</w>
परं परा</w>
प रः</w>
प च</w>
नौ का
नि काल</w>
नाम कः</w>
ना भि
न हि</w>
न ल</w>
न मक</w>
न ं
धी रे
धा ं
ध नि
ध ता</w>
दी यते</w>
द शा</w>
थ या</w>
ता रे</w>
त कों</w>
ड ि</w>
ड ले</w>
जान कर</w>
जा ग</w>
जन क</w>
ज ते</w>
छे द</w>
छ ह</w>
छ म</w>
चु म</w>
चि के
चा ण</w>
च नं</w>
च ड</w>
गो दी</w>
गा म</w>
खे लता</w>
ख ंड</w>
को ण</w>
कृतभाषा यां</w>
कु ला
करो ड</w>
क टा
ऋ षियों</w>
ऊ ष</w>
उप कार</w>
उ वाच</w>
उ दर</w>
उ ग</w>
इ कट</w>
आ लि
अल ङ</w>
अमे रि
अभि नन</w>
अनु सं
अधी न</w>
अ जा
अ चा
ं शत</w>
ह ूर</w>
सो ता</w>
सु धा</w>
सि यार</w>
सा मर</w>
सब की</w>
सं घट
स वे
स मिति</w>
षि णा</w>
शि थि
विधान सभा
विती य
वि ह
वि भक</w>
वा भा
व सं
व पि</w>
व चित</w>
लो के
ले प
ले ती</w>
ल ना</w>
री ति</w>
राल येन</w>
रामाय ण</w>
रा तृ
रह ो</w>
रह ें</w>
रव ण</w>
र दत</w>
र कर
यो ति
यो जन</w>
ये भ</w>
याव रण
याण कारी</w>
या यां</w>
या करण</w>
य ीं</w>
य नेन</w>
मिल ना</w>
मालि क</w>
मा ने</w>
मनो हर</w>
मन सा</w>
म यं</w>
भूमि ः</w>
भु वि</w>
भ यानक</w>
बैठ कर</w>
बै ंक</w>
बं ध</w>
ब नी</w>
पै रों</w>
पु रं</w>
पु ः</w>
पु ं
पी ते</w>
पा दि
पा क</w>
परि चय</w>
पर सों</w>
पर श</w>
पत ति</w>
पठि तुम</w>
प ो</w>
प सन</w>
ने पर</w>
ना च</w>
न यामि</w>
धि यों</w>
ध नस</w>
दे ंगे</w>
ता श</w>
त ीं</w>
त रा</w>
ढ क</w>
टि काः</w>
ञा नम</w>
ञ स</w>
जु र</w>
जहा ज</w>
ज ता</w>
चो री</w>
च ली</w>
गू ढ
गुरु कु
गुज रा
गी तानि</w>
गा ने</w>
गण यति</w>
खिला फ</w>
खा न</w>
ख त</w>
केर ल
करा या</w>
कम रे</w>
क वि</w>
उप विश</w>
इस रो</w>
इदानी म</w>
इ ला
आवे दितम</w>
आतंक वादि
आँख ों</w>
आ ं</w>
अप श</w>
अने कानि</w>
अधिका रियों</w>
अ सि</w>
अ ड</w>
5 0</w>
.. ...</w>
ों को</w>
है ं
हा थों</w>
सोच कर</w>
सेव कः</w>
सू च</w>
सी ना</w>
सा मि</w>
सा नु
समा ज
सम ित</w>
सं वृत</w>
षि तं</w>
शौ र</w>
शै क</w>
शे ष
शू ल</w>
शि वा
श ित</w>
श ला
वि हा
वि दु
व शी
व री</w>
ली जिये</w>
लिखा मि</w>
लिख ती</w>
रे स</w>
री म</w>
रि कां</w>
रा हु
रा ध
रह कर</w>
रवा ह
रति मा</w>
र ने
र ग
योगा सन</w>
यान पे
या दी
यमु ना</w>
यती त</w>
य वान</w>
य मस</w>
य नम</w>
मै दान</w>
मिल ती</w>
मि तं</w>
मि ठा
मान ते</w>
मा णि</w>
मा ँग
मह ल</w>
मत लब</w>
म नि</w>
म च</w>
भै या</w>
भूत पूर</w>
भू मौ</w>
भी म
बैठ ता</w>
बैठ क</w>
बी मार</w>
बि हारी</w>
पुरु षार</w>
पी त</w>
पा व
परि ष</w>
पं जा
प ण
प चति</w>
नो प
नग रस</w>
न र
धा रा</w>
धा नि</w>
धा नम</w>
ध व</w>
दै व
दू रे</w>
दु रन</w>
द ू</w>
द वा</w>
द -
तु मिच</w>
तु भ</w>
ता रा</w>
ता प</w>
त वा
त देव</w>
ड लेषु</w>
ड ल
ड रता</w>
ठ ित</w>
ट व</w>
जाए ँगे</w>
जा ति</w>
ज ले</w>
चा रः</w>
च रा
घो षणा</w>
घ ट</w>
गुज रात</w>
गु र</w>
ग ौ</w>
ग ली</w>
कृत भाषा</w>
कू ड</w>
कु टि
किस की</w>
कवि ता</w>
कथ न</w>
कं प
क पि
क थ</w>
औष धं</w>
उपवि शति</w>
ई -
इ ए</w>
आरो हति</w>
आनी तवान</w>
आन यामि</w>
आग तवती</w>
आ रभ
अनु चित</w>
अधि कार</w>
अचा नक</w>
अ रण</w>
अ नार</w>
ड़ ी</w>
ों में</w>
ों की</w>
ॉ र</w>
हो त</w>
हे तु
हँस ते</w>
ह रे</w>
ह रे
सुख पूर</w>
सं यम</w>
सं देह</w>
षे पण</w>
शाला यां</w>
शा व
शा र</w>
श ो</w>
विवे क</w>
विधा स</w>
वि रोध</w>
वि नम</w>
वि द
वाय ना
व योः</w>
व भू
व धर</w>
व ध
व ट</w>
व ञ</w>
लेख नी</w>
लिख ने</w>
ला इ
लगा तार</w>
रे षि
रे न</w>
रू यते</w>
री डा</w>
रि यां</w>
रि यम</w>
रि त
रातः काले</w>
रा व</w>
रा ई</w>
रह ं</w>
रभृ ति</w>
रख ी</w>
र ीं</w>
योग ेन</w>
यु र</w>
यु प
याल येषु</w>
याया धी
या री</w>
य त
य के</w>
मोद कं</w>
मे ल</w>
मृ दु
मु हूर</w>
मु च</w>
मा नि</w>
मह ं</w>
मन ो</w>
मन सि</w>
मण ो</w>
म वि
म यी</w>
म ग
भा वः</w>
बो ध</w>
बू त</w>
बाबा गुरुजी</w>
ब ढ़
ब ध</w>
फ ी
फ रव
पुरा ने</w>
पा ई</w>
पं क</w>
ने से</w>
नी यं</w>
नि ध</w>
ना शक</w>
नग री</w>
धाव नाङ</w>
धा ं</w>
ध र
दौ र</w>
दे षु</w>
दू त</w>
द ता</w>
था नेषु</w>
था ं</w>
तू ने</w>
ती सरे</w>
ती स
ताला प</w>
त ये</w>
त किया</w>
ढ ू
टि कायां</w>
ट ौ</w>
जे ल</w>
जिन की</w>
जि तम</w>
जाना सि</w>
जब कि</w>
ज यन</w>
ज ग</w>
चि क</w>
च र
घ ृत</w>
घ ा</w>
गु ह</w>
गु रो
गि रा</w>
गां धी</w>
गा ना</w>
ग णि
खी ं
कौ शल</w>
को ष</w>
केव लम</w>
कु लम</w>
कु मार
किस ने</w>
कि री
करू ंगा</w>
करा ने</w>
करणी यः</w>
कर णम</w>
क ही</w>
उद य</w>
आ तु
अप ूर</w>
अके ले</w>
अके ला</w>
अ द
1 8
ों का</w>
ृ च</w>
ा र</w>
हिमां शु</w>
हित कारी</w>
ह ल
ह टा
सौ म</w>
सौ भाग</w>
सोम वार</w>
सु र</w>
सामाजि क</w>
सहा यक</w>
समा पन</w>
संसा रमें</w>
सं सर</w>
सं पूर</w>
सं घ
सं गीत</w>
स ृत</w>
स ू</w>
स लि
स भ</w>
स का
स -
षु ः</w>
षि णी</w>
षा याः</w>
शि ला
शा क</w>
श रद</w>
वृ ष
वी कृत</w>
विशेष ज</w>
विभाग स</w>
विप रीत</w>
विधा न</w>
विती य</w>
वि तः</w>
वाराण सी</w>
वायु ः</w>
वा प
वा नर</w>
वकी यं</w>
वका रेण</w>
व श
व रेण</w>
व जन</w>
लो कः</w>
लो कं</w>
लॉ न</w>
लिख ित</w>
लि ता</w>
ला त</w>
ल गी</w>
रो ना</w>
रो गि
रो ंसे</w>
रे खा</w>
रीड न</w>
री णा
रि न</w>
रि ताः</w>
रि ता</w>
रि तवान</w>
रा प
रह े
रस ों</w>
रणा नि</w>
र- बार</w>
र प
यो ऽपि</w>
ये ते</w>
ये ंगे</w>
या सः</w>
या ध</w>
या तः</w>
या ङ</w>
या -</w>
यदा कदा</w>
य थो
य ता
मे ंसे</w>
मृ ताः</w>
मु झ</w>
मी न</w>
मा द
म शी
म यि</w>
म यः</w>
म नन</w>
म तिः</w>
म कर
भू तं</w>
भु वन
भय भी
बु लाता</w>
बिभे ति</w>
बा र-बार</w>
बा ज</w>
पू र
पु रे</w>
पु र
पी ले</w>
पि त
पाप ों</w>
पाद ित</w>
पा दक</w>
पा ट
परा य
पठ ित</w>
नो चेत</w>
नु मः</w>
नी यः</w>
नि यम
ना व
ना मि
न ये</w>
न चिके
धि कृत</w>
धा न
देव ो</w>
दे वर</w>
दु श</w>
दु कान</w>
दिवसी य</w>
दिखा ता</w>
दा ल</w>
दश ी</w>
द नन</w>
थाप ना</w>
ति र
ता वद</w>
त वः</w>
ण ौ</w>
ठ हर
ठ ण</w>
टू ट</w>
टा नि</w>
ट ते</w>
ञा प
ञ े
जी ते</w>
जा ओगे</w>
छ ड</w>
घा यल</w>
घा टि
घ रों</w>
गो श</w>
गु ड</w>
गम ना
ग री
कौ सल</w>
कृत ज</w>
कृ तार</w>
की मत</w>
की चड</w>
कारणा त</w>
का शी</w>
का रेण</w>
का रा</w>
कंप नी</w>
क फ</w>
क ज</w>
क छु
औष ध</w>
ऑ स</w>
ए शि
ए वम</w>
ए न
ए कान</w>
उ र</w>
इ धर</w>
इ तना</w>
आँख ें</w>
आ हा
आ हत</w>
आ कार</w>
अव त
अनुस रण</w>
अन र</w>
अं गु
अ सम</w>
अ ला
अ मर
अ ज
अ कुर</w>
अ ँग
अँग ूर</w>
ंड र</w>
ं ठ</w>
.. ..</w>
५ ०</w>
े -
ा ती</w>
हृ ष</w>
हा न</w>
से र</w>
से ं
सु विधा
सु नाई</w>
सा स</w>
सा ढ</w>
सा ड</w>
सा ङ</w>
समझ ता</w>
सम ा</w>
सम क</w>
सं कट</w>
षे क</w>
षि ता</w>
शै त</w>
शू द</w>
शु रु
वो च</w>
वै राग</w>
वी क</w>
विष यः</w>
वि लोक</w>
वि चिन</w>
वि चरण</w>
वि च</w>
वाताव रण</w>
व लम</w>
व रों</w>
व रा
व भाव
व पूर</w>
लौ कि
लो हे</w>
लो भ
ली स</w>
ला ओ</w>
ला इन</w>
ल ती</w>
रो ष</w>
रो ंके</w>
रृ ं
रु प</w>
री लंका</w>
री रघुनाथजी</w>
री मन</w>
रातः काल</w>
रा भ</w>
रा चीन
रा ग
रा ं
रमे श</w>
रमा ण</w>
रभ ु</w>
रदू षण</w>
र सम</w>
र ल
र योज
ये षां</w>
युव काः</w>
या -
यय न
य दु
य का</w>
मौ न</w>
मु कुन</w>
मी ठे</w>
मा कम</w>
मण जी</w>
म भ</w>
भो क</w>
भार तम</w>
भव ने</w>
भ ू</w>
भ री</w>
बृ हत</w>
बि म</w>
बा ढ</w>
बा घ</w>
बना ती</w>
ब भू
फरव री</w>
पो ं
पिता मह</w>
पि क</w>
पा रि
पा कर</w>
पह चान</w>
परमा नन</w>
पं च
निक लता</w>
नि पु
नि धि</w>
नि कट</w>
नम ो</w>
न रः</w>
न पि</w>
धु र</w>
धि र</w>
धा ञ</w>
ध ृत</w>
देख े</w>
दिवंग त</w>
दि नी</w>
दा यक</w>
द शा
द री</w>
द रा
द याल
थै ले</w>
थि तं</w>
थि त
था ली</w>
थ ो</w>
ते ज
ती स</w>
ती ति</w>
ति म
ताला पं</w>
ता राष</w>
ता ब</w>
त ले</w>
त मेव</w>
त मम</w>
त भी</w>
त दानी
त ज</w>
त की</w>
णु ः</w>
णि क</w>
ण ित</w>
ड न</w>
ठ तः</w>
टा त</w>
ट का</w>
जी के</w>
जाये ंगे</w>
जाग रू
जाए ँ</w>
जा ल</w>
जगदी श</w>
जग द</w>
ज ंग
छा ल</w>
छा म</w>
चु रा
चु के</w>
चा रण</w>
चरण ं</w>
च लिष</w>
च लाता</w>
च रेत</w>
घ े
गु रू
गु णा</w>
गा यों</w>
ग मः</w>
ग तिः</w>
ग ईं</w>
खु द</w>
को लाह
को टि
किशो र</w>
कि याँ</w>
कास यति</w>
का लीन</w>
करा चार</w>
कर म</w>
कथ ञ</w>
क मी</w>
क दम</w>
क च
ओ ंके</w>
एक ता</w>
ए ल
ए गी</w>
ऊ ं
उप द</w>
उठ कर</w>
इति हास</w>
आन य</w>
आँ ग</w>
आ सी
आ ईये</w>
अभि ला
अपरा ध</w>
अप ने
अका द
अ योग</w>
2 2</w>
1 1</w>
े भ</w>
ि यों</w>
ा ना</w>
हृ दि</w>
हा सि
हथि यार</w>
ह सि</w>
ह रति</w>
सो च</w>
सु स</w>
समी क</w>
समा रब</w>
समझ कर</w>
सं चय</w>
स हि
स खि
षेप ण
षु द</w>
ष सों</w>
शी त</w>
शास न
शा कं</w>
श श
वै दि
वे षाम</w>
विष म</w>
विराज मान</w>
विदेश ी</w>
वि हार</w>
वि लाप</w>
वि ध</w>
वाय रस</w>
वा सन</w>
वा म
वा भि
वा चा
वच ः</w>
वं शी
व मपि</w>
व ता
लि न</w>
लग ती</w>
रो फे
रो प</w>
रो .
रे रणा</w>
रे य</w>
रूप म</w>
रि यो</w>
रि याः</w>
रि याँ</w>
रा इ
रम ति</w>
रभा वित</w>
रथम तया</w>
रथ ः</w>
रतिदि नम</w>
र सङ</w>
र यान</w>
र यं</w>
र पर</w>
र पद</w>
र चार</w>
ये ऽ
यि क</w>
याम वर</w>
यापि का</w>
याद यः</w>
या पार</w>
यव सा
यमे न</w>
यज ति</w>
य हं</w>
य वाद</w>
य तो</w>
मो टा</w>
मै च</w>
मे घा
मि ले</w>
मि तः</w>
माम ले</w>
महा देव
मना या</w>
मज बूत</w>
भो ज</w>
भू कंप</w>
भा ष</w>
भा गे</w>
भा गि
भव ता</w>
भव ः</w>
बो लें</w>
बो ले
बो धित</w>
बहि रा
पै सा</w>
पुरा नी</w>
पुरा ण</w>
पुन रपि</w>
पितर ौ</w>
पा हा
परि चा
पति ष</w>
ने के</w>
नुसा रं</w>
नी म</w>
निवा सि
नि व
नि खि
नि का
नि ंदा</w>
नामा नि</w>
न कं</w>
धा वन</w>
ध नों</w>
ध ने</w>
दो न</w>
दू ंगा</w>
दू ँगा</w>
दि ता</w>
दि तः</w>
दा नम</w>
दा दी</w>
दा दी
दरवा जे</w>
द ह</w>
था नस</w>
थ का</w>
तु तः</w>
ति का
ता ल
तं बर</w>
त ैर</w>
त रों</w>
ड ो</w>
टे शन</w>
टि का
ट ै
ञ ो</w>
जीव ों</w>
जीव ने</w>
जी ने</w>
जना र</w>
जन ै
जग ति</w>
ज रा</w>
ज यः</w>
ज त</w>
चो टी</w>
चु प</w>
ची नस</w>
चतु ष</w>
च यः</w>
च न
गौ शाला</w>
गो पाल
गुरु वार</w>
गु णी</w>
गि नती</w>
गि न</w>
गा या</w>
खो ल</w>
खि लौ
खि न</w>
खरीद ता</w>
खर गोश</w>
कृ ताः</w>
कू लों</w>
किस से</w>
करने वाली</w>
कबू तर</w>
क हि
क वर</w>
एक -
ए तानि</w>
उप वास</w>
इ मे</w>
आयो जि
आप स</w>
आ रु
आ भूषण
आ ति
आ च</w>
अव ता
अल ं
अमेरि की</w>
अने क
अनुसं धान</w>
अनु ष</w>
अनु ग</w>
अधि कारि
अखि लेश</w>
अ मित</w>
अ भि</w>
1 0
. एस
- 19</w>
, 000</w>
३ ०</w>
ि क</w>
ा कर</w>
होने पर</w>
हो श</w>
हो वे</w>
हिं सक</w>
हा त</w>
सौ ं
सो चा</w>
सुरे श</w>
सु शी
सु मित</w>
सामाजि क
सर लता</w>
समी पं</w>
सब ने</w>
सती श</w>
सं शो
सं य
सं प</w>
स मि
ष ो</w>
ष ये</w>
ष यन</w>
ष यः</w>
शो र</w>
शि रस</w>
शि रः</w>
शि कारी</w>
शं का</w>
शं कर</w>
श ना
वो त</w>
वेद ः</w>
विष य
वि हाय</w>
वि र</w>
वि मा
वि ख</w>
वि कल</w>
वास ं</w>
वा टिका</w>
व ला</w>
व पि
व दिष</w>
व ट
व चि
लो कों</w>
ले ष</w>
ले शः</w>
ला हल</w>
ला यां</w>
ला ए</w>
ला ं</w>
लगा ड</w>
ल लि
ल कर</w>
रै लोक</w>
रु ता</w>
री श</w>
री णि</w>
रिय ं
राज धानी</w>
रा सन</w>
रा वि
रा दि</w>
रह ों</w>
रवा त</w>
रका शः</w>
रं भ</w>
र ॉ
र सू
र फुल</w>
र ध</w>
र दे
र तम</w>
युव कः</w>
यु धिष</w>
या यं</w>
यमा ना</w>
यमा नः</w>
यजे त</w>
य हम</w>
य शस</w>
य वेद</w>
य मपि</w>
य नु
य नं</w>
य -</w>
मे ह
मृ त
मुं बई</w>
मान सिक</w>
मान ना</w>
माध व</w>
माता -
मा तरं</w>
मा ंस
महिला ः</w>
मह ेश</w>
मद द</w>
म ंगल</w>
भु ज</w>
भी ड</w>
भव ं</w>
भगि न</w>
भ वे
बे र</w>
बाल कौ</w>
बाल कं</w>
बा तों</w>
बना कर</w>
ब ौ
ब लं</w>
ब ढ
ब ः</w>
फु ट
फ ी</w>
पी कर</w>
पि बा
पाठ ः</w>
पा श</w>
पा लि
परि सर</w>
परि स</w>
परमा णु</w>
प दः</w>
नू तनं</w>
नी रज</w>
नी त</w>
नि ज</w>
नाम धे
ना यिका</w>
नदि यों</w>
न वे</w>
धी ः</w>
धा रण
धा त</w>
धन -
ध ेन</w>
ध रती</w>
ध नः</w>
दो षों</w>
दृढ ी
दूरवा णी</w>
दू री</w>
दू कान</w>
दि रे</w>
दादी जी</w>
दा ः</w>
द रम</w>
द म
द नः</w>
था प</w>
तै ल</w>
ते षाम</w>
तू ष</w>
तु झ
तु क</w>
ती य</w>
ति पूर</w>
ता यां</w>
ता म
त लि
त दानीं</w>
त तोऽ
णी म</w>
ण चन</w>
डा ॅ
ठ े
ट ल</w>
ट रने
ञा ं</w>
झ ि
झ गड</w>
जग न</w>
ज रा
छे त</w>
छ तः</w>
चै त</w>
चिं ता</w>
चि दानन</w>
चि ड</w>
चा लक</w>
चा ँ
चल प</w>
च रति</w>
च कित</w>
गु हा
गु रवः</w>
गु र
गु ञ</w>
गा निस</w>
गण े</w>
ग ला</w>
ग मन
खादा मः</w>
को प
कै सी</w>
का लं</w>
का क</w>
का ंस</w>
करु णा
कद ली
क पट</w>
ए तादृ
उप विशा
उप भोग</w>
उ ट</w>
इन की</w>
इं टरने
इ ह</w>
इ तस</w>
आवा म</w>
आलि ंगन</w>
आयो ज</w>
आधा रित</w>
आ पत</w>
आ नेष</w>
अह मदा
अव तरति</w>
अप ृच</w>
अति वृष</w>
अंग ू
अ हिंसा</w>
अ वर</w>
ँ ग</w>
ऽ यं</w>
ह मने</w>
सैनि कः</w>
सू ख</w>
सुन ना</w>
सा ंस</w>
समे त</w>
समझ ना</w>
सचि व</w>
सं बोधित</w>
स हो
स फे
सफे द</w>
स ते</w>
स के
षा य</w>
षा प</w>
ष कस</w>
शोभ ते</w>
शो थ</w>
शृ गा
शुरु आत</w>
शा श</w>
शा य</w>
शं ख</w>
श ूर</w>
श रणा
श पथ</w>
वै ः</w>
वे तन</w>
वी त</w>
विव रण</w>
विक सित</w>
वि दू
वार पाल</w>
वाभा विक</w>
वाद श
वा श</w>
वा यत</w>
व हति</w>
व धा
व दत</w>
व टु
लो चन</w>
ले श
ला व</w>
लगा ने</w>
ल बिहारी</w>
ल खन
रौ ञ</w>
रो टी</w>
रे जी</w>
रे ज</w>
रू ढ
रु ति</w>
रु ति
रु घ</w>
रीडा ङ</w>
रीड ति</w>
रिय ल</w>
रिके ट</w>
रि ंशत</w>
रा शि</w>
रह ेगा</w>
रयो जन</w>
रमि क</w>
रभु ः</w>
रं गा</w>
र सी
र सि
र शासन</w>
र वक</w>
र पति
र ञ</w>
यों में</w>
यु वा</w>
यु वा
याम हे</w>
याग कर</w>
या मेव</w>
या ज
यमु ना
य जा
मौ जू
मेल नं</w>
मे हु
मृ तः</w>
मु हम</w>
मु ष</w>
मि स</w>
मि नी</w>
मा लों</w>
मा तः</w>
महोद यः</w>
महा राष</w>
मह ती</w>
म शान</w>
म क
भौ ं
भे द
भू तानि</w>
भू कम</w>
भु जा
भाषा ओं</w>
भाज पा</w>
भा त</w>
भा ंति</w>
भर तः</w>
भ ङ</w>
बो र</w>
बू ढ</w>
बा ई</w>
बह ती</w>
बना ए</w>
बना ई</w>
बगु ले</w>
ब दल</w>
ब ँ
पि पा
पहु ँच</w>
प ती</w>
ने तुं</w>
नी य
नि शम</w>
ना ल</w>
ना भ</w>
धू लि
धा रित</w>
धा र
दो लन</w>
दु र
दु प
दी पं</w>
दि ने
दार भ</w>
दश वादने</w>
द ना
द ड</w>
थै ला</w>
थापि तवान</w>
तो ः</w>
तु र
तु मर</w>
ता रं</w>
ता या</w>
ता ड</w>
तरा खंड</w>
तमा सीत</w>
त ौर</w>
त विक</w>
त राष</w>
णि कः</w>
ण -
ड कारण</w>
टि यों</w>
ट मी</w>
ञा ता</w>
ञा तम</w>
जे ब</w>
जाये गा</w>
जा य
जा ंच</w>
जन ैः</w>
जन संख</w>
छ ं</w>
च लि
गौ रव</w>
गे ण</w>
गृ हि
गु रू</w>
गण े
गण ना
ग ते</w>
ग तवन</w>
खिला ड</w>
ख ल</w>
को शि
कृत विश</w>
कृत प</w>
कुमा रः</w>
कु ं
कीदृ शः</w>
किं तु</w>
कि म
कार गि
का रणम</w>
कह लाता</w>
कर वा
क हो</w>
क व
एका की</w>
ए म
ऊँ चा</w>
उप नि
ईं धन</w>
इ यों</w>
इ दम</w>
इ ज</w>
आ वृत</w>
आ य
आ धे</w>
आ ज
आ ख</w>
अभि व</w>
अन सू
अट लबिहारी</w>
अं श</w>
अं श
अ शुभ</w>
अ विद</w>
अ यम</w>
अ मर</w>
अ पर</w>
अ था
अ जा</w>
अ चि
अ कर</w>
- संस</w>
२ ०</w>
१ १</w>
े द</w>
ृ ष</w>
होने से</w>
हो रा</w>
हृद यमें</w>
हृ त</w>
हा ः</w>
हम ले</w>
सू चि
सू चक</w>
सुख ेन</w>
सु श</w>
सु विधा</w>
सु जाता</w>
सु क</w>
सी ख
सा वित</w>
सा धारण</w>
समा श</w>
सदा चार</w>
सं तोष</w>
स ती</w>
स कर</w>
षि का
षा द</w>
षणा य</w>
षण स</w>
ष ू
ष मता</w>
ष धं</w>
ष के</w>
शि रो
शि नी</w>
शा प</w>
शा खा
श र
श यन</w>
श ने</w>
श तम</w>
वै सी</w>
वेद ना</w>
वे णु
वी रता</w>
विशा लः</w>
विभू षित</w>
विनी त</w>
वि पु
वि ध
वि ता</w>
वि जा
वायना ड</w>
वाधी नता</w>
वाद नम</w>
वाताव रण
वाच नं</w>
वा पि</w>
वा णी
वस रे</w>
वच नं</w>
वच न
व लोक</w>
व यो
व यं
व य</w>
व तंत</w>
व ण</w>
ले खा
लु ब</w>
ली य</w>
ली -
लिखि तवान</w>
लिख े</w>
लिख ना</w>
ला म</w>
ल ह</w>
रो हित</w>
रो ह</w>
रो धः</w>
रो ते</w>
रे लिया</w>
रू पि
रु तम</w>
री बाबागुरुजी</w>
रि म</w>
राज मार</w>
रा मम</w>
रा दि
रा जीव</w>
रमा ण
रम ते</w>
र ल</w>
र युक</w>
र मुख
योगि ता</w>
यो न</w>
यो ति</w>
यू टर</w>
याल य
या सी</w>
या वर</w>
या भ</w>
या नाम</w>
या नन</w>
या णां</w>
यभि ज</w>
य वाक</w>
य कन</w>
मृ तम</w>
मुनी श</w>
मुझ को</w>
मुख म</w>
मु कु
मी ठी</w>
मि लि
मि क
मार कर</w>
मा नी</w>
मा तरम</w>
महिला एँ</w>
महि मा</w>
मशी न</w>
मर ने</w>
मत दान</w>
म वर</w>
म रु
म रिष</w>
म मा
म दी
म थ
म करः</w>
भाव ों</w>
भवि तुं</w>
भ रता</w>
भ ञ</w>
बो धि
बैठ ने</w>
बु रे</w>
ब ॉल</w>
ब लम</w>
फै ल</w>
फे ंक</w>
पु री
पि तम</w>
पहुं चे</w>
पति तम</w>
पं खा</w>
प ली</w>
प य
नो ऽ
नु क
नुक सान</w>
निदेश क</w>
ना हं</w>
ना य
ना ति
ना चार</w>
धीरे -
धीरे- धीरे</w>
धि का
ध ूर</w>
दो ल
दु त</w>
दि ना</w>
दा दा</w>
दा तुं</w>
द प</w>
द ंड</w>
थि तवान</w>
तुल सी
ती रे</w>
ति रस</w>
ता न
त मे
त मा</w>
त नः</w>
त ड</w>
त कः</w>
ठ ह
ञा ः</w>
जीवि का</w>
जि नेन</w>
जा नी</w>
जवा ब</w>
ज मीन</w>
छा ती</w>
चु का</w>
चा तुर</w>
चला ती</w>
चल नचित</w>
च प</w>
घूम ना</w>
घा तः</w>
गौ तम</w>
गु णं</w>
गि रते</w>
गि नता</w>
गा वती</w>
गण ेश</w>
ग ें</w>
ग ु</w>
खे द</w>
खरीद ती</w>
के नापि</w>
कुरु क</w>
कु हू</w>
कार यति</w>
का शी
का रों</w>
का ंग</w>
कमल के</w>
क ू</w>
क प
क द</w>
ओ ंको</w>
एक साकं</w>
ए प</w>
ए कां</w>
ऋ ण</w>
उठ ो</w>
उ छ
उ ं
आधु निक</w>
आदि नं</w>
आकाश े</w>
आ ह
आ शङ</w>
आ ल
आ ध</w>
आ जा
अभि न
अनु स</w>
अनु मान</w>
अ म
अ नि
अ काल</w>
ं सि</w>
1 5</w>
ृ म</w>
ा न</w>
हो रात</w>
हरि ण</w>
ह ते</w>
सो ऽपि</w>
सो चते</w>
सेना याः</w>
से वित</w>
सृ ज</w>
सू ची</w>
सुख -
सु व</w>
सु नें</w>
सी मित</w>
सि स</w>
सि तम</w>
साव धान</w>
सां सा
सा हस</w>
सा मा</w>
समा यो
समा चा
संसा र
सं सद</w>
सं देश</w>
सं तु
सं घ</w>
स वार</w>
स रका
स पना</w>
षि ताः</w>
षाल यति</w>
शृ णो
शु ण</w>
शिर सि</w>
शास नम</w>
शा यद</w>
शा ंत</w>
श नि
श नात</w>
श ना</w>
वै रा
वी य</w>
वी करोतु</w>
विराज ते</w>
विनी ता</w>
विज यं</w>
वि मानं</w>
वि भे
वि भव
वान रः</w>
वा सु
वा ल
वा णि
वा ंस</w>
वध ू</w>
व व</w>
व रूपं</w>
व तों</w>
लो ष</w>
लेख न</w>
लिख ो</w>
लि म</w>
लि का
लगा या</w>
लग ने</w>
लं घन</w>
रो पण</w>
रो धित</w>
रो ती</w>
रो ण</w>
रेष यति</w>
रे लगाड</w>
रू हि</w>
रू पा
री न</w>
री धर</w>
रि षु</w>
रि यार</w>
राव ण
राम ी
राजी वः</w>
रा चार</w>
रसो ई</w>
रस ो</w>
रवा ह</w>
रमे शः</w>
रम र</w>
रम पि</w>
रधा नाचार</w>
रथ मः</w>
रति वर</w>
रण व</w>
रजा पति</w>
रज ो
र सः</w>
र वार</w>
र यानं</w>
र या</w>
र भा</w>
र भवति</w>
र बा
योगा सनं</w>
यो जना
ये ति</w>
यू तः</w>
या वन</w>
या व</w>
या यः</w>
या भि
या पन</w>
या च
य ैर</w>
य सन</w>
य वा
य पः</w>
य थ</w>
मे ट</w>
मृ तं</w>
मू ढ</w>
मु ञ</w>
मी ल</w>
मि शन</w>
मि लन</w>
मालि न</w>
मा श</w>
मा प
मा नम</w>
महादेव जी</w>
म रे</w>
म नी
म चर</w>
भो पाल</w>
भूमि का</w>
भूमि ं</w>
भू स</w>
भू षणम</w>
भू ता</w>
भुजा ओं</w>
भी ष</w>
भारती यों</w>
भारती याः</w>
भा सुर
भा रः</w>
भा नु</w>
भा गी</w>
भव द</w>
भयभी त</w>
भ रण
बैठ ना</w>
बे ल</w>
बु रा</w>
बु ध</w>
बु ढ</w>
बाल केन</w>
बा ण
बा ढ
बल ि</w>
बरा बर</w>
बद लू
बं धन</w>
ब ि</w>
ब लता</w>
ब म</w>
ब ढा
ब चा</w>
फा र</w>
फा इन
फाइन ल</w>
फ लस</w>
पृ शति</w>
पु लिस</w>
पि या</w>
पारि तो
पा षा
पहुँ चा</w>
पह ल</w>
पर ो</w>
पठि तव</w>
प थं</w>
प तन
प का</w>
नौ करी</w>
नू तन</w>
नु कू
नी ल</w>
नी रजः</w>
निवेद यति</w>
निमे ष</w>
ना -
धा याः</w>
ध रः</w>
ध नी</w>
ध नाय</w>
देश भक</w>
देव राज</w>
देख ें</w>
दे वं</w>
दुः खा
दा ह</w>
दा यित</w>
दा क</w>
द ीं</w>
द के</w>
थू लः</w>
थि रता</w>
था ना
थ ेन</w>
ते षा
ते जी</w>
ती नां</w>
ति शाली</w>
ति रंगा</w>
ति क
तरा खण</w>
त व
त रन</w>
त मी</w>
त पा
ठा ः</w>
ठ ु
टी म</w>
टि श</w>
टि याँ</w>
ञा नस</w>
जु ड</w>
जी भ</w>
जि ल</w>
जि तना</w>
जा ल
जनप देषु</w>
जनप दस</w>
जन क
ज ें</w>
ज लेन</w>
ज ला</w>
ज रू
चो र
चो ंच</w>
चे ति</w>
ची नी</w>
चि ल</w>
चि म</w>
चि ता</w>
चा रिणी</w>
चा पि</w>
च कार</w>
गो पि
गे षु</w>
गुरु ं</w>
गु स</w>
गु ष</w>
गु णाः</w>
गि लास</w>
ग ला
ग रज
खेल ने</w>
खि ड</w>
खा कर</w>
खा एँगे</w>
ख ला</w>
कौ न
कौ ए</w>
कॉ र</w>
कैला श</w>
केर ले</w>
केर लस</w>
कृ षि
कृ तान</w>
कामना एँ</w>
का क
कह ती</w>
कम लो
क ना
क ति
क टु
ओ म</w>
ए तौ</w>
ऊँ गी</w>
उपवि श
उप राष</w>
उप देश
उद ग</w>
उ पर</w>
उ दार</w>
उ ता
इ ङ</w>
आहु ति</w>
आरो प</w>
आतु राल
आगा मि
आग मन</w>
आ हू
आ लिङ</w>
आ मन</w>
आ फ</w>
आ ठ
आ एँगे</w>
आ ऊँगा</w>
आ उट</w>
आ ई
अहमदा बाद</w>
अह र</w>
अव तार</w>
अला वा</w>
अभि मान</w>
अभि प</w>
अप वित</w>
अनु वाद</w>
अनु पस</w>
अकाद मी</w>
अं धे
अं तर
अ वाप</w>
अ लम</w>
अ फ
ं कि</w>
1 6</w>
1 2</w>
- -</w>
१ ८
१ ५</w>
० ००</w>
ऽ हं</w>
हो ं
हृद ये</w>
हृ द</w>
हिमा लय</w>
हिमा चल</w>
हा ई</w>
हा ँ
हरा या</w>
हनु मान
सा वर
सा थ-
साथ- साथ</w>
सवे रे</w>
समु च</w>
समा धि</w>
सक ल
सं शय</w>
सं दीप</w>
स ना</w>
स न
स कः</w>
षो ड
षी ण
ष म
ष क
शोभ न</w>
शै ली</w>
शह द</w>
वै ष</w>
वे व</w>
वे दो
वे ण</w>
वी कुर</w>
विमान निल
विभाग ेन</w>
विन श</w>
विधि वत</w>
विज े
विंश ति
वि ही
वि शीर</w>
वि म
वाधी न
वादन तः</w>
वा लि
वा मिन</w>
वा नां</w>
वा ण</w>
वा ड</w>
वा चा</w>
वका रस</w>
व शिष</w>
व रे</w>
व जस</w>
व चा</w>
लो म
लो केश</w>
ले क</w>
लि तं</w>
लाह ौर</w>
ला ह</w>
ला क</w>
ल यः</w>
ल त</w>
रोफे सर</w>
रो वर</w>
रो कने</w>
रे रयति</w>
री लङ</w>
री य-
री मती</w>
री ति
री णन</w>
रि ति</w>
रि ट</w>
रि काः</w>
राह क</w>
राज ेश</w>
रा या</w>
रा थ
रा ङ</w>
रह र</w>
रह णी</w>
रवी ण</w>
रमणी य</w>
रम ित</w>
रम म</w>
रधा र</w>
रति स</w>
रका न</w>
र से
र बुद</w>
र पत</w>
र चार
र चलति</w>
र कम</w>
र -</w>
योग स</w>
ये श</w>
ये द</w>
यू क</w>
याल यात</w>
याल यतः</w>
या यि
या चना</w>
यव साय</w>
यमा ने</w>
यज नं</w>
य शः</w>
य ति
य जुर</w>
य कानि</w>
मो हित</w>
मे ः</w>
मे ंट</w>
मू लं</w>
मु रा
मी डिया</w>
मिल ने</w>
मि ह</w>
मान ती</w>
माता- पिता</w>
मा ओं</w>
मं जु
मंजु ला</w>
म म
म ठ</w>
म छु
म का</w>
म ंच</w>
भु ः</w>
भारत -
भा षणम</w>
भा न</w>
भव म</w>
भ ला</w>
भ त</w>
बे टे</w>
बृ हस</w>
बु लाया</w>
बु खार</w>
बालि कायाः</w>
बाल केभ</w>
बा हरी</w>
बा द
बहु धा</w>
बहा दुर</w>
बह ा</w>
बभू व</w>
बता ओ</w>
ब ेन</w>
ब ित</w>
ब नता</w>
ब च
फा ई</w>
फ ले</w>
पों छ
पै से</w>
पे ड़</w>
पे श</w>
पूछ ते</w>
पूछ ती</w>
पुरुष को</w>
पु रम</w>
पी ला</w>
पी ती</w>
पी ड
पि बन</w>
पि ब</w>
पा नं</w>
पहुँ चा
पहु ंच</w>
परि षद</w>
प यो
नो क</w>
नू तनानि</w>
नु रा
नी लेश</w>
निवा सी</w>
निकल ते</w>
नि ह</w>
नि शं</w>
नि रं
नासि का</w>
नासि का
नाराय ण
ना ग</w>
न ैः</w>
न शी
न तः</w>
न ख
धो ने</w>
धु ं</w>
धि कं</w>
धि क
ध रा</w>
ध यः</w>
ध कर</w>
देव की
दे वा</w>
दे नेवाला</w>
दू क</w>
दुःख ं</w>
दु ल</w>
दु कक</w>
दी जिए</w>
दिशा ओं</w>
दिखा या</w>
दि भिः</w>
दि ना
दि ग</w>
दि ख</w>
दा सः</w>
द ैव</w>
द लस</w>
द रता</w>
द रः</w>
द यन</w>
थू ल</w>
थाप य</w>
था यी</w>
था ओं</w>
तै रता</w>
ते माल</w>
तुम से</w>
तु रन</w>
ति ल</w>
ताला पः</w>
ता है</w>
ता नाम</w>
तर ं
तकाल य</w>
त मिल
त मन</w>
त ता</w>
त ण</w>
त कर</w>
णु मित</w>
णी यम</w>
ढ ी
ढ का</w>
डि यम</w>
ड ों</w>
ठि र</w>
ठा मि</w>
ठ ो</w>
टे डियम</w>
टि काम</w>
टि ंग</w>
टा टा</w>
ञा य</w>
जे ं
जि तेन</w>
जागरू कता</w>
जाए ंगे</w>
जा पान</w>
ज ृम</w>
ज येत</w>
ज या</w>
ज नन</w>
ज ं
चु ल</w>
चि का</w>
चाह ने</w>
चाल नं</w>
चा य</w>
चा क</w>
च य
च ती</w>
घाट नं</w>
घ ों
घ न
गो पाल</w>
गो धू
गुर वे</w>
गी दड</w>
गण ित</w>
गं भीर</w>
गं ध</w>
ग वे
खेल ना</w>
खा ओ</w>
खरी द</w>
ख न</w>
कोशि श</w>
को त</w>
को ड</w>
कृत कार</w>
कृ तिक</w>
कु रः</w>
की जिए</w>
कि सी
कि लो
कि ता</w>
काल ो</w>
कान दार</w>
का रणं</w>
का यि
का टने</w>
का ङ</w>
करा ना</w>
कर ी
क निष</w>
क न
क णे</w>
क ण
ओ ष
ओ ं
ए कम</w>
ऋ द</w>
ऊँ चे</w>
उ तर</w>
इन को</w>
आयु ष</w>
आप से</w>
आप णे</w>
आद रणी
आतंक वादी</w>
आ विश</w>
आ यी</w>
आ द</w>
आ ङ</w>
आ कृति</w>
अरु ण</w>
अप हरण</w>
अप मानित</w>
अन ृ
अधि कः</w>
अ विना
अ रो
अ गले</w>
ः स</w>
ं टी</w>
- स</w>
५ ७</w>
२ ६</w>
२ ५</w>
२ २</w>
१ २</w>
हो ली</w>
हृद य
हु ईं</w>
ही रा</w>
हि ते</w>
हासि नी</w>
हा द
ह नन</w>
ह द</w>
ह ता</w>
ह तं</w>
सो लह</w>
सु हासिनी</w>
सु योग</w>
सु मन</w>
सि तंबर</w>
सा मना</w>
समू ह
समु पस</w>
समी प
समा प
सम ः</w>
संसा रे</w>
संबं धी</w>
सं स
सं पत</w>
सं धि
सं तान</w>
स वे</w>
स वा</w>
स रति</w>
स फाई</w>
स ने</w>
स नम</w>
स तां</w>
षि णा
षा सूत</w>
षा मन</w>
षणा र</w>
षणा नि</w>
ष यिष</w>
शु श</w>
शि शु</w>
शि ला</w>
शाला ं</w>
शारी रिक</w>
शा कम</w>
श ही
श राब</w>
श रण
श मी</w>
वो प
वेद ं</w>
वे ऽपि</w>
वे ला</w>
वे च</w>
विष ं</w>
विनो द
विधा ता</w>
विदू षक</w>
विती यं</w>
वि सर</w>
वि शुद</w>
वि ल
वि रक</w>
वि योग</w>
वि ं
वास ो</w>
वास स</w>
वाद श</w>
वा ला
वा ति</w>
वा ज</w>
वा चन</w>
वा गतं</w>
वनि ः</w>
व ु
व सा</w>
व राः</w>
व रा</w>
व तो
व कार</w>
व कं</w>
लौ ह
लोके शः</w>
लोक याने</w>
लो ऽ
ली म</w>
लि नी</w>
ला प
ला नी</w>
ला ँ
ल ला
ल ट
रो हि
रो का</w>
रो ंको</w>
रे ता</w>
रे गा</w>
रे ं</w>
रृ ण</w>
रूप से</w>
रू ढ</w>
रीडा याः</w>
री त
री डि
रि व</w>
रि कॉर</w>
राव णः</w>
रामे ण</w>
राज नी
राज ः</w>
रा मेश</w>
रा उ
रा ंस</w>
रह ण
रसा रित</w>
रशं स
रव ि</w>
रव चन</w>
रम च</w>
रभा ते</w>
रथ मे</w>
रथ मस</w>
रतियोगि ता</w>
रति वे
रति बिम</w>
रणा य</w>
रण ी</w>
रघु श</w>
रघु नन</w>
र- प</w>
र शः</w>
र र</w>
र ये
यों की</w>
यि नी</w>
यि तव</w>
याल यों</w>
याल यानां</w>
याल यम</w>
यायाधी श</w>
यादी नि</w>
या यन</w>
या मा
या त
या कुमा
यम राज</w>
य शाला</w>
य मः</w>
य थे
य जी
मोह नः</w>
मेह नत</w>
मेल ने</w>
मे धा
मुप गताः</w>
मुनि यों</w>
मु स
मु न</w>
मिठा ई</w>
मातु लः</w>
मा रक</w>
मा मी</w>
मा धुर</w>
मग रमच</w>
म शास</w>
म रणं</w>
म धु</w>
म दि
म जा
म चा
भू मेः</w>
भू तः</w>
भि ण</w>
भार तमा
भा षां</w>
भवि तुम</w>
भ ली</w>
भ ं
बो झ</w>
बै ग</w>
बे कार</w>
बु री</w>
बी मारी</w>
बाल ः</w>
बा ला
बा बा</w>
बहु मूल</w>
बहि न</w>
बद ला</w>
ब ड़ा</w>
ब टु
ब छड</w>
फो ट
फे ब</w>
फ र</w>
फ ड</w>
पे त</w>
पे ं
पूछ ने</w>
पुरु षाः</w>
पी ताम</w>
पी ठि
पिबा मि</w>
पितृ व</w>
पि पी
पाद यति</w>
पाद कन</w>
पाँ च
पा र
पहुं चा
परि सरे</w>
परि णाम</w>
परि चर</w>
पति व</w>
पका ता</w>
प सीना</w>
प दम</w>
प थि</w>
प ता
प णं</w>
प के</w>
नौ कां</w>
ने तुम</w>
निवा रण</w>
निः श</w>
नि पा
नि ज
ना यां</w>
नव दिल</w>
नचिके ता</w>
न ने</w>
न ंद</w>
धो ती</w>
धे नु</w>
धृ ष</w>
धु ः</w>
धी र</w>
धि कारी</w>
धा यां</w>
ध ति</w>
ध -
दो ह
दो षः</w>
दै न</w>
देवा य</w>
दु कानदार</w>
दिवंग तः</w>
दि वस
दि तं</w>
दा वन
दा ने</w>
दा नी</w>
दयाल ु</w>
द ौ</w>
थि नः</w>
थाप यन</w>
तो ल
ते ष</w>
ते व</w>
ते नैव</w>
ते जो
तु का
ति पत</w>
ति कम</w>
ता भिः</w>
तप ो</w>
तट रक</w>
त ौ
त यत</w>
त मो
त नस</w>
त तस</w>
त डा
णा न</w>
ड रते</w>
ड ना</w>
ठा त</w>
ठा कर</w>
टे षु</w>
टे ः</w>
टि प</w>
टि कट</w>
टा ई</w>
ट ु</w>
ञ े</w>
ञ प</w>
जिस को</w>
जिन में</w>
जान कारी</w>
जा यन</w>
जन नी
जन नियों</w>
ज ि</w>
ज रद</w>
ज यं
छ ल
चे हरा</w>
चे तना</w>
चू हे</w>
चला ते</w>
चल ना</w>
च ै</w>
च ण
घु स</w>
गे ंद</w>
गृहि णी</w>
गृह कार</w>
गुरु र</w>
गुरु ओं</w>
गि रता</w>
गा यिका</w>
गा ध</w>
गा द</w>
गा ं</w>
गमना गमनं</w>
ग रु
ग ग
खू ब</w>
खा ये</w>
खरीद ते</w>
ख लन</w>
ख राब</w>
ख बर</w>
को स</w>
को लाहल</w>
को कि
कृता ध</w>
कृ षकः</w>
कृ तेः</w>
कु टी</w>
की ड</w>
कि यद</w>
का राय</w>
का मा
का भ</w>
का नों</w>
का नाम</w>
का टता</w>
का उं
कदा चन</w>
कथ मपि</w>
कट ु</w>
कछु आ</w>
क मपि</w>
ओ ष</w>
एका ग</w>
ए यर
ऊँ ट</w>
उपविशा मि</w>
उठा या</w>
उ ठ</w>
इन से</w>
इ म</w>
आवे दन</w>
आप दा</w>
आज कल</w>
आँ सू</w>
आ शा
आ शंका</w>
आ वेद
आ त
अह ं
अव शेष</w>
अव तीर</w>
अरु णा
अभि यान</w>
अनु रूप</w>
अनु राग</w>
अनु करण</w>
अति थियों</w>
अ सक</w>
अ नि</w>
अ ध
अ ण</w>
अ चार</w>
ंड ी</w>
1 8</w>
१ ०</w>
ै श</w>
हों नेन</w>
हिं सा
हा थ
हरि ः</w>
हँस ती</w>
ह ु</w>
ह वा
ह थे
ह ण</w>
ह ज</w>
सौ ख</w>
सो या</w>
से ल</w>
सूच यति</w>
सू रज</w>
सी तया</w>
सी ढ</w>
सां ख</w>
सा रस</w>
सा य
समी ची
समा नता</w>
समझ ने</w>
समझ ते</w>
सम त</w>
सना तन</w>
संश यः</w>
सं वाद
सं योग</w>
सं भव</w>
सं पन</w>
सं दर</w>
सं चार</w>
स सुर</w>
स फ</w>
स पत</w>
स तर</w>
स खे</w>
षेप णं</w>
षु त</w>
षी य</w>
षि णः</w>
षका णां</w>
शोभा यमान</w>
शोभ नम</w>
शृ ण</w>
शृ गाल</w>
शुभ म</w>
शु म</w>
शु न
शिशु ः</w>
शि खा</w>
शा रदा
शा न
शन ै
शं कराचार</w>
श वः</w>
श काः</w>
श ंस</w>
वैरा णु
विषा द</w>
विष येषु</w>
विशेष ता</w>
विभा जन</w>
विधा नि</w>
वि पि
वि नष</w>
वि नः</w>
वि धौ</w>
वि देशी
वि ताः</w>
वाह क</w>
वासि नः</w>
वाद ु</w>
वाणि ज</w>
वा हा</w>
वा नि</w>
वर दान</w>
वपि ति</w>
व लित</w>
व ने
व धू
व ता</w>
व ड</w>
व चिद</w>
व चा
व ङ</w>
व ग</w>
लो चना</w>
लो कस</w>
ली ला</w>
लाल च</w>
लघु पतन
रौ द</w>
रो हितः</w>
रो गः</w>
रे ऽ
रे लि
रृ णो
रू यात</w>
रू म</w>
रु व
रीडा यां</w>
री हरि
रि ये</w>
रि यमा
रि भुवन
रि भिः</w>
रि पुः</w>
रि टिश</w>
राम र</w>
राज े
रा नु
रा दू
रा दुर</w>
रा जनै
रा ंग
रा ँ
रया सं</w>
रमा द</w>
रम शः</w>
रम त</w>
रभा वः</w>
रति नि
रज त</w>
रकाश ना</w>
र ैर</w>
र शान</w>
र विश</w>
र वास</w>
र चु
यो गे</w>
यू ष
यू ब</w>
यू ते</w>
यान पूर</w>
या ऽऽ
या वद</w>
या नात</w>
या चक</w>
या च</w>
य शास</w>
य यं</w>
य मान
य काः</w>
मौ सम</w>
मोद कानि</w>
मो टी</w>
मैथु न</w>
मृ द</w>
मृ ते</w>
मृ तवान</w>
मु कुट</w>
मी द</w>
मि ली</w>
मि लाकर</w>
मि तानि</w>
मा ह</w>
मा स
मा व
मा णम</w>
महोद यस</w>
मल याल
मछु आ
मकर न</w>
म रामायण</w>
म भि
म जा</w>
भू ताः</w>
भु ज
भीम जी</w>
भाषा याः</w>
भारत वर</w>
भा षी</w>
भा नु
भा ण</w>
भा गों</w>
भव ते</w>
भर ना</w>
भगि नि</w>
भ वा
बे होश</w>
बा धि
बना ये</w>
ब ली
ब लः</w>
ब ङ</w>
ब कम</w>
फा ल</w>
पढ़ ते</w>
पें सिल</w>
पूज ित</w>
पुरुष ोत</w>
पुरा तन</w>
पु च</w>
पि शा
पि घ
पाय सं</w>
पादा भ</w>
पाद ः</w>
पाठशाला ं</w>
पाठ ी</w>
पा ना</w>
परि हा
पर दा
पति तः</w>
पढ ता</w>
पठि तुं</w>
प ड़
प री
प च
नू नं</w>
नी ं
निका लता</w>
नि शा
नि मि
नाम के</w>
ना रिके
ना चते</w>
ना खून</w>
नवी न</w>
नमा मि</w>
नदि याँ</w>
नग रम</w>
न रक</w>
न में</w>
न ग</w>
न ख</w>
धी यते</w>
धी न</w>
धा वस</w>
धा रयति</w>
धा नां</w>
ध ौ
ध व
ध ना</w>
देह रादू
देख ी</w>
दे ष</w>
दे वेश</w>
दू र
दुः खि
दु न</w>
दी वार</w>
दी पि
दी न
दिख ता</w>
दि सं
दि शति</w>
दि नद</w>
दा हि
दा रिद</w>
द वा
थि ति
था नां</w>
थ ग
थ ं
तोऽ सि</w>
तो प
तृ ण
तू नां</w>
तू णी
तुल सी</w>
तुल ना</w>
तुझ े</w>
ति मे</w>
ति तः</w>
ता ऽ
ता ज</w>
ता ं
तरा ं</w>
तमिल ना
त ब
त दन</w>
त थ</w>
त जन</w>
त -</w>
णा नां</w>
ण यः</w>
ण को</w>
ढू ं
ढ ु
ड यन</w>
ठ तु</w>
ट ें</w>
ट वन</w>
ट यं</w>
ट -
ञा यते</w>
ञ म</w>
ञ ता</w>
झ ंडा</w>
जो त</w>
जीव नम</w>
जि ताः</w>
जान ो</w>
जान की
जा तु</w>
जयं ती</w>
छु क</w>
चे तन</w>
चु ना</w>
चा प
चला ने</w>
चं चलता</w>
च दश</w>
घो र</w>
घ ूर</w>
गौ ड</w>
गो पा
गे ट</w>
गृहा ण</w>
गृह ेषु</w>
गुरु वासरे</w>
गु हा</w>
गु च</w>
गा यामि</w>
गा नां</w>
गा ढ
गरी ब</w>
गम य</w>
ग व</w>
ग लि
ग तौ</w>
खो दता</w>
खा ली</w>
खा ट</w>
ख नति</w>
कौन- सा</w>
को टा</w>
कैला शः</w>
के ले</w>
के त</w>
कू प
कुश लः</w>
किस को</w>
का रु
का टना</w>
का ञ</w>
का कर</w>
कर स</w>
कम लों</w>
क वच</w>
क योः</w>
क मण</w>
क टि
क ङ</w>
औष ध
ए यर</w>
ए ता
ए केन</w>
ऋ ष</w>
ऊ ंगा</w>
उपास ते</w>
उपा धि</w>
उप न</w>
उठा ना</w>
उठा कर</w>
उ प</w>
ई क</w>
इ तने</w>
आव रण</w>
आभूषण ों</w>
आप लोग</w>
आं दोलन</w>
आ रोग</w>
आ च
आ ंग</w>
अह ल</w>
अह ङ</w>
अव रुद</w>
अव कर
अभिला षा</w>
अभि वादन</w>
अभि नेत</w>
अप मान</w>
अप ना
अप त</w>
अति थिः</w>
अट ै
अखि ल</w>
अ शोक
अ निश</w>
अ कथ
ंड े
ंड ित</w>
ँ छ</w>
2 4</w>
2 0</w>
. 00</w>
६ ०</w>
२०२ २</w>
१ ०
ढ़ ी</w>
ड़ ों</w>
ड़ िया</w>
े ति</w>
ि ल</w>
हैं -
हे ल
हृ तम</w>
हिमा चलप</w>
हाद सा</w>
सौ ंदर</w>
सो ते</w>
से प</w>
से ं</w>
सूच यन</w>
सुहृ द</w>
सुनि ये</w>
सु सज</w>
सु रा
सु पुत</w>
सु नार</w>
सी न</w>
सी ंग</w>
सी ं
सिं हा
सिं हस</w>
सायं काल</w>
सांसा रिक</w>
सा लये</w>
सा धि
सह ते</w>
समु दा
सम यं</w>
सम दर</w>
सत ह</w>
सं व
सं बन</w>
सं पर</w>
सं ध</w>
सं गोष</w>
स लों</w>
स रं</w>
स दन</w>
स तत</w>
षेपण चक</w>
षि पति</w>
षा याम</w>
षा फलानि</w>
ष तक</w>
ष को</w>
ष का</w>
ष कम</w>
ष कं</w>
ष -
शो णि
शृ णु
शु ध</w>
शि वस</w>
शा ह</w>
शरी रस</w>
श यः</w>
श नीय</w>
श निवार</w>
वै शा
वै व</w>
वै क</w>
वेद कथा</w>
वे ता</w>
वे तके
वी पर</w>
वी थ</w>
वी णा</w>
विरा ट</w>
विधि यों</w>
विज या</w>
वि ला
वि पर</w>
वि धत</w>
वि चारों</w>
वाधी नता
वाद नं</w>
वा ँ</w>
वसि ति</w>
वश में</w>
वदे त</w>
व रिष</w>
व ंद</w>
लोच नः</w>
लो त</w>
लो कन</w>
ले पन</w>
ले गी</w>
लु ण</w>
ली प</w>
लिख ी</w>
ला भः</w>
लभ ः</w>
लगा कर</w>
लग ति</w>
ल ीं</w>
ल ल
रो शनी</w>
रो ंमें</w>
रो ंका</w>
रेल ू</w>
रेल यानेन</w>
रेल यानं</w>
रे णा
रे ट</w>
रे जों</w>
रु तं</w>
रु ण
री का</w>
रिया ओं</w>
रियं वदा</w>
रि वर</w>
रि लो
रि तवन</w>
रि च</w>
राम कथा</w>
राणा न</w>
राजनी तिक</w>
राउ ंड</w>
राइ वर</w>
रा सा
रा वृ
रा भि
रा फे
रा णा</w>
रा ञ</w>
रा ची
रह म</w>
रशंस नीय</w>
रवि शन</w>
रयोग शाला</w>
रमि काः</w>
रमा दित</w>
रम ों</w>
रतिवेद नमस</w>
रतिवेद नम</w>
रता प</w>
रचा रक</w>
रकाश मान</w>
रं जन</w>
र विद</w>
र लय</w>
र यम</w>
र भ</w>
र फलं</w>
र तं</w>
र चि
र चलन</w>
यो तिर</w>
यू तं</w>
यु गल</w>
याप कः</w>
या से</w>
या वान</w>
या ना
या धि</w>
या ति
या ता</w>
या चते</w>
या करण
या एँ</w>
यवहा रः</w>
य शाली</w>
य वादः</w>
य मू
य मि
य मानस</w>
य पुत</w>
य पर</w>
य टन</w>
मौजू द</w>
मो प
मेल नस</w>
मेल नम</w>
मे द
मे ण</w>
मृ द
मुहु र</w>
मुनि ः</w>
मुझ में</w>
मुख ी</w>
मु गल</w>
मि लेंगे</w>
मान नीय</w>
मातु लस</w>
मा लू
मही ना</w>
महा पुरुष</w>
मह े
मलि नी
मनो रमा</w>
मंग ला
म रा</w>
म रणी
म भवत</w>
म दिन</w>
भे ष
भे ड</w>
भृ ज</w>
भि ष
भा वेन</w>
भा लू</w>
भा ल</w>
भा ः</w>
भय ङ</w>
भग वति</w>
भग वत</w>
भ ले</w>
भ यम</w>
भ ते</w>
बौ द</w>
बुध वार</w>
बु भुक</w>
बी ता</w>
बी ज
बि क</w>
बा ला</w>
बा धा</w>
बा धा
बा धया</w>
बा णों</w>
बलि दान</w>
बच पन</w>
बगु ला</w>
ब ं</w>
फि स</w>
पी या</w>
पी डित</w>
पी डा</w>
पी ठस</w>
पाद रक</w>
पां च
पा रं</w>
पा तुम</w>
पह चा
पल ंग</w>
परि शील
परि मितं</w>
परि प</w>
परि ण
परम ं</w>
पर लोक</w>
पर मार</w>
पति र</w>
पचा प</w>
प ु</w>
प वन
प रामर</w>
प पात</w>
प क
नो ट</w>
नो ः</w>
नो ंमें</w>
ने हः</w>
ने में</w>
नृ पः</w>
नु ते</w>
नी याः</w>
नी तवान</w>
निरं तर</w>
निकल ती</w>
निः सन</w>
नि हित</w>
नि रस</w>
नि भा
ना सा
ना री
ना रियल</w>
ना भि</w>
ना गा
न यः</w>
न पूर</w>
न नु</w>
न का</w>
धो ता</w>
धे ः</w>
धी मे</w>
धी त</w>
धि कारि
धां जलि</w>
धा रय</w>
धा रणा</w>
ध वः</w>
दो नो</w>
दो ग</w>
देव व</w>
दे शि
दे वे</w>
दे वाः</w>
दे दीप</w>
दूरवा णीं</w>
दु स</w>
दु ः</w>
दी त</w>
दि षु</w>
दि नः</w>
दि नं</w>
दा ह
दा स
दा म</w>
दा तव</w>
दा ं</w>
द ह
द लं</w>
द धा
द ध</w>
थि व</w>
थ ैर</w>
थ लम</w>
थ लं</w>
थ ल
थ मेव</w>
थ प</w>
तो द</w>
तै लं</w>
तै यारी</w>
ते ल
ते ति</w>
तृती य
ता व</w>
ता ङ</w>
तरी के</w>
तर ि</w>
तप सा</w>
त ूर</w>
त राणि</w>
त यो
ण प</w>
ढ े
ढ ा</w>
डि यो</w>
डा ः</w>
ड ै
ड वत</w>
ड व</w>
ठ ेन</w>
ठ जी</w>
टा र</w>
ट ूर</w>
ट कं</w>
झ ा</w>
जू ता</w>
जु लाई</w>
जु आ
जि म</w>
जि तं</w>
जानी मः</w>
जाग ते</w>
जा गृ
जलि ं</w>
जल प</w>
जन ो</w>
जन पद
जटा यु</w>
ज श</w>
ज वान</w>
ज लस</w>
ज नि
ज ती</w>
छि ष</w>
छा या
चू हा</w>
चु पचाप</w>
ची नेन</w>
चि रका
चि म
चाल यन</w>
चा ई</w>
चरण े</w>
चरण स</w>
च रः</w>
घो षित</w>
घू म</w>
घाट यति</w>
घा ः</w>
घ रेलू</w>
गो ली</w>
गो भी</w>
गृह मा
गु म</w>
गु ना</w>
गु णः</w>
गु ं
गी त
गि रने</w>
गा रं</w>
गह री</w>
ग मम</w>
ग दा</w>
ग ज</w>
ग -
खिलौ ना</w>
खादि तवान</w>
खाद तु</w>
खा एगा</w>
खरी दा</w>
ख ो</w>
को ल</w>
को णे</w>
कॉ ले
के ण</w>
कृतभाषा याम</w>
कृत शिक</w>
कृ च</w>
कू जन</w>
कु ले</w>
कु ली
कु तो</w>
किं चित</w>
कि यों</w>
कि या
काम नाः</w>
का रस</w>
का दम</w>
करू पेण</w>
करने के</w>
कठि नाई</w>
क मर</w>
क ज
ऑ फ</w>
ऐ ति
एक वारं</w>
ए तद
ए ड
ऋ ष
ऋ तु
ऋ ग</w>
उस ी
उपा सक</w>
उपविश तु</w>
उपवि शन</w>
उपनि षद</w>
उप युज</w>
उप क</w>
उदा हरण</w>
उ तना</w>
इति हा
इ तो
इ तनी</w>
इ ंग</w>
आव योः</w>
आप णिकः</w>
आनी तवती</w>
आगा मी</w>
आं तरिक</w>
आ राम</w>
अविना शी</w>
अव सरे</w>
अव ज</w>
अलं कृत</w>
अमृ तम
अभि षेक</w>
अभि नेता</w>
अप ू
अनु बन</w>
अना दर</w>
अना ज</w>
अनसू या</w>
अन ंत</w>
अंगु ली</w>
अंग ों</w>
अं क</w>
अ नू
अ नित</w>
अ धो
ं त
1 4</w>
1 4
- व</w>
१ ८</w>
१ ६</w>
१ ४</w>
ौ कि
ो गे</w>
ै क
े- बड</w>
ी -
ि ए</w>
ा -
हो ंगी</w>
है -</w>
हे तुः</w>
हिं दू</w>
हा रः</w>
हा निः</w>
हरि या
हथे ली</w>
ह ॉ
ह त
सोम वासरे</w>
सोच ने</w>
सो शल</w>
सै ं
से ठ</w>
सू स</w>
सू रत</w>
सू ँ
सुरे शः</w>
सु षमा</w>
सु लभ</w>
सु लभ
सु दृढ</w>
सु कृतिः</w>
सीख ने</w>
सी धे</w>
साधु ः</w>
साध नम</w>
सा रथ
सवि ता</w>
समा जे</w>
सभा गार</w>
सदृ शः</w>
सदा चारी</w>
संय मी</w>
सं श</w>
सं धानं</w>
सं गम</w>
स शक</w>
स लाह</w>
स री
स जा</w>
षु दण</w>
षी र
षी णता</w>
षा रोपण</w>
षा रोप
षारोप णं</w>
षण ेन</w>
ष ौ</w>
ष सी</w>
ष की</w>
शोभ नं</w>
शोध कर</w>
शृ णोति</w>
शु चि</w>
शिर सा</w>
शालि नी</w>
शा खा</w>
शही द</w>
शन ल</w>
श श</w>
श पथ
श कों</w>
वै र</w>
वै भव
वेतके तु</w>
वे ति</w>
वी रः</w>
विशा ल
विवा हः</w>
विना श
विधा य</w>
विदेश कार</w>
विती यः</w>
विज यः</w>
वि श
वि रुध</w>
वि रह
वि रम</w>
वि म</w>
वि भ</w>
वि भ
वि नि
वि दग</w>
वि ड</w>
वि का</w>
वि कः</w>
वाह नों</w>
वाप सी</w>
वाद ित</w>
वाचा ल</w>
वाच ं</w>
वा यः</w>
वा ना</w>
वा थ</w>
वा गत
वन वास</w>
वदा मः</w>
व रो</w>
व मन</w>
व पति</w>
व तं</w>
व जा
लो च</w>
लो का
लै ंडर</w>
लेप नं</w>
लिखि तम</w>
लिख त</w>
लि कां</w>
ला र</w>
ला भ
ला घ</w>
ला -</w>
लखन ऊ</w>
रौ ढ
रोगि यों</w>
रो ने</w>
रो दि
रो टियाँ</w>
रेल वे</w>
रेखा ङ</w>
रुप या</w>
रु तः</w>
रु को</w>
रीय संस</w>
रीणा मि</w>
री लक</w>
री महादेवजी</w>
री ध
री की</w>
रिया णि</w>
रि णां</w>
राव णस</w>
रामा य</w>
राघ व</w>
रा ऽ
रा हि
रा शि
रा रब</w>
रा रंभ</w>
रा याः</w>
रा यां</w>
रा द
रा ते</w>
रा णम</w>
रा ओं</w>
रहे गी</w>
रहा ः</w>
रवि वासरः</w>
रयोज नम</w>
रयो जन
रमो दिना</w>
रदेश ेषु</w>
रथ मा</w>
रति बंध</w>
रख ो</w>
रख े</w>
र- उधर</w>
र योः</w>
र मात</w>
र भाव
र था
र जन</w>
र कीर</w>
र कं</w>
योज येत</w>
योग दान</w>
ये वं</w>
ये तत</w>
यु मुपगताः</w>
यु त
याया धि
यान चालकः</w>
यान चाल
या सेन</w>
या सि
या वस</w>
या रह</w>
या नों</w>
या नु
या गच</w>
या ई</w>
यमा नेषु</w>
यती ति</w>
यज मान</w>
य वक</w>
य राज</w>
य ध</w>
य तो
य तेऽ
य गर</w>
मो म
मे ष</w>
मे ज</w>
मुं ह</w>
मु ण</w>
मिलि यन</w>
मि यों</w>
मालू म</w>
मार ना</w>
मातृ भाषा</w>
मातु लानी</w>
मा सः</w>
मा नों</w>
मा त
मा ँग</w>
महा सागर</w>
मह ेन</w>
मशा ने</w>
मन सः</w>
मधु मक</w>
मणि पुर</w>
मण ेन</w>
मछुआ रे</w>
मछ लियों</w>
म रामाय
म य
भो पा
भै ंस</w>
भे ंट</w>
भू य</w>
भू म</w>
भु ङ</w>
भी -
भा सुरक</w>
भा वे</w>
भ रद</w>
बो ला-</w>
बु न</w>
बि स</w>
बि ल
बि भ</w>
बालिका यें</w>
बाल काय</w>
बा की</w>
बना ना</w>
ब री</w>
ब तला
ब त
ब जाते</w>
ब करि
पढ़ ता</w>
पो स</w>
पे टिका</w>
पूज नीय</w>
पू छे</w>
पुरुष ं</w>
पी तवर</w>
पी डि
पि च</w>
पारितो षि
पाद ौ</w>
पा न
परिवा रज
परि वार
परि भ</w>
परि ग</w>
परा र</w>
पर शु
पत ला</w>
पठि तवान</w>
पं ख</w>
प ढ़</w>
प टु
प ंडित</w>
प ंच</w>
ने तृ
ने ताओं</w>
ने की</w>
ने -
नी रव</w>
निः स</w>
नि वेश</w>
नि वस
नि रुद</w>
नि मज</w>
नि मंत</w>
नि ति</w>
नि को
नाम कं</w>
नाग रि
ना सीत</w>
ना रद</w>
ना प</w>
ना नम</w>
नव वादने</w>
नय न
न वम</w>
न कार</w>
धो बी</w>
धेनु ः</w>
धे षु</w>
धू स
धु ओं</w>
धी वराः</w>
धी म
धि स</w>
धि पत</w>
धि नः</w>
धा तु
धनि कः</w>
धन वान</w>
ध वन</w>
ध वती</w>
ध र-उधर</w>
देश ी</w>
दे हि
दे शा
दे वेन</w>
दे यं</w>
दे नेवाले</w>
दूरवा ण</w>
दू षित</w>
दी पाव
दी दी</w>
दिसं बर</w>
दिव ङ</w>
दि वा
दि रों</w>
दि नेषु</w>
दि न-
दा ंत</w>
दरवा जा</w>
द यति</w>
थि तिः</w>
थापि तवती</w>
था वर</w>
था पिता</w>
थ ेषु</w>
थ ली</w>
तै रती</w>
ते य</w>
तु ण</w>
तु च</w>
तीस री</w>
ति नके</w>
ति -</w>
ता से</w>
ता सु</w>
ता याम</w>
ता पूर</w>
ता -
तर प</w>
तपो दत</w>
तथ ेति</w>
त लम</w>
त रीय</w>
त नों</w>
ण वर</w>
ढु ं</w>
टे बल</w>
टे ढ</w>
टि ं</w>
टा क</w>
ट म
ट ती</w>
ट के</w>
ञान वान</w>
ञ ोप
ञ ों</w>
ञ दत</w>
जुआ री</w>
जि द</w>
जाये गी</w>
जा म</w>
जा नेपर</w>
जा तानि</w>
जा गर</w>
जा ं</w>
जला शय</w>
जल बन</w>
जना नि</w>
जग तः</w>
ज प
ज नेभ</w>
ज गाम</w>
ज ख
छि पा</w>
छा नुसार</w>
छा दित</w>
छ ू</w>
छ तां</w>
चि रं</w>
चम कती</w>
चं चल</w>
च ो</w>
च श</w>
च लेंगे</w>
च लें</w>
च यन</w>
च ण</w>
च कः</w>
च क
घो ष
घि रे</w>
घ े</w>
घ रमें</w>
घ टी</w>
गौ तमी</w>
गू ँ
गुण वान</w>
गुण वत</w>
गि री</w>
गि नी</w>
गा यामः</w>
गा नं</w>
गति शील</w>
गण ों</w>
गण यामि</w>
गण तंत</w>
ग ू</w>
ग तिं</w>
ग ता
खे ती</w>
कौ स</w>
कौ वे</w>
को श</w>
को श
को ल
को म
को प</w>
केश व</w>
केरल राज</w>
के शान</w>
के शाः</w>
कृ श
कृ तिं</w>
कृ तानि</w>
कू ट</w>
कुश लता</w>
कुल पतिः</w>
कु ला</w>
कु राः</w>
कु मु
कु पित</w>
कु प</w>
कु टी
की य</w>
किरण ों</w>
कारण ेन</w>
का सु</w>
का नू
का जल</w>
कल ह</w>
करे ंगी</w>
करू ंगी</w>
करि येगा</w>
कर वाणि</w>
कफ जन</w>
कथ यति</w>
क लम</w>
क ञ</w>
ए वमेव</w>
ए व
उप नेत</w>
उठ ती</w>
इस ने</w>
इ ला</w>
इ धर-उधर</w>
आरभ ते</w>
आर प</w>
आद ौ</w>
आति थ</w>
आतंकवादि यों</w>
आग स</w>
आँ गन</w>
आ सा
आ षा
आ राध
आ भा</w>
आ तप
आ ँ</w>
अवकर पात</w>
अव लोक
अव दन</w>
अल ौकि
अभि ल
अप रं</w>
अप क</w>
अनु शासनम</w>
अनु रक</w>
अधु नैव</w>
अद रक</w>
अथ र</w>
अति थि
अटै ची</w>
अट ति</w>
अ हि
अ साध</w>
अ शक</w>
अ लं</w>
अ ये</w>
अ यच</w>
अ निवार</w>
अ जीर</w>
अ चिन</w>
अ गा
अ खण</w>
अ कारण
S स</w>
202 3</w>
1 3</w>
- क</w>
२०२ ०</w>
ड़ ि
ड़ ा
ा ए</w>
ऽ र</w>
ऽ न</w>
हो नेवाले</w>
है दरा
हेल मेट</w>
हृद यस</w>
हृ षी
हा ल</w>
हा थियों</w>
हरि श</w>
हम को</w>
सौ र</w>
सोच -
सो म</w>
सो त</w>
से त</w>
सू दन</w>
सू खे</w>
सुरे न</w>
सुभा ष
सुनि ए</w>
सुन ती</w>
सुधा खण</w>
सुख द</w>
सु शिक</w>
सु रा</w>
सु भद</w>
सी मा
सी ने</w>
सी ट</w>
सि ष</w>
सि ध</w>
सि त
सा लय</w>
सा रं</w>
सा यम</w>
सा त
सहा य</w>
सहा य
सह ज</w>
समु प
समारो हे</w>
समा र</w>
सम ो</w>
सम े</w>
सदा चा
संतु लन</w>
सं हा
सं वाद</w>
सं त</w>
सं कीर</w>
स ध</w>
षे पः</w>
षु क</w>
षाल यामि</w>
षा या</w>
षण ों</w>
षण ः</w>
ष से</w>
ष सि</w>
शुभ ं</w>
शुचि ः</w>
शी तोष</w>
शिव गङ</w>
शि विर</w>
शि वा</w>
शि रा</w>
शि नः</w>
शाला याः</w>
शा सक</w>
शा र
शा नि</w>
शश कः</w>
शला का</w>
शरी रमें</w>
श रा
श नाय</w>
श तक</w>
वैदि क
वेद ना
वे र</w>
वे दी</w>
वी राणां</w>
वी कृतवान</w>
वी करिष</w>
विष यान</w>
विशेष तः</w>
विविधा नि</w>
विभा ति</w>
विभा गाध</w>
विती यस</w>
विज यी</w>
विच लित</w>
वि ल</w>
वि मुख</w>
वि मर</w>
वि धं</w>
वि ति</w>
वि जि
वि कं</w>
वार पालः</w>
वाद यति</w>
वाच ना
वां छित</w>
वा ऽऽ
वा मी
वा मन
वा भ</w>
वसं त</w>
वशी भूत</w>
वय मपि</w>
वन राज</w>
वद सि</w>
वज निक</w>
व लि
व लक</w>
व रूपम</w>
व राज</w>
व ये</w>
व प
व धनं</w>
व तस</w>
लौ टकर</w>
लोक प</w>
लो भी</w>
लो गे</w>
लो कान</w>
लेखि ष</w>
लु प</w>
ली ल
लि यर</w>
ला ब</w>
ला पर
ला द</w>
ला ऊँगा</w>
लव जी</w>
लगा व</w>
लगा ना</w>
लग -
लं बी</w>
लं का
ल हर</w>
ल ट</w>
ल क
रोह ण</w>
रो ऽपि</w>
रो मा
रो धा
रो दनम</w>
रो तुम</w>
रो टिकाः</w>
रो गों</w>
रो गा
रै ल</w>
रेषि तवान</w>
रे ऽस</w>
रे शमी</w>
रे लस</w>
रे यः</w>
रे मी</w>
रे णी</w>
रृ ङ</w>
रूपि णी</w>
रू स</w>
रू यताम</w>
रु वम</w>
रु व</w>
रीड न
री हरि</w>
री वत</w>
री तवान</w>
री तः</w>
री णी
री ण
री ः</w>
रावि शत</w>
राम लक</w>
राम योः</w>
राण त</w>
राजे शः</w>
राज पुत</w>
राज नीति</w>
रा मात</w>
रा नन</w>
रा धा
रा ट</w>
रा खी</w>
रा ख</w>
रही न</w>
रहि तं</w>
रह ेंगे</w>
रह ूँगा</w>
रवाह यति</w>
रव चनं</w>
रयोग ः</w>
रया नस</w>
रम ृ
रदेश ः</w>
रतिवेद नं</w>
रति पत</w>
रति निवर</w>
रति कूल</w>
रणा ली</w>
रचा र-प</w>
रच यति</w>
रख ती</w>
रकाशि तम</w>
रका रसे</w>
रं थों</w>
र सर</w>
र श
र वत</w>
र रक</w>
र यच</w>
र भाग</w>
र ताः</w>
र तया</w>
र कट
योग प</w>
यो पा
यो तिष</w>
ये शः</w>
यू नी
यु तम</w>
याम सुन</w>
याचि का</w>
या सु</w>
या रों</w>
या रे</w>
या रा</w>
या पत</w>
या दृ
यमे षु</w>
यमा णः</w>
यभि चारिणी</w>
यक शि
य वेद
य युक</w>
य मिति</w>
य पाल</w>
य नन</w>
य चित</w>
मो ऽस</w>
मो रोक</w>
मो तियों</w>
मो च
मै ले</w>
मेहु ल</w>
मे जर</w>
मे कं</w>
मृ तवती</w>
मू ली</w>
मू ला
मुखा त</w>
मु ता
मु गल
मु का
मी रस</w>
मि ला
मि तम</w>
मालि नी</w>
माम लों</w>
मान य</w>
मान ने</w>
माता पितरौ</w>
मा णः</w>
महोद येन</w>
मह ा</w>
मलि नं</w>
मलयाल म</w>
मरामाय ण
मनो ह
मनो ज</w>
मनु सृत</w>
मधु राणि</w>
मद न
मत गणना</w>
मण स</w>
मजा क</w>
मंगला चरण</w>
म में</w>
म थु
म तम</w>
म णा
भोज ने</w>
भु ञ</w>
भि श</w>
भि ज</w>
भाषण स</w>
भारतमा तुः</w>
भार ताय</w>
भा इयों</w>
भव तो</w>
भव ताम</w>
भव ंति</w>
भग त
भ ल</w>
बढ़ कर</w>
बैठ ी</w>
बृ ं
बु ला</w>
बी च
बालिका एँ</w>
बाल ु
बा री</w>
बहि ष</w>
बली वर</w>
बता ता</w>
ब रमा
ब ज</w>
फै सला</w>
फै ले</w>
पृथि वी
पू रयति</w>
पू तं</w>
पू जी</w>
पुरुष स</w>
पुन रा
पु लि
पी ड़ा</w>
पी छे
पि न</w>
पाहा रं</w>
पाल कः</w>
पाठ क</w>
पा रंग
पा तु</w>
पहुँ चकर</w>
पहि या</w>
पह नते</w>
पह नता</w>
पला यि
परिवा रस</w>
पराज य</w>
परा याः</w>
पति म</w>
पति -
पठ नीयम</w>
पका ना</w>
प ैः</w>
प शू
प वृक</w>
प रो
प ब</w>
नौ सेना</w>
ने ः</w>
नु ष</w>
नीति -
नी लम</w>
नी ता</w>
नी तं</w>
निरा श</w>
निर र</w>
नियम ों</w>
निपु णता</w>
नि हि
नि लं
नि मन</w>
नि मग</w>
नि ना</w>
नि धौ</w>
नि धाय</w>
नि धन</w>
नि ं</w>
नाम कस</w>
ना सा</w>
ना र
ना द
न ूर</w>
न शील</w>
न वा
न लिखित</w>
न लि
न राः</w>
न मेव</w>
धे नवे</w>
धू ल</w>
धू म</w>
धा स</w>
धा रयन</w>
ध रा
ध नेन</w>
ध नाः</w>
दो षा
दो षं</w>
देशी यः</w>
देशी य</w>
देवता ओ
देव गण</w>
दे शान</w>
दे री</w>
दू री
दू ँगी</w>
दू ँ</w>
दुरा चारी</w>
दीप कः</w>
दी नि</w>
दिख ते</w>
दि रस</w>
दा श</w>
दा री</w>
दा महे</w>
दा ग</w>
दश रथ
द ये</w>
द मय</w>
द मन</w>
द मः</w>
द गी</w>
थि तो</w>
थि क
था नानि</w>
था तुम</w>
थ ैः</w>
थ ले</w>
तोऽ हं</w>
ते ना
तुर ंत</w>
तिल कं</w>
ति षु</w>
ति रु
ति न</w>
ति तम</w>
ताड यति</w>
तमिलना डु</w>
तपो वन</w>
त स
त वि
त लं</w>
त रि
त रण
त यित</w>
त त
त टे</w>
त जार</w>
णि का</w>
णा दि</w>
ण भूमि</w>
ण कारः</w>
ण क</w>
डॉ क</w>
ड लस</w>
ड रना</w>
ठि तम</w>
ठ ंड</w>
टे ली
ट वर</w>
ट या</w>
ट ङ</w>
ट कः</w>
ट क
ञा न-
ञा त
जो शी</w>
जै न</w>
जि तानि</w>
जान वर</w>
जा मि</w>
जा ऊँ</w>
जा ईये</w>
जल मग</w>
जरू रत</w>
जन ौ</w>
जन वरी</w>
जन यन</w>
जग हों</w>
जग दीप</w>
ज ौ</w>
ज वम</w>
ज ले
ज री</w>
ज री
ज यतु</w>
ज नी</w>
छु ड</w>
छा ई</w>
छ या</w>
चौ दह</w>
चै ं
चैं पि
चि याँ</w>
चा ंद</w>
च लेगा</w>
च रि
च यित</w>
च टाई</w>
घृ तम</w>
घृ तं</w>
घृ णा</w>
घा त</w>
घ मण</w>
घ ना</w>
गौ री</w>
गौ रव
गोप नीय</w>
गृहा णि</w>
गुरो ः</w>
गुरु स</w>
गुण हीन</w>
गु ड़िया</w>
गु णि
गी ला</w>
गिरि जा</w>
गि रे</w>
गि रना</w>
गल त</w>
गरु ड</w>
गम नम</w>
ग ेन</w>
ग में</w>
ग ना</w>
ग धा</w>
ग तस</w>
खे ला</w>
खु ला</w>
खा री</w>
खा ऊँगा</w>
खरीद ना</w>
खरी दी</w>
ख गाः</w>
कौ तु
कोवि ड
कोलाह लं</w>
को षः</w>
के स</w>
के तः</w>
के ं
कृत गीतं</w>
कृत कृत</w>
कृ न</w>
कू ल
कु लीन</w>
कीदृ शं</w>
किस लिये</w>
कि रण</w>
कारि तवान</w>
कान जी</w>
काउं टर</w>
का ली
का रे</w>
का मः</w>
का फी</w>
का ना</w>
का दि</w>
का ँच</w>
कहा नी</w>
कल ु
कल त</w>
करने से</w>
करणी या</w>
कर णाय</w>
कपो ताः</w>
कथा ं</w>
कटा क</w>
कट हल</w>
क ले
क बड</w>
क थित</w>
क टि</w>
औ रत</w>
ओ ंमें</w>
ऐ क</w>
एक- दूसरे</w>
ए कै
ऋ ते</w>
उपा ध</w>
उप ेत</w>
उप युक</w>
उप मा</w>
उप करण</w>
उता रता</w>
उतर ता</w>
उठा ता</w>
इदानी मपि</w>
इंटरने ट</w>
इ दानी</w>
आरु णि</w>
आधु निक
आतंकवादि नः</w>
आग ता</w>
आ सु
आ सान</w>
आ लेख</w>
आ योग</w>
आ पात
आ इये</w>
अव काशे</w>
अव का
अमे रिका
अभि ज</w>
अफ गानिस</w>
अपरा धः</w>
अनु भू
अनु भवामि</w>
अनु द</w>
अधि ष</w>
अधि का</w>
अति शय</w>
अंधे रा</w>
अंतर राष</w>
अं धकार</w>
अँ गू
अ होरात</w>
अ साधु</w>
अ स
अ शिक</w>
अ लग-
अ र
अ यि</w>
अ मूल</w>
अ मि
अ मा
अ मन</w>
अ धम</w>
अ जी
अ ख
2 8</w>
19 9
1 ,
. के
- सम</w>
- यह</w>
२ १</w>
१ ९</w>
१ ३</w>
ो ऽपि</w>
ॉ क</w>
ऽ ध</w>
ऽ ति
हो नी</w>
हो जाय</w>
हृद या</w>
हु तात</w>
ही न
हि लते</w>
हि मा</w>
हि नी</w>
हि क</w>
हर रोज</w>
हँ सा
हँ स</w>
ह ला</w>
ह ताः</w>
सोच ता</w>
सो ठ</w>
सो टी</w>
सेवि तव</w>
से ंस</w>
सूंघ ता</w>
सू अर</w>
सुखा र</w>
सु मे
सु नी</w>
सु दर</w>
सु कृति</w>
सीता याः</w>
सि वाय</w>
सि ञ</w>
सावर कर</w>
सारथ ि</w>
साध वः</w>
साँ स</w>
सा रा
सा बुन</w>
सा नों</w>
सा दर</w>
सह योगं</w>
सह नशी
सवा हि
सरका री</w>
समीची नम</w>
समा हित</w>
समा ः</w>
समझ ा</w>
सभा गारे</w>
सखि याँ</w>
संयोज क</w>
संचा लक</w>
संघट नेन</w>
संघट नस</w>
सं हार</w>
सं यो
सं धि</w>
सं केत</w>
स ता
स खी
स कल</w>
षी र</w>
षी या</w>
षिण तः</w>
षि ति
षि त
षा लय</w>
षा क</w>
षणी या</w>
षणा त</w>
षण िक</w>
ष यामि</w>
ष यमें</w>
ष य
ष पण
शो धन</w>
शो चि
शै ल
शे खर</w>
शृणो तु</w>
शुभ कामनाएँ</w>
शी शा
शीशा ंस
शी ति
शिथि ल</w>
शि वः</w>
शि न</w>
शा ङ</w>
शरी रम</w>
श ों</w>
श यत</w>
श नी
श ता
वै भव</w>
वे तनं</w>
वी कर</w>
विष यक</w>
विविधा नां</w>
विव रणं</w>
विरो धी</w>
विमान स</w>
विभा गे</w>
विधि पूर</w>
विती या</w>
विका सः</w>
वि हीन</w>
वि लक</w>
वि रे
वि भो</w>
वि भुः</w>
वि भी
वि भज</w>
वि दा</w>
वि तम</w>
वास ना</w>
वान रं</w>
वाधी न</w>
वादन पर</w>
वा लो
वा रा
वा टिकायां</w>
वा गतम</w>
वर भक</w>
वमे ध</w>
वद नम</w>
वचि दपि</w>
वच नम</w>
व सू
व रण</w>
व तो</w>
व जः</w>
व कारः</w>
लौ टा
लोक सभा</w>
लो ह
ले भ</w>
ले च</w>
लू ँगा</w>
लिख कर</w>
लि तः</w>
लि ः</w>
लाइ सेंस</w>
ला ये</w>
ला ङ</w>
लव ण</w>
लगा वे</w>
लगा म</w>
लं बा</w>
ल ड़
ल ैः</w>
ल वे</w>
ल वा
ल युद</w>
ल ण</w>
ल जनाः</w>
ल का</w>
रो स</w>
रो श</w>
रो ल</w>
रो म</w>
रो ड</w>
रो ंकी</w>
रे तुं</w>
रृणो मि</w>
रु दन</w>
रीराम जी</w>
री षु</w>
री विष</w>
री मद</w>
री गर</w>
रिया णां</w>
रिय वादि
रि वादने</w>
रि याम</w>
रि यस</w>
रि टेन</w>
रि कया</w>
रि कट</w>
राहु ल</w>
राव णं</w>
रामा ः</w>
राफे ल</w>
राधि का
रातृ जाया</w>
राजनै ति
राज र</w>
राज ते</w>
रा णं</w>
रा जीव
रा गद</w>
रा गः</w>
रा के
रा ई
रा इल</w>
रा -
रह ृष</w>
रसा यन
रसा न</w>
रसा द</w>
रमाण पत</w>
रभु त</w>
रभा तम</w>
रभा त</w>
रदा नेन</w>
रती यते</w>
रति पादि
रचार कः</w>
रच ना
रका शन</w>
र वस</w>
र बल</w>
र न
र तां</w>
र चा</w>
र गति</w>
र गण</w>
र कः</w>
यौ वन
योग दर</w>
यो परि</w>
यो नि</w>
यो दय</w>
ये कं</w>
यु वाम</w>
यु च</w>
यु गे</w>
यावरण स</w>
याय का</w>
यादि षु</w>
या रण</w>
या यै</w>
या यालय</w>
या मं</w>
या भ
या ते</w>
या के</w>
या काश
या क</w>
यय नम</w>
यमा नाः</w>
यमा ना
यमा नम</w>
यथा वत</w>
य वत</w>
य रत</w>
य पूर</w>
य पत</w>
य निष</w>
य धि
य कार</w>
य ंग</w>
मो ल</w>
मो ती</w>
मै ने</w>
मे लिष</w>
मे ना</w>
मृद ङ</w>
मू षकः</w>
मू लम</w>
मुहु ः</w>
मुख ी
मु पा
मु दि
मी ल
मी रे</w>
मी ति</w>
मि लेगा</w>
मि लितवान</w>
मि लाया</w>
मि ंश</w>
मालि श</w>
मान व
मान कर</w>
माता के</w>
मा सा
मा रता</w>
मा दि
मा ङ</w>
मा क</w>
मा ंग</w>
महाभा गा</w>
महा देव</w>
मह द</w>
मनो रंजन</w>
मनु वर</w>
मधु मे
मत दानं</w>
मज दूर</w>
म ु</w>
म शाला</w>
म शक</w>
म विश</w>
म यम</w>
म भूमि</w>
म पत</w>
म दिनम</w>
म तं</w>
म ठा
म -</w>
भोजना र</w>
भोजन स</w>
भो पाल
भो गों</w>
भू रि</w>
भू यः</w>
भू ता
भी म</w>
भि स</w>
भि व</w>
भि ला
भि खारी</w>
भासुर कः</w>
भाषा सु</w>
भार वाह
भाग ने</w>
भा रं</w>
भा द</w>
भा गः</w>
भवि तव</w>
भव हत</w>
भ ली
भ लाई</w>
भ ये</w>
बड़ बड़
बो तल</w>
बै ड
बे चने</w>
बे चता</w>
बु लाती</w>
बी मा
बिल कुल</w>
बिभे मि</w>
बिता ते</w>
बि गाड</w>
बि ं
बाढ म</w>
बाँ ध</w>
बा सी</w>
बा नी</w>
बल शाली</w>
बरमा सस</w>
बना ओ</w>
बन ना</w>
बदलू राम</w>
बचा ने</w>
ब ों</w>
ब ो</w>
ब ली</w>
ब ते</w>
ब क
ब ई
फो ट</w>
फें कता</w>
फें ककर</w>
फे ड
फु रति</w>
फल प</w>
फल कम</w>
फ ॉर</w>
फ ँ
पौ रु
पो ते</w>
पो त</w>
पो ख
पै तृ
पै ति</w>
पे य</w>
पृ हा</w>
पू ँछ</w>
पुरु षा</w>
पुरा तनानि</w>
पुरा ण
पुं सां</w>
पु रू
पु नस</w>
पु न</w>
पु ञ</w>
पी ठम</w>
पी टता</w>
पी छा</w>
पाल ने</w>
पाल नं</w>
पाद पङ</w>
पा मि</w>
पा पं</w>
पा ताल</w>
पहुं चने</w>
पह ने</w>
पह ना
पह न</w>
परोप कार</w>
परि योजना</w>
पराय ण</w>
परा या</w>
परा ई</w>
पर ब</w>
पका ने</w>
पंजा ब</w>
प सीने</w>
प ली
प लक</w>
प यः</w>
प दि</w>
प थिक</w>
प थि
प णे</w>
प णी
प ग</w>
नो ंसे</w>
नो ंका</w>
ने यं</w>
ने च</w>
नु यात</w>
नु बन</w>
निवास ं</w>
निय मः</w>
निदेश कः</w>
निग रानी</w>
निखि ल
निकाल ती</w>
नि ये</w>
नि यमा
नि दा
नि च
ना मेंट</w>
ना नार</w>
ना नन</w>
ना दि</w>
ना ञ</w>
ना चता</w>
न- भिन</w>
न ै</w>
न ू</w>
न वः</w>
न योः</w>
न ती
धृ तराष</w>
धू म
धीरे धीरे</w>
धी श</w>
धी मी</w>
धि में</w>
धि ना</w>
धारण कर</w>
धा रः</w>
धा नन</w>
धा न-
धन ञ</w>
ध वों</w>
ध वर</w>
ध रं</w>
ध य</w>
ध प</w>
ध ड</w>
ध कारः</w>
दो गे</w>
दै वं</w>
देव को</w>
देख ूँगा</w>
दे हे</w>
दे यम</w>
दे ति</w>
दूरवा णीम</w>
दुरा चा
दु म</w>
दु क
दीपि का</w>
दीप गोल
दिव सः</w>
दिन- रात</w>
दि शि</w>
दि लीप</w>
दाँ तों</w>
दा रों</w>
दा रु
दा यी</w>
दा प
दा तुम</w>
दा ई</w>
दश सहस</w>
दश ति</w>
दया नन</w>
द ृ</w>
द ष</w>
द यं</w>
द बा
द नीय</w>
द धि
थू ला</w>
थू ल
थाप यित</w>
था व
था यां</w>
था म</w>
था पन</w>
थं कर</w>
थ शास</w>
थ के</w>
तोऽ न</w>
तो दर</w>
ते र</w>
ति रेव</w>
ति मि
ति मा</w>
ति थि
ति ता</w>
ताप मान</w>
ता रम</w>
तर दायित</w>
तर खण</w>
तम दिनाङ</w>
तको षं</w>
त हत</w>
त वादने</w>
त वस</w>
त ली</w>
त रेण</w>
त राम</w>
त रात</w>
त रस</w>
त में</w>
त मि
त भ</w>
त निवा
त नात</w>
त कौ
त को</w>
त कानां</w>
त का</w>
णो ः</w>
णा द</w>
ण मन</w>
ढू ँ
ढ े</w>
डो री</w>
डॉ .
डे ते</w>
डि ग</w>
डा लो</w>
डा र</w>
डा ँ
ठह रो</w>
ठ ों</w>
ठ क</w>
टे ंडे
टेंडे ंट</w>
टी ना</w>
टि स</w>
टा -
ट वादने</w>
ट मा
ञा स</w>
ञा ने</w>
ञ शाला</w>
ञ या</w>
झू ठे</w>
झि कोड</w>
झा ड</w>
झ रने</w>
जू ते</w>
जी का</w>
जि त
जा ति
जा ड</w>
जलि ः</w>
जल ते</w>
जनो ंके</w>
जन कः</w>
जटा वल</w>
जंग म</w>
ज लन</w>
ज रूर</w>
ज बल
ज नेषु</w>
ज टा</w>
छो ड़
छा स</w>
छा न</w>
छ द</w>
छ ठे</w>
चौ था</w>
चो ट</w>
चै तन</w>
चे ता</w>
चू ंकि</w>
चु की</w>
ची जें</w>
ची ज</w>
चि रात</w>
चि नोति</w>
चि कीर</w>
चि कने</w>
चाह ा</w>
चा स</w>
चा शत</w>
चा ल</w>
चा रु
चा द</w>
चा ं</w>
चम ड</w>
चम की
चं दन</w>
च लिये</w>
च रम</w>
च मक</w>
च मं</w>
च नम</w>
च ट</w>
च को
घूम ती</w>
घ टि
गो शालायां</w>
गो दुग</w>
गो ंड
गे म</w>
गुरु जनों</w>
गु ली
गु दा</w>
गी तस</w>
गि रीश</w>
गि रती</w>
गि नते</w>
गि णी</w>
गा र
गा यक</w>
गा य
गह ने</w>
गण यन</w>
ग ैः</w>
ग वाक</w>
ग लम</w>
ग रमी</w>
ग र
ग यीं</w>
ग द
ग तमा
ग णः</w>
ग ंड
खिला ती</w>
खि लं</w>
खि ल</w>
खाद यति</w>
खाद तः</w>
खा ई</w>
ख चक</w>
कौ श
कोविड -19</w>
को य
को झिकोड</w>
के ला</w>
कृतभाषा याः</w>
कृ षकाः</w>
कू ट
कुसु म
कुश ली</w>
कु लः</w>
कु र
कु द</w>
कीदृ शी</w>
की न</w>
किस में</w>
किना रा</w>
कि मी</w>
कि ताब</w>
कारण ों</w>
कारण मिति</w>
कारगि ल</w>
कार यानेन</w>
कामना ओं</w>
काम देव</w>
का सि
का ली</w>
का ला
का लस</w>
का रम</w>
का यर</w>
का दि
का ण</w>
का कः</w>
का ंक</w>
कहि ये</w>
कहि ए</w>
करा ता</w>
कर णस</w>
कर -
कमा ने</w>
कमल नयन</w>
कम ला
कबू तरों</w>
क ृ</w>
क णं</w>
ओ जस</w>
ओ ंसे</w>
ऑ फिस</w>
एशि या</w>
एन डी
ए तान</w>
उभ ौ</w>
उभ यत</w>
उप सर</w>
उप योगी</w>
उप देशः</w>
उप करण
उद र
उ पार</w>
उ ंग
ई दृ
इंटरने शनल</w>
इ प</w>
इ धर
इ द
आरो ह
आराध ना</w>
आयोजि ते</w>
आयोज नं</w>
आजा दी</w>
आग म
आग ताः</w>
आकाश बा
आ वर</w>
आ लू</w>
आ पूर</w>
आ धी</w>
आ देशः</w>
आ खि
अवता रयति</w>
अव धि</w>
अव गच</w>
अलौकि क</w>
अल ंकार</w>
अरुणा चल</w>
अमृतम होत</w>
अमर नाथ</w>
अभिन यं</w>
अने कों</w>
अने काः</w>
अनु लो
अनु रोध</w>
अनु जा</w>
अनु जः</w>
अधि कृत</w>
अधि कारः</w>
अधि कता</w>
अखि लेशः</w>
अं गो
अ वन</w>
अ री</w>
अ रि
अ भक</w>
अ दृष</w>
अ टेंडेंट</w>
अ चल</w>
ं शु
S पि</w>
C O
8 0</w>
202 2</w>
20 19</w>
20 0
2 5</w>
1 6
1 5
५ ६</w>
४ १</w>
४ ०</w>
२०१ ९</w>
२० ०
२ ९</w>
२ ४</w>
ो सी</w>
ो स</w>
ो द</w>
ो तरी</w>
ो चत</w>
े दान</w>
ऽ प</w>
ऽ ग</w>
हो गे</w>
हे मंत</w>
ही नः</w>
हि ताय</w>
हि ता
हास यति</w>
हा लाँ
हालाँ कि</w>
हा मि</w>
हा म</w>
हमा स</w>
हम ला</w>
हनुमान जी</w>
ह ौ
ह रित</w>
ह ने</w>
ह तो</w>
ह ठ</w>
ह टा</w>
ह ङ</w>
सो मेन</w>
सो ती</w>
सेवा भा
से तु
से ंट</w>
से -
सूंघ ती</w>
सू ट
सू चितम</w>
सू खी</w>
सु सम</w>
सु संस</w>
सु ष</w>
सु धि
सु तः</w>
सु गं
सु खि
सी व</w>
सी जन</w>
सि ता</w>
साव धानी</w>
सामाजिक माध</w>
साध ित</w>
साध नानि</w>
साध क</w>
सा श</w>
सा लयं</w>
सा रः</w>
सा प</w>
सा दरं</w>
सह ैव</w>
सह े
सह ृ
सह यात</w>
सह ना</w>
सवे रा</w>
समू हः</w>
समा लम</w>
समा पने</w>
समा चरेत</w>
समा गताः</w>
सम या
सम ता</w>
सत पु
सतपु ड</w>
सखि यों</w>
संश यं</w>
सं हिता</w>
सं सृ
सं सिद</w>
सं शोध
सं योजन</w>
सं दृष</w>
सं जयः</w>
सं चालनं</w>
स ैव</w>
स हे</w>
स हितं</w>
स व
स री</w>
स रसों</w>
स फलं</w>
स फल
स दुप
स ता</w>
स तः</w>
स कृत</w>
स कृ
स एप</w>
षोड श
षे च</w>
षु षा</w>
षु ब</w>
षु धा</w>
षि ष</w>
षा लि
षा ल</w>
षा यै</w>
षमा णः</w>
षण भर</w>
षण केन</w>
ष सा
ष यत</w>
ष मः</w>
ष कैः</w>
शौ चं</w>
शे ते</w>
शुभा रम</w>
शि शिर</w>
शि प</w>
शि कार</w>
शान चन</w>
शां ति
शा ल</w>
शा नां</w>
शा टिकां</w>
शा कानि</w>
शह रों</w>
शरी रको</w>
शनि वासरे</w>
श ेन</w>
श यिष</w>
श मन</w>
श प</w>
श नों</w>
वो टों</w>
वो ट</w>
वैशा खी</w>
वेदि कायां</w>
वे षणे</w>
वे दोप
वे दो</w>
वृ तम</w>
वृ तः</w>
वी पे</w>
वी थि
वी त
वी णा
वी करोमि</w>
विशा खा
विवे कः</w>
विवे क
विवा ह
विधि ः</w>
विधानसभा निर</w>
विदेश ं</w>
विती ये</w>
विजे ता</w>
विज या
विका साय</w>
विं शति</w>
वि हितम</w>
वि मुक</w>
वि दित</w>
वि घा
वारि ंशत</w>
वाराण स</w>
वानु वाच</w>
वान रों</w>
वाधीन तायाः</w>
वाता नुकू
वाच न
वा हा
वा शि
वा नम</w>
वसु ध
वरु ण</w>
वट वृक</w>
वच ने</w>
वं शी</w>
व सुन</w>
व सामि</w>
व सम</w>
व शु
व शः</w>
व वस</w>
व ला
व लन</w>
व मि
व तम</w>
व णः</w>
लौकि क</w>
लोक गान</w>
लो गो
लो को</w>
लो को
लेखि का</w>
लेख क</w>
ले स</w>
ले ट</w>
लु टे
लिखि ये</w>
लि थि
लि के</w>
ला वण</w>
ला यते</w>
ला भान</w>
ला दि
ला जति</w>
ला गू</w>
लह री</w>
लव णं</w>
लव ण
लभ न</w>
लग ते</w>
लं बे</w>
ल सि
ल भा</w>
ल पक</w>
ल ंग
रोह णं</w>
रो वाच</w>
रो गो
रो ं
रेम पूर</w>
रे ण
रे जि
रृं खला</w>
रूप में</w>
रू सी</w>
रू ते</w>
रू ः</w>
रुचि ः</w>
रु ह</w>
रु वं</w>
रु तवान</w>
रु च</w>
रु -
री ह
री राधिका
री तिः</w>
री कण</w>
रिय वाक</w>
रि ल</w>
रि भु
रि ंग</w>
राय ण</w>
राणा याम</w>
राज पथ</w>
रा वस</w>
रा वत</w>
रा जना
रा च</w>
रा ंत</w>
रही ष</w>
रह णे</w>
रस क</w>
रशं सां</w>
रवे श
रवा सी</w>
रव ण
रमु च</w>
रमा ं
रम प</w>
रभृ तिः</w>
रधा री</w>
रती कः</w>
रतिवेद ने</w>
रति षे
रति श</w>
रति वेदि
रति रोध
रति ः</w>
रख ण</w>
रका रः</w>
रकर णे</w>
र सं
र वं</w>
र मान</w>
र पु
र पन</w>
र नों</w>
र दी
र तों</w>
र ताम</w>
र घू
र गेट</w>
योगि राज</w>
योगि की</w>
यो ज</w>
यो गी
यो ंने</w>
ये यं</w>
यू ष</w>
यू न</w>
यू तम</w>
यू ट</w>
यू ँ</w>
युव तियाँ</w>
यु वाच</w>
यु वत</w>
यु तं</w>
यि ता</w>
याऽ र</w>
याव धि</w>
याय मूर</w>
यापा री</w>
याप यति</w>
याप न
यान ो</w>
यादी नां</w>
याकुमा री</w>
या सि</w>
या ल</w>
या यालये</w>
या ता
या तं</w>
या ञ</w>
या चार</w>
या गमिष</w>
यय नार</w>
यम प</w>
यथो चित</w>
यथा विधि</w>
यज त</w>
य सम</w>
य वन
य मर</w>
य मण</w>
य पालः</w>
य पात</w>
य निर</w>
य थित</w>
य थः</w>
य तमं</w>
य तन</w>
य तते</w>
य चकित</w>
य काल</w>
मै ला</w>
मेहु लः</w>
में ढक</w>
मे ति</w>
मृ तिः</w>
मृ ता</w>
मृ गा
मुर ली
मुनि वर</w>
मुता बिक</w>
मुख स</w>
मुका बला</w>
मु श</w>
मु लह
मु ने</w>
मु नयः</w>
मु दा</w>
मी यते</w>
मी कि</w>
मि थि
मि थः</w>
मि का</w>
माल ती</w>
माता मही</w>
माँग ता</w>
मा सीत</w>
मा ली</w>
मा री
मा य</w>
मा माजी</w>
मा णिक</w>
मा च</w>
मा ग</w>
महोद या</w>
महिला नां</w>
महा राणा</w>
महा र</w>
मह सूस</w>
मरु स</w>
मरी चि
मनो रथ
मना ते</w>
मन ु</w>
मधुमे ह</w>
मधु रा</w>
मधु रम</w>
मधु रता</w>
मणि ः</w>
मण श</w>
मछ लियाँ</w>
मंगल वार</w>
मं दिरों</w>
मं जू
म ॉल</w>
म ॉ
म हि</w>
म सी
म व</w>
म व
म ली
म ला</w>
म ये</w>
म निष</w>
म नाम</w>
म धिकृत</w>
म थ</w>
म कृत</w>
भौ तिक</w>
भोग ता</w>
भू तम</w>
भी ख</w>
भि षे
भि द</w>
भाव ना
भारती य-
भानु ः</w>
भव नं</w>
भव तां</w>
भर कर</w>
भग वानुवाच</w>
भ रणम</w>
भ ट
बोले -</w>
बोल नेवाला</w>
बो स</w>
बू टी</w>
बु लाकर</w>
बु राई</w>
बु झ
बु ज
बी मा</w>
बी त</w>
बि हु</w>
बि हार</w>
बि शु</w>
बि या</w>
बालि के</w>
बाल का</w>
बाद लों</w>
बा य</w>
बा ध</w>
बहु षु</w>
बह ू</w>
बन ने</w>
बद ले</w>
बता ते</w>
बत लाया</w>
बकरि याँ</w>
ब लेन</w>
ब धि
ब कस</w>
ब कः</w>
फै ली</w>
फै लाकर</w>
फै ला</w>
फें कना</w>
फे न
फे कन</w>
फि क</w>
फ हरा
फ सलों</w>
फ सल</w>
फ लता</w>
फ ंसे</w>
पढ़ ा</w>
पोंछ ती</w>
पे टी</w>
पू छ</w>
पुरुष ो</w>
पु रः</w>
पु नाति</w>
पु कार
पी पल</w>
पी ओ</w>
पिपा सा
पिछ ली</w>
पि शु
पि लाना</w>
पि बे
पि धा
पि तो</w>
पि तुर</w>
पास वर</w>
पाठि ताः</w>
पाठ म</w>
पां व</w>
पाँच वाँ</w>
पा हार</w>
पा वन</w>
पा ला</w>
पा री</w>
पा पड</w>
पा नां</w>
पा नस</w>
पा देन</w>
पा दे</w>
पा दु
पा दत</w>
पा थे
पहुं चा</w>
पहुँ चे</w>
पला ण</w>
परे शान</w>
परिचा रिका</w>
परिच यं</w>
परि व</w>
परि मि
परि तो
परा ग</w>
परम ो</w>
पर द</w>
पदा ं</w>
पति तं</w>
पत ली</w>
पत कानि</w>
पढ ते</w>
पका कर</w>
पंजा बी</w>
पं जी
प ू</w>
प व
प लि
प रात</w>
प दा</w>
प ंद</w>
नो ंको</w>
ने स</w>
ने यः</w>
ने य</w>
ने तारः</w>
ने ट</w>
नू त
नु द</w>
नु त</w>
नु क</w>
नीं बू</w>
नी ताः</w>
निवासि यों</w>
निव सामि</w>
निलं बित</w>
निकाल ने</w>
निकाल ना</w>
निकल ने</w>
निः शुल</w>
नि शान</w>
नि व</w>
नि प</w>
नि धिः</w>
नि का</w>
नारिके ल
नामि का</w>
नाम क
ना मुप
ना नु
ना नी</w>
ना इ
नम ति</w>
नग रपा
नं बर</w>
न लाइन</w>
न मोऽस</w>
न खा
धू लि</w>
धु ना</w>
धि मत</w>
धि गच</w>
धि का</w>
धन खड</w>
ध ये</w>
ध यन</w>
ध यति</w>
ध नात</w>
ध कः</w>
दो षाः</w>
दो ला</w>
देह ली</w>
देश ेन</w>
दे हा
दे नेवाली</w>
दे त</w>
दृ च</w>
दूस रोंके</w>
दू रस</w>
दू ध
दुःख ेन</w>
दुःख ित</w>
दु बला</w>
दीपाव ली</w>
दीप क
दिने श</w>
दि शः</w>
दि वा</w>
दि राणि</w>
दाहि ने</w>
दान व</w>
दा ं
दश रथः</w>
दश मी</w>
दरवा ज</w>
दन के</w>
द हति</w>
द व
द रे</w>
द यां</w>
द में</w>
द बुद</w>
द नी</w>
द नी
द धि</w>
द की</w>
द -</w>
थि तान</w>
थि तप</w>
थाप यिष</w>
था में</w>
था नीय</w>
थ यः</w>
थ नां</w>
थ गि
तो षः</w>
तो द
ते हैं</w>
ते -
तृती ये</w>
तृती यं</w>
तु तम</w>
तु ंग
तीस रा</w>
ती ह</w>
ती म</w>
ती त</w>
ती खी</w>
ति श</w>
ति वा
ति प</w>
ति ना
ति तिक</w>
ताव देव</w>
तादृ शी</w>
तादृ शं</w>
ता हे</w>
ता रस</w>
ता ज
ता ंत</w>
तप ित</w>
तप ती
तदानी मेव</w>
त रक</w>
त मानस</w>
त मान
त मपि</w>
त दी
त दि
त दत</w>
त कस</w>
णा नन</w>
ण तया</w>
ढो ल</w>
ढा ं
ढ ंग</w>
डू ब</w>
डि तम</w>
डि त
डा लः</w>
डा ल
ड लं</w>
ड ब</w>
ड ंडा</w>
ठा नि</w>
ठा ं</w>
ठ हर</w>
ठ ग</w>
ठ ंडे</w>
टे र</w>
टि ल</w>
टा रगेट</w>
टा ध</w>
टमा टर</w>
ट वती</w>
ट कम</w>
ञे य</w>
ञान विज</w>
ञा सा</w>
ञा नेन</w>
ञा तुम</w>
ञ ी</w>
झू ला</w>
झु काकर</w>
झ ो
झ रना</w>
झ ंडे</w>
जु न
जीवि तम</w>
जीवन चरित</w>
जीव नस</w>
जि ला</w>
जि तने</w>
जाय गा</w>
जान नेवाला</w>
जाग रूक</w>
जाग रण</w>
जा वे</w>
जा त
जा गा</w>
जला श
जला ने</w>
जब तक</w>
जब -
जनक नन</w>
जन सम</w>
जगदी शः</w>
जख ौ</w>
ज मा</w>
ज ङ</w>
ज कर</w>
छि पे</w>
छि ड</w>
छा वः</w>
छ क</w>
चौ रः</w>
चो प
चेत साम</w>
चे यर</w>
चू ल</w>
चु राता</w>
चु ट
ची जों</w>
ची ंटी</w>
चि स</w>
चि ता
चाँ दी</w>
चा लीस</w>
चा रो</w>
चा रित</w>
चा रण
चा यं</w>
चा चा</w>
चा ं
चला ना</w>
चल ः</w>
चरण ौ</w>
चरण कमलो
चम क
च ष
च शिक</w>
च तस</w>
घृ त
घूम कर</w>
घाटि तम</w>
घा व</w>
घा न</w>
घा ट</w>
घट ित</w>
घट नेयं</w>
घट ः</w>
घट ं</w>
घ सूत</w>
घ बरा
घ ः</w>
गौ एँ</w>
गो दा
गो त</w>
गै स</w>
गुरुकु ले</w>
गुरु गोविन</w>
गुण स</w>
गी तम</w>
गा ण</w>
गा एँगे</w>
गति विधियों</w>
गत वर</w>
गण स</w>
गज ेन</w>
गंगा राम</w>
ग लं</w>
ग रव</w>
ग ना
ग दा
ग तान</w>
ग जः</w>
खो लता</w>
खे लेंगे</w>
खिलौ ने</w>
खि ल
खाद सि</w>
खा दित</w>
खा णां</w>
खा ईये</w>
खरीद ने</w>
ख स</w>
ख लः</w>
ख ब
ख नित</w>
ख ंड
ख ं</w>
कौ वा</w>
कॉले ज</w>
कै र</w>
कै ं
के शा</w>
कृता भ</w>
कृत मिति</w>
कृत गीतानि</w>
कृ षी
कृ षिक</w>
कृ षि</w>
कृ मि
कुरु ते</w>
कुमा रों</w>
कुमा रस</w>
कु ष</w>
कु रुत</w>
कु ड</w>
कु एं</w>
कु आँ</w>
की म</w>
किशो रः</w>
किलो मीटर</w>
कि सानों</w>
कि ला</w>
कालि दास</w>
काल पर</w>
काम ों</w>
काम धेनु</w>
कानू न</w>
का ले
का रीगर</w>
का ती</w>
का ग
कलि युग</w>
कल हं</w>
करू ँगी</w>
करा ती</w>
कर णे</w>
कपो ल</w>
कना डा</w>
कदा चि
कथ यामि</w>
कथ य</w>
कथ मे
कं धे</w>
कं जू
क ु</w>
क हू
क पर</w>
क नीं</w>
क ता
क टे</w>
क ँ
क -</w>
ओ दनं</w>
ऑ नलाइन</w>
एशि याई</w>
एयर पोर</w>
एका दशी</w>
एका दश</w>
एका कि
ए हि</w>
ए शन</w>
ए तेषां</w>
ए त
ए को</w>
ए ँगी</w>
ऋ ण
उप ै
उप धानं</w>
उप धा
उतर ती</w>
उछ लने</w>
इस पर</w>
इन मेंसे</w>
इधर उधर</w>
इदानी मेव</w>
इतो sपि</w>
इ तः
इ टु
आस न
आयु ः</w>
आप णम</w>
आधु नि
आदि से</w>
आदि के</w>
आद र-
आठ वें</w>
आग ं
आखि री</w>
आका ंक</w>
आ श
आ लो
आ रंभ</w>
आ भ</w>
आ दिष</w>
आ ञ</w>
आ जीविका</w>
आ चरण
आ कस</w>
असु रों</w>
अव स
अव लोकन</w>
अव रोध</w>
अव रो
अव तार
अव काश</w>
अव काश
अभि वाद
अपरि हार</w>
अपने -
अप रे</w>
अनु म
अनु प
अनु क</w>
अना वश</w>
अन या</w>
अधिक तया</w>
अधि कम</w>
अती त</w>
अखि ल
अके ली</w>
अकथ यत</w>
अं किता</w>
अं कित</w>
अ ह</w>
अ सीमित</w>
अ संख</w>
अ शान</w>
अ ली
अ रब</w>
अ भावः</w>
अ भवम</w>
अ निष</w>
अ धस</w>
अ टा
अ कृत</w>
अ क
ं सी</w>
ं सा</w>
ं ज</w>
V I
CO VI
202 0</w>
2 6</w>
2 5
2 3</w>
2 1</w>
1 3
1 00</w>
- सी</w>
- मैं</w>
- तो</w>
- तुम</w>
९ ०</w>
६ ००</w>
३ ६</w>
२ ८</w>
२ ७</w>
२ ३</w>
१ ७</w>
ड़ ना</w>
ो द
ॉ ट</w>
े गी</w>
ी ल</w>
ा पे</w>
ा पा</w>
ऽ न
हेतु ना</w>
हे मन</w>
हृषी केश</w>
हृद यम</w>
हु मा</w>
ही ना</w>
ही नता</w>
हिमां शु
हित कर</w>
हि रन</w>
हि नः</w>
हि ं</w>
हा रों</w>
हा रि
हा थी
हरे र</w>
हरि ं</w>
हथि यारों</w>
हटा कर</w>
हजा मत</w>
हंस ों</w>
हँ सी</w>
ह सामि</w>
ह री
सौ टी</w>
सोपा नम</w>
सो सि
सो मा
सेवा निवृत</w>
सेव नम</w>
सेव ते</w>
सेव काः</w>
सेना ओं</w>
सें टर</w>
से तोः</w>
सूट केस</w>
सूच नां</w>
सू र
सू खा</w>
सुभाष चन</w>
सुना या</w>
सुना ता</w>
सुख दुःख
सुख ः</w>
सु हृद
सु रव
सु मधुर</w>
सु गम</w>
सु ंद
सी धी</w>
सिंहा सन</w>
सिं हो</w>
सि कता</w>
साम वेद</w>
साध नों</w>
सा रिका</w>
सा धू
साधू नां</w>
सा धा
सा तों</w>
सा कम</w>
सा ई</w>
सहो दर</w>
सहनशी लता</w>
सह ने</w>
सरा दारभ</w>
समा ना</w>
समा जस</w>
समा गमः</w>
समया नुसार</w>
सम वस</w>
सभा याः</w>
सभा यां</w>
सफ लः</w>
सदृ शी</w>
सदृ शं</w>
सद नं</w>
सत तम</w>
सक लं</w>
संबं धित</w>
संग ठ
सं शुद</w>
सं वादं</w>
सं भावना</w>
सं भा
सं पादक</w>
सं दीपः</w>
सं कु
स हारे</w>
स रिता</w>
स रात</w>
स रत</w>
स भी
स पाद</w>
स पाद
स को
षो भ</w>
षे षु</w>
षी रोदनम</w>
षी ः</w>
षि प
षि तस</w>
षि णां</w>
षि णं</w>
षि काः</w>
षि ः</w>
षणी य</w>
षण े
ष राणि</w>
ष रम</w>
ष यं</w>
ष मां</w>
ष द
ष कौ</w>
ष केभ</w>
शो भि
शो फ
शो च
शे षु</w>
शे त</w>
शू कर</w>
शी लं</w>
शी तल
शिव कुमार</w>
शिबि राणि</w>
शिथि लता</w>
शिख रं</w>
शि शि
शि वं</w>
शा हः</w>
शा मि</w>
शा ब</w>
शा कुन</w>
शं कर
श व</w>
श रत</w>
श यित</w>
श मी
श नस</w>
श तै
श कर
श कट</w>
वै मानि
वेद स</w>
वेद म</w>
वेद ज</w>
वे षणं</w>
वृष भः</w>
वृ श</w>
वृ ते</w>
वृ तं</w>
वी रौ</w>
वी प
वी डियो</w>
विष यं</w>
विशेष कर</w>
विशे षः</w>
विशा ला</w>
विर चित</w>
विभा गः</w>
विभ ु</w>
विप दः</w>
विनो द</w>
विनी तः</w>
विन यः</w>
विदा ई</w>
विजा तीनां</w>
विचार कर</w>
विचा रे</w>
विच रन</w>
वि ह</w>
वि सृष</w>
वि सृज</w>
वि सृ
वि षा</w>
वि लास</w>
वि रोध
वि यों</w>
वि मृ
वि ता
वि तर</w>
वि डम</w>
वाह नानि</w>
वाम तः</w>
वाता य
वा से</w>
वा ष</w>
वा व
वा राणि</w>
वा रका
वा पी
वा नी</w>
वा जि
वा ज
वा ग
वसुध ैव</w>
वरु णा</w>
वम सि</w>
वभू तेषु</w>
वभा वेन</w>
वटु ः</w>
वच षक
व हस</w>
व हम</w>
व शक</w>
व ली</w>
व यन</w>
व यक</w>
व यः</w>
व भौ
व पत</w>
व नों</w>
व देशे</w>
व थ
व णिक</w>
व का</w>
व कम</w>
व ंस</w>
लौ की</w>
लो हा</w>
लो ल
लो पप</w>
लो प
लेख नं</w>
लेख ः</w>
लेख ं</w>
लु त</w>
लु ओं</w>
लिखि तं</w>
लिख ूँगा</w>
लिख ूँ</w>
लिख तु</w>
लि श</w>
लि पि</w>
लि पि
लि कार</w>
लाल बहादुर</w>
लाल बहा
लालबहा दुर
लालबहादुर शास</w>
लाइ ट</w>
ला श</w>
ला मिक</w>
ला पता</w>
ला ज
लह रों</w>
लला ट</w>
लघुपतन क</w>
लगा ये</w>
लगा ता</w>
ल द</w>
ल ताः</w>
ल घ</w>
ल कः</w>
ल -</w>
रौ ढ</w>
रोदि मि</w>
रो हः</w>
रो न</w>
रो तारः</w>
रो टिकां</w>
रो गो</w>
रॉ क</w>
रेजि मेन</w>
रे षितम</w>
रे यान</w>
रे णु
रे गि
रेगि स</w>
रू न</w>
रु वरि
रु र</w>
रु न</w>
रीह रिक</w>
रीडि ष</w>
रीड सि</w>
री शः</w>
री वा</w>
री वः</w>
री भगवान</w>
री के</w>
रिलो की
रिय संस</w>
रिय निग</w>
रि यन</w>
रि णौ</w>
रि ज</w>
रि कं</w>
राह कः</w>
रामी ण</w>
राज पू
राज प
राज तरं
राज की
रा हत</w>
रा येण</w>
रा यस</w>
रा यते</w>
रा ति</w>
रा तर</w>
रा तर
रा गी</w>
रा केश</w>
रा कर</w>
रा ंग</w>
रहे ण</w>
रही तुं</w>
रह णं</w>
रसा धन</w>
रस ृ
रस ित</w>
रशास नेन</w>
रवी मि</w>
रवा सि
रमे षु</w>
रमण पथं</w>
रम से</w>
रम णि
रम णाय</w>
रधा रा</w>
रतिवे शी</w>
रतियोगि ता
रति भागि
रण ेन</w>
रण े
रज तप
रघू त</w>
रग दा
रकाश येत</w>
रकर णानि</w>
रंग ों</w>
र ै</w>
र वृद</w>
र वासरे</w>
र यो</w>
र यस</w>
र बार</w>
र देशीयः</w>
र दीप</w>
र थि
र तस</w>
र कृत</w>
योऽ यं</w>
योगा त</w>
योग ेश</w>
यों से</w>
यो ऽस</w>
यो नियों</w>
यो नि
ये य</w>
ये तानि</w>
यू यम</w>
युव राज</w>
युग लम</w>
यु लोक</w>
यु म</w>
यु पा
यु तकम</w>
यु गल
याव सा
याया मं</w>
याप यन</w>
याप नं</w>
याप क
यान मग</w>
याग ो</w>
याग ता</w>
या सा</w>
या सम</w>
या यी</w>
या यालयस</w>
या पृ
या धर</w>
या दा
या गी</w>
या गा
या गत</w>
या ंग</w>
यस ने</w>
यशो दा
यवेद यत</w>
यय ौ</w>
यमा ण
यथे ष</w>
यथा योग</w>
यतो हि</w>
यजा मि</w>
यज मानः</w>
यका णां</w>
य सी</w>
य सिद</w>
य वती</w>
य रूप</w>
य योः</w>
य मनु
य भाषणं</w>
य भागे</w>
य पुस</w>
य नि
य नमस</w>
य धः</w>
य देव</w>
य दृच</w>
य जीवि
य जीव</w>
य चक</w>
य ग
य कारि
मोद ते</w>
मो हः</w>
मो ड</w>
मेघा ः</w>
मे र</w>
मे ध</w>
मृ तस</w>
मृ णा
मृ गाः</w>
मृ गः</w>
मृ गं</w>
मुखा रविन</w>
मुख ः</w>
मु ला
मु पेत</w>
मु निश</w>
मु दी</w>
मु द
मु खि
मुखि या</w>
मु ः</w>
मी ट</w>
मि षा
मि टा
मान सरोवर</w>
मान स
मान वा
मातृ भूमि</w>
मां सं</w>
मा हात</w>
मा ष</w>
मा ले</w>
मा मि</w>
मा नार</w>
मा नां</w>
मा दि</w>
मा दा
मा ताओं</w>
मा चरण</w>
मा गान</w>
मा कर</w>
महिला भिः</w>
महा सत</w>
महा राजा</w>
मलिनी करण
मलि न</w>
मयू राः</w>
मनो रमा
मनो रथ</w>
मना ंसि</w>
मधु सूदन</w>
मधु रभा
मधु रः</w>
मधु ना</w>
मदि रा</w>
मत दान
मण ौ</w>
मण े
मक राः</w>
म शे
म श
म वाप</w>
म लं</w>
म रणम</w>
म यस</w>
म मता</w>
म ब</w>
म दा</w>
म ते</w>
म तः</w>
म ट</w>
म के</w>
भोग ने</w>
भोग ना</w>
भे ष</w>
भे जना</w>
भे जती</w>
भृ तः</w>
भूमि म</w>
भूत ले</w>
भू तस</w>
भु जा</w>
भी षण</w>
भी कर
भि रेव</w>
भाव पूर</w>
भारती या</w>
भारत जन
भाग स</w>
भा वात</w>
भा भी</w>
भा गी
भव नानि</w>
भली भाँति</w>
भग वद
भ ौ</w>
भ वेन</w>
भ यता</w>
भ ती
भ जता</w>
बड़ े</w>
बैठ ो</w>
बैठ ेगा</w>
बैठ िये</w>
बै ठाकर</w>
बै ंगन</w>
बै ंग
बृ ह
बुध वासरे</w>
बु द
बु झा
बी जे
बिता ने</w>
बि ठाकर</w>
बि ट</w>
बालु का
बाल ो</w>
बाल ू</w>
बाल कैः</w>
बाल क
बा ष</w>
बा रा</w>
बा रम</w>
बा रबार</w>
बा धित</w>
बहिरा काश
बह वो</w>
बह व</w>
बह रा</w>
बह ता</w>
बदलू रामस</w>
बद लाव</w>
बता ए</w>
बगी चा</w>
ब ु</w>
ब स
ब रा</w>
ब रं</w>
ब धा
बधा ई</w>
ब डा</w>
ब जा</w>
ब चे</w>
ब ग</w>
फो र</w>
फू ल
फुट बॉल</w>
फा न</w>
फल ो</w>
फल कं</w>
फ हराया</w>
पढ़ ना</w>
पो ती</w>
पे स</w>
पे या</w>
पृ ह
पृ थ
पूजा याम</w>
पुरु षाणां</w>
पु ल
पु ति
पु ं</w>
पीठि का</w>
पी यूष
पी न</w>
पी डितः</w>
पि येंगे</w>
पि तरं</w>
पि ं
पाषा ण
पाल यति</w>
पाय यति</w>
पाप कर</w>
पादा म</w>
पाद यन</w>
पाणि नि</w>
पाठ ा</w>
पांच वें</w>
पाँ चों</w>
पा रस</w>
पा य</w>
पा ती</w>
पा टी</w>
पा गल</w>
पा कः</w>
पा ंडे</w>
पा ंड
पहुँ चने</w>
पहि ले</w>
पह ना</w>
पशु ः</w>
पलायि तः</w>
परिवारज नों</w>
परिणा मों</w>
परि हार</w>
परि समाप</w>
परि ष
परि वेष
परि चित</w>
परि कल</w>
परा धी
पय सा</w>
पदा नि</w>
पद वी
पद प</w>
पति- पत</w>
पति स</w>
पति त</w>
पति ं</w>
पठा मः</w>
पठ सि</w>
पचा स</w>
प शवः</w>
प रोक</w>
प रह</w>
प यो</w>
प य</w>
प नी
प नि
प धा
प दोन</w>
प णम</w>
प ज</w>
प -
नो ऽपि</w>
नो र</w>
ने गा</w>
ने क</w>
नूतन प</w>
नू नम</w>
नु ग</w>
नीति शास</w>
नीति पी
नीति ज</w>
नी ले</w>
नी ला</w>
नी रोग</w>
नी यते</w>
नी तवती</w>
निक ला</w>
निक टे</w>
नि होत</w>
नि हन</w>
नि षि
नि वत</w>
नि यर</w>
नि पात
नि देव</w>
नि काला</w>
नाश वान</w>
नामा ं
नाट कं</w>
नाग रिक</w>
ना ऽऽ
ना ऽस</w>
ना रीणां</w>
ना राज</w>
ना यु
ना यि
ना मित</w>
ना पितः</w>
ना नृ
ना दः</w>
ना चने</w>
नव मी</w>
नव नी
नव जात</w>
नम कीन</w>
नता पूर</w>
नग र
न ैर</w>
न वं
न रो</w>
न रस</w>
न रवर</w>
न रव
न रम</w>
न रक
न यी</w>
न पत</w>
न नान</w>
न दन</w>
न त
न टे
धो या</w>
धो ना</w>
धो कर</w>
धे हि</w>
धे नवः</w>
धूस रित</w>
धि तम</w>
धा वामि</w>
धा रा
धा ओं</w>
धनु ष
धन ै
ध ू</w>
ध वाः</w>
ध रति</w>
ध में</w>
ध निया</w>
ध निक</w>
ध नानि</w>
ध द</w>
ध ती</w>
दो ऽ
दो हन</w>
देश ो</w>
देश क</w>
देश -
देवकी नन</w>
देव ि</w>
देव नाग
देव ताः</w>
देख भाल</w>
दे ही</w>
दे हं</w>
दे वी
दे कं</w>
दे क</w>
दूस रे
दू रम</w>
दू रभा
दू तः</w>
दू ंगी</w>
दुःख म</w>
दु री</w>
दु द</w>
दी पे
दी नां</w>
दी ख
दी -
दिन में</w>
दिखा यी</w>
दि से</w>
दि ते</w>
दान व
दा ढ</w>
दयाल ु
ददा सि</w>
दं ष</w>
द स
द शास</w>
द राणि</w>
द य
द दर</w>
थो डा</w>
थि तौ</w>
थापि तम</w>
थान में</w>
थान भ</w>
था लिका</w>
था नेन</w>
था नि</w>
था तुं</w>
थ वा</w>
थ में</w>
तौ लिया</w>
तै स</w>
तै लस</w>
तै रते</w>
ते ऽस</w>
ते श</w>
ते लु
तृ णानि</w>
तू ह
तु रङ</w>
तु भ
तु प</w>
तु ति
ति से</w>
ति व</w>
ति मा
ति मस</w>
ति ना</w>
ति को</w>
ति कायां</w>
ति कं</w>
ताव ली</w>
ता लि
ता मणि
ता नन</w>
ता दि</w>
ता ईस</w>
ता ँ
ताँ बे</w>
तल ती</w>
तर नाक</w>
तमा ं</w>
तनु ः</w>
तन -
तदानी म</w>
तद ैव</w>
तद हं</w>
तद नु</w>
तकाल यात</w>
तक नी
त वैव</w>
त राज
त येत</w>
त पति</w>
त तो
त ति</w>
त का
ण ू
ण व
ण ना
ण के</w>
ण की</w>
ढे र</w>
ढूं ढ</w>
ढूँ ढ</w>
ढ कना</w>
डि यों</w>
डि ब</w>
डि ता</w>
डा य
डा न</w>
ड ेषु</w>
ड लम</w>
ड रती</w>
ड ण</w>
ठा य</w>
ठा नम</w>
ठ ते</w>
टो बर</w>
टे निस</w>
टे ज</w>
टू बर</w>
टि वर</w>
टा यम</w>
टा चार</w>
टा ङ</w>
ट ू</w>
ट ली</w>
ट रः</w>
ट नस</w>
ट नम</w>
ञोप वीत</w>
ञान प</w>
ञा र</w>
ञा पन</w>
ञा तुं</w>
ञा तं</w>
ञ ि
जें सी</w>
जें टीना</w>
जे त</w>
जू षा</w>
जु ल
जु गुप</w>
जु ः</w>
जी तने</w>
जी की</w>
जिन से</w>
जि ष</w>
जि प</w>
जाग ने</w>
जा ह</w>
जा लन</w>
जा प</w>
जा तस</w>
जा तं</w>
जा ङ</w>
जा ऊंगा</w>
जा इये</w>
जवा नी</w>
जना नाम</w>
जन -
ज ेन</w>
ज लोपप</w>
ज लता</w>
ज यि
ज क</w>
छू ने</w>
छु री</w>
छा से</w>
छ ृ
छ ल</w>
छ ब</w>
छ थः</w>
चेत सः</w>
चे तः</w>
चे क</w>
चू डा
चु ः</w>
चिं ता
चि मी</w>
चा ऽऽ
चा ऽ
चा रे</w>
चा प</w>
चला मि</w>
चमक दार</w>
चम कता</w>
चतु श</w>
चतु रङ</w>
च षकः</w>
च वादने</w>
च लेगी</w>
च रत</w>
च यम</w>
च यं</w>
च मत</w>
च प
च ना
घो ष</w>
घटना याः</w>
घ रा
घ टिका</w>
घ टा</w>
घ टा
गौ र</w>
गोंड वाना</w>
गो ला
गो पी
गो चर</w>
गृही तः</w>
गृ धः</w>
गृ ध</w>
गुरुकु लस</w>
गुरु भ</w>
गुरु द</w>
गुरु कुलं</w>
गुणा न</w>
गुण ोंसे</w>
गुण ेन</w>
गुण वती</w>
गुं जा
गु लाब</w>
गु रो</w>
गि रेगा</w>
गि र
गां धी
गा मी</w>
गा ढ</w>
गह ना</w>
गला चरणं</w>
गण तन</w>
गण क
गं दा</w>
ग हन</w>
ग वा
ग प</w>
ग दर</w>
ग तिम</w>
खो दने</w>
खो दना</w>
खो दते</w>
खू ब
खीं चता</w>
खी रा</w>
खादि तुं</w>
खा स</w>
ख ें</w>
ख ता</w>
ख तरनाक</w>
ख ः</w>
कौन- से</w>
कौन- सी</w>
कौन- कौन</w>
कौन सा</w>
कौ ड</w>
कोलाह लः</w>
को ह
को न
को द</w>
कॉ न</w>
केर लेषु</w>
केर ली
के यू
के न
के ं</w>
कृत वर</w>
कृत यः</w>
कृ पा
कृ तो</w>
कृ तेन</w>
कू ष</w>
कू पं</w>
कू द</w>
कुल दीप</w>
कु लस</w>
कु रूप
कु बेर</w>
कु दाल</w>
कु ट
कु एँ</w>
की स</w>
कि ष</w>
कि लो</w>
कालि न</w>
कारणा द</w>
कार यिष</w>
कार कः</w>
काम ं</w>
काँ पना</w>
का लेन</w>
का रो</w>
का राः</w>
का य
का नन</w>
का ओं</w>
कह ें</w>
कह लाते</w>
कर ों</w>
कर वस</w>
कम जोर</w>
कपो तः</w>
कपा ट
कदा चिद</w>
कथ यिष</w>
क ीं</w>
क सौटी</w>
क षाय</w>
क थितम</w>
क तः</w>
क टे
क टी</w>
क टः</w>
क ंस</w>
औष धम</w>
ओ हो</w>
ओ दनम</w>
ओ ज</w>
ओ क</w>
ऑ र</w>
ऑ क</w>
एस एल
एक- एक</w>
एक बार</w>
ए श</w>
ए र</w>
ए फ</w>
ए तेषु</w>
ए ताः</w>
ए ता</w>
ए तदर</w>
ए ड</w>
ए जेंसी</w>
ए की
ऊं चाई</w>
ऊ न</w>
उभ यतः</w>
उपा यः</w>
उप हास</w>
उप रोक</w>
उप देशं</w>
उप चार</w>
उप चा
उदा सीन</w>
उद रे</w>
उद रं</w>
उठा ने</w>
उ लू
उ मा
उ दी
उ दित</w>
उ तनी</w>
ई शा</w>
ई जिप</w>
इला कों</w>
इदानी न</w>
इ यम</w>
इ तोऽपि</w>
आस पास</w>
आल सी</w>
आप सी</w>
आप न</w>
आप ः</w>
आदि नम</w>
आदि की</w>
आदरणी य</w>
आद रः</w>
आति थे
आगामि नि</w>
आकाश वाणी</w>
आं ख</w>
आ साद</w>
आ समान</w>
आ वास</w>
आ लप</w>
आ रात</w>
आ येगा</w>
आ याति</w>
आ भा
आ तपः</w>
आ कुल</w>
अव करं</w>
अल मारी</w>
अल भत</w>
अरो चत</w>
अमृ तं</w>
अमर नाथ
अपरि चित</w>
अप े
अप रः</w>
अप ठत</w>
अप घा
अनुस ृत</w>
अनु भवति</w>
अनु भव
अनु गमन</w>
अनु कम</w>
अना वृष</w>
अना दि</w>
अना गत
अन श</w>
अधी तवती</w>
अधि काः</w>
अद दत</w>
अति थी
अट ल</w>
अचि रेण</w>
अकारण मेव</w>
अंगू ठी</w>
अं धा</w>
अं कुश</w>
अ सू
अ सन</w>
अ शे
अ शिष</w>
अ वा
अ मुत</w>
अ मु
अ भी
अ धि</w>
अ दास</w>
अ दा
अ दर</w>
अ ददा
अ तुल</w>
अ णु
अ टि
ंग रा</w>
ँ गा
D -19</w>
COVI D-19</w>
6 00</w>
4 0</w>
.के .</w>
- ये</w>
२०२ ४</w>
२०२ ३</w>
२ ३
१८ ५७</w>
ौ षधं</w>
े वर</w>
ू ँगी</w>
ा वा</w>
ा दान</w>
हो म</w>
हो म
हो द
हे तवः</w>
हु वा</w>
हु यी</w>
ही ल</w>
ही ल
हील चेयर</w>
हि म</w>
हा हा
हा द</w>
हा उस</w>
हरे ः</w>
हरा कर</w>
हर ते</w>
हम लों</w>
हँस ना</w>
ह ेन</w>
ह यः</w>
ह य</w>
ह निष</w>
ह थ
सौं प</w>
सोऽ वदत</w>
सोसि एशन</w>
सोमा भाई</w>
सो साय
सो दर</w>
सो ढुं</w>
सो चना</w>
सैनि कान</w>
सै र</w>
सेवाभा वी</w>
सें टि
सेंटि नल</w>
से मि
सेमि नार</w>
सू री
सूरी नाम</w>
सू ना</w>
सुशी लता</w>
सुभा षितम</w>
सुख मय</w>
सु सह</w>
सु शील</w>
सु निश</w>
सु दैव</w>
सु ता
सु झा
सुझा व</w>
सु चेता</w>
सु कृति
सु करं</w>
सु ई</w>
सी धा</w>
सी दति</w>
सी तां</w>
सी टें</w>
सी .</w>
सि वा</w>
सि पा
सिपा ही</w>
सि ने
सि तः</w>
साह सं</w>
साह पूर</w>
सात वीं</w>
सा ही</w>
सा हं</w>
सा धनं</w>
सा धन
सा दरम</w>
सा ट</w>
सा ज</w>
सा ग</w>
सा इल</w>
सह योगेन</w>
सह च
सरो व
सरा भ</w>
सर लम</w>
सर ल
समे षां</w>
समु न</w>
समु चित</w>
समी पस</w>
समी पम</w>
समारो हस</w>
समारो ह
समाचा रं</w>
समा स</w>
समा नः</w>
समा न
समा धि
समा दृ
समा गतः</w>
समझ े</w>
समझ ाया</w>
समझ ाने</w>
समझ दार</w>
सभा ं</w>
सब में</w>
सके ं</w>
सका रात</w>
संसा रके</w>
संसा रः</w>
संव रण
संतु लित</w>
संगठ नों</w>
सं ह
सं पाद
सं गि
सं कोच</w>
स सम</w>
स वस</w>
स लीम</w>
स राह
स रक</w>
स यन</w>
स पदि</w>
स ताम</w>
स का</w>
षु कः</w>
षी यः</w>
षिप तु</w>
षि तौ</w>
षि ता
षि कोत</w>
षि क
षा मि</w>
षा दि
षा ओं</w>
ष ौ
ष रूपेण</w>
ष यित</w>
ष यसि</w>
ष मस</w>
ष धम</w>
ष तु</w>
ष ःस</w>
शौ चम</w>
शू र
शुभ लक</w>
शु रू
शु क
शीति सहस</w>
शी लेन</w>
शी लस</w>
शी लः</w>
शिवा भगिनी</w>
शिव भक</w>
शिव कर</w>
शिख रसम</w>
शि शवः</w>
शि वि
शि ता</w>
शि खा
शि की</w>
शांति कर</w>
शा ही</w>
शह ूर</w>
शरणा गत</w>
शर बत</w>
शनै ः
शनैः शनैः</w>
श हत</w>
श रणम</w>
श रणं</w>
श मन
श नः</w>
श तानि</w>
श कम</w>
वो द</w>
वो क</w>
वै वस</w>
वै दिकं</w>
वेष यामि</w>
वेदा नाम</w>
वेद विद</w>
वेद व</w>
वे स</w>
वे श
वे ब</w>
वे तः</w>
वे गः</w>
वृ ता</w>
वृ णी
वु ः</w>
वी रता
वी पों</w>
वी ट</w>
वी कृतम</w>
वी कुरु</w>
विषा द
विष ै
विष ये
विशे षण</w>
विशाखा पत</w>
विवे चन</w>
विवि धेषु</w>
विमा नानि</w>
विभा जित</w>
विपु ल
विप री
विनाश कारी</w>
विना शाय</w>
विधानसभा यां</w>
विधा ः</w>
विध वा</w>
वित रण</w>
वित रण
विज या-</w>
विज यन</w>
विच रते</w>
विका रों</w>
वि हिता</w>
वि हितः</w>
वि हसति</w>
वि हस</w>
वि वादं</w>
वि वाद
वि लोक
वि लो
वि रामः</w>
वि मुच</w>
वि पश</w>
वि निर</w>
वि धीयते</w>
वि धः</w>
वि ण</w>
वि जानी
वि गत</w>
वि कि
वास रस</w>
वायु प</w>
वामि नः</w>
वाद शी</w>
वाद क</w>
वाताव रणं</w>
वात जन</w>
वाच ने</w>
वाच नस</w>
वागत कक</w>
वा हं</w>
वा सा</w>
वा रों</w>
वा रु
वा पर
वा ण
वा टः</w>
वल ि</w>
वभा वः</w>
वन में</w>
वन माला
वदा नि</w>
वच ो</w>
वच षकस</w>
वं दना</w>
व हत</w>
व संस</w>
व शूल</w>
व शा
व वि
व वत</w>
व लों</w>
व ली
व यामि</w>
व यात</w>
व यमा
व यत</w>
व नी</w>
व नाथ</w>
व दे</w>
व टी</w>
व जों</w>
व जम</w>
व गृहे</w>
व गृहं</w>
व गुण</w>
लौ टे</w>
लौ टा</w>
लोच नं</w>
लोक में</w>
लेप नम</w>
ले न-
लेन- देन</w>
ले ंगी</w>
लू ँ</w>
लीला वती</w>
लील या</w>
ली पर</w>
ली टर</w>
लिखि तवती</w>
लिखा नि</w>
लि नः</w>
लि ताः</w>
लि कायाः</w>
लि काः</w>
लि ंग</w>
लाल सा</w>
लापर वाह</w>
लाज पत
ला ला</w>
ला लन</w>
ला यक</w>
ला नाम</w>
ला द
ला ऊँ</w>
ला ं
ला -
लता भ</w>
लगा न</w>
लगा ती</w>
लग ीं</w>
लखन ऊ
लंग ड</w>
ल वित</w>
ल वः</w>
ल लित</w>
ल यस</w>
ल ति</w>
रोप दी</w>
रो हन</w>
रो फ</w>
रो धी</w>
रो डः</w>
रो ककर</w>
रै रपि</w>
रेष यन</w>
रेल सेवकः</w>
रेल यानात</w>
रेल मार</w>
रे श</w>
रे वेन</w>
रे ती</w>
रे त
रृ णु</w>
रू यतां</w>
रू पी
रू द</w>
रू णि</w>
रू णां</w>
रु वे</w>
रु म</w>
रु ते</w>
रु तवन</w>
रु का
रीय सी</w>
रीध रस</w>
रीड काः</w>
री से</w>
री वस</w>
री लालबहादुरशास</w>
री गुरवे</w>
रिया क</w>
रिय ताम</w>
रि फ</w>
रि पुरा</w>
रि पाठी</w>
रि तानां</w>
रि णं</w>
रि ण</w>
रि जर</w>
रि कायाः</w>
रि कायां</w>
राहु लगान</w>
राह कों</w>
राव ट</w>
राय श</w>
राम श</w>
राम भक</w>
राम ति</w>
राम चरण</w>
राप यितुं</w>
राथ मिक</w>
राजनैति कद
राजतरं गिणी</w>
राज ेन</w>
राज सु</w>
राज लक</w>
राई वर</w>
राँ ची</w>
रा ही</w>
रा स
रा वक</w>
रा यै</w>
रा यें</w>
रा पयति</w>
रा ति
रा त
रा ची</w>
रा गारे</w>
रा कृतिक</w>
रहा न</w>
रह ृत</w>
रह ूँ</w>
रह रति</w>
रह नेवाले</w>
रह नेवाला</w>
रह णी
रसा दं</w>
रस दृ
रस गोल
रस गुल</w>
रवे ः</w>
रवि प</w>
रवा तस</w>
रयो गे</w>
रया ण
रय तते</w>
रय णम</w>
रमु ग</w>
रमु खा
रमा णं</w>
रम नु
रम -
रपति ना</w>
रथ मम</w>
रती कारः</w>
रति शतं</w>
रति रोध</w>
रति भाति</w>
रति भागी</w>
रति बद</w>
रति पादित</w>
रति पद</w>
रणी यम</w>
रणि पत</w>
रणा त</w>
रजा यते</w>
रजा ओं</w>
रजा ः</w>
रज तानि</w>
रचु र</w>
रच ू
रच यन</w>
रघु नाथ</w>
रको प</w>
रकाशि ते</w>
रका शं</w>
रका रके</w>
रका रकी</w>
रक टी
रक टि
रं श</w>
रं थ</w>
रं गोली</w>
र शेखर</w>
र वेष</w>
र वृक</w>
र वन</w>
र ला
र लये</w>
र यित</w>
र बल
र बंध</w>
र बं
र ब
र पञ</w>
र निर</w>
र धि
र धर</w>
र था</w>
र चर</w>
र चक</w>
र गल</w>
र गड</w>
र कला
र ई</w>
योऽ सि</w>
योगा भ</w>
योग े
योग श</w>
यो हार</w>
यो म</w>
यो तिः</w>
यू स</w>
यू रोप</w>
यू बर</w>
यू जी
युव कस</w>
युग पत</w>
यु ध</w>
यु तकं</w>
यु ं</w>
यि नः</w>
याप ी</w>
यानपे टिकाम</w>
याधि र</w>
यात या
यातया मम</w>
याण क</w>
याज हार</w>
या- क</w>
या ऽस</w>
या ह
या वा
या येन</w>
या युक</w>
या याल
या मपि</w>
या पर</w>
या धः</w>
या चल</w>
या गि
या ंग
यस नेषु</w>
यस नं</w>
यवसा यि
यव तमा
यय नों</w>
यय नानि</w>
यमु त</w>
यमा नेन</w>
यमा नानि</w>
यथा स</w>
यथा शक</w>
यथा क</w>
यं जन</w>
य हाँ
य हा
य सर</w>
य सभा</w>
य सं
य शे
य शिक</w>
य वेक</w>
य रूपेण</w>
य राष</w>
य मिव</w>
य मित</w>
य मात</w>
य मा</w>
य मध</w>
य भाषण</w>
य भा
य परि
य दर</w>
य दन</w>
य टक</w>
य कस</w>
य ंस</w>
मौ के</w>
मौ का</w>
मोम बत</w>
मो रक</w>
मो र
मो दन</w>
मै री</w>
मै ं
मेधा वी</w>
मेघा लय</w>
मेघ के</w>
मेघ ः</w>
मे ऽ
मे लि
मे ला</w>
मृ दु</w>
मृ तानां</w>
मू न</w>
मू क</w>
मू -
मू- कश</w>
मुर ली</w>
मुनि जन</w>
मुकु ट
मु मुक</w>
मी री</w>
मी नाः</w>
मि साइल</w>
मि मी
मि द
मि ता
मि तवान</w>
मि कता</w>
माव काशे</w>
मालि ङ</w>
माला म</w>
मानि ता</w>
मान वाः</w>
माध वन</w>
माध व
मातृ वत</w>
मांग ना</w>
मा सि</w>
मा सं</w>
मा रे
मा रितवन</w>
मा रं</w>
मा दाय</w>
मा तर</w>
मा ज</w>
मा चिस</w>
मा की</w>
मा इक</w>
मा ँगा</w>
मा ँ
मही यते</w>
महा साग
महा मारी</w>
महा बा
महा नौका</w>
महा नौ
मह स</w>
मह ति</w>
मल ङ</w>
मर सि</w>
मयू रः</w>
मनु स</w>
मन में</w>
मन को</w>
मत दा
मत गणना
मंजू री</w>
म शहूर</w>
म वान</w>
म वत</w>
म रता</w>
म रक</w>
म यो</w>
म युक</w>
म या
म मृत</w>
म बुद</w>
म नी</w>
म धू
म दान</w>
म तु
म तानि</w>
म तां</w>
म कं</w>
म ंद</w>
भेष जम</w>
भे दन</w>
भे दः</w>
भे जी</w>
भे जने</w>
भे जते</w>
भृ शं</w>
भृ ङ</w>
भू षित</w>
भू रि
भू पेन</w>
भू ति</w>
भू तल</w>
भू चल
भू खा</w>
भू ः</w>
भु शुण</w>
भु वः</w>
भु तम</w>
भु जं</w>
भु गतान</w>
भी- कभी</w>
भाषा याम</w>
भाषा णां</w>
भारत सर</w>
भारत रत</w>
भागि नेयः</w>
भाग ेन</w>
भाग धे
भा षिणी</w>
भा वं</w>
भा नोः</w>
भा ई-
भा ई
भा ं
भवे युः</w>
भव े</w>
भव साग
भव न
भर ने</w>
भर तो</w>
भर तं</w>
भं डार</w>
भ ूर</w>
भ म</w>
भ ण</w>
भ ंग
बोल ूँगा</w>
बोल ूँ</w>
बोल ीं</w>
बो लिये</w>
बो द</w>
बे स</w>
बृ हद</w>
बू ँ
बुध ैः</w>
बु ल</w>
बु कम</w>
बीजे पी</w>
बि लाव</w>
बि ता</w>
बालिका ओं</w>
बाल ों</w>
बाल ताल</w>
बाल को</w>
बाल कानां</w>
बां ध</w>
बाँ धकर</w>
बा पूजी</w>
बा प</w>
बा जों</w>
बहू न</w>
बहु विधं</w>
बहु प</w>
बहा दुरी</w>
बलि ः</w>
बला त</w>
बल पूर</w>
बर तन</w>
बर गद</w>
बन ती</w>
बन कर</w>
बं दर</w>
बं गाल</w>
बँ धा</w>
ब ॉक</w>
ब ले</w>
ब रसा
ब ति</w>
ब टन</w>
ब जाता</w>
ब -
फी तः</w>
फा ड</w>
फ ली</w>
फ न</w>
पढ़ ाते</w>
पौ ष</w>
पै ंट</w>
पे रियार</w>
पे ट
पृथि वीं</w>
पृ शन</w>
पृ थू
पूर यित</w>
पूजा ं</w>
पू रन</w>
पू ड</w>
पुरो हित</w>
पुरु षा
पुरा तनः</w>
पुरा तनं</w>
पुन राव
पु तुप</w>
पु णे</w>
पु झा</w>
पी तवान</w>
पिशा च</w>
पिब सि</w>
पिपी लिका</w>
पि हि
पि स</w>
पि लाता</w>
पि ल</w>
पालि र</w>
पालि ः</w>
पाल ते</w>
पारंग त</w>
पाप भाग</w>
पाठ यामि</w>
पाठ कः</w>
पाँ व</w>
पा व</w>
पा रा
पा नी
पा दितम</w>
पा केन</w>
पहुँ चते</w>
पहुँ चता</w>
पह नती</w>
पशू नां</w>
पशु भिः</w>
परि हर</w>
परि वेष</w>
परि पाल
परि ज</w>
पराय णः</w>
परा जि
परशु राम</w>
परम ब</w>
पर मिन</w>
पर त</w>
पदा रविन</w>
पद कं</w>
पति ना</w>
पति तानि</w>
पति ता</w>
पत ङ</w>
पठि तवन</w>
पठि तवती</w>
पठ नम</w>
पठ तु</w>
पटु ता</w>
पंजी करण</w>
पं चा
पं कज</w>
प वन</w>
प यस</w>
प नम</w>
प तेः</w>
प टे
प चे</w>
प चि
प गड</w>
प कौड</w>
प कर</w>
प ंत</w>
प ँ
पँ खा</w>
नौ करा
नौकरा नी</w>
नो षि</w>
नो न</w>
नेह ेन</w>
ने वालो
ने ल</w>
ने पथ</w>
ने का</w>
नृ शंस</w>
नृ पतिः</w>
नू तने</w>
नू तनम</w>
नु षा</w>
नील वर</w>
नीतिपी ठेन</w>
नी रोगः</w>
नी रवः</w>
नी रजा</w>
नी न</w>
नी तः</w>
निषे ध</w>
निवे दितम</w>
निवा सः</w>
निल यात</w>
निर पेक</w>
निकाल कर</w>
निकल ना</w>
नि हिता</w>
नि ह
नि ली
नि रोध</w>
नि रह
नि रव
नि यो
नि या
नि मील</w>
नि पात</w>
नि नः</w>
नि धा
नि जी</w>
नि चुल</w>
नि के
नाश यन</w>
नाराय णस</w>
नान गृहे</w>
नागा लैंड</w>
ना सन</w>
ना शं</w>
ना वसरे</w>
ना यकः</w>
ना नाय</w>
ना नाम</w>
ना दि
ना तको
नातको त</w>
ना गर</w>
नहा ने</w>
नहा ता</w>
नवा ब</w>
नवं बर</w>
नव ल
नव रात</w>
नग रों</w>
नग रात</w>
न सत</w>
न शे</w>
न रसो</w>
न रके</w>
न ना
न ध</w>
न दीं</w>
न दति</w>
न तिं</w>
न डि
न जर</w>
धौ तवस</w>
धेनु ं</w>
धे नो</w>
धे नू
धृ ति</w>
धु एँ</w>
धी नां</w>
धी तं</w>
धिका रिक</w>
धि वाला</w>
धि याँ</w>
धि मती</w>
धि ता</w>
धि को</w>
धा रणे</w>
धनु रा
धनु ः</w>
धन दास</w>
ध ैः</w>
ध रे
ध राम</w>
ध मिति</w>
ध नेभ</w>
ध कार
दौ ड़
दौ त</w>
दैव तम</w>
देहरादू न</w>
देवनाग री</w>
देव रः</w>
देख िए</w>
दे हः</w>
दे शात</w>
दे वेषु</w>
दे नी</w>
दृढी कृतम</w>
दू रतः</w>
दू ब</w>
दू ती</w>
दुःखा नि</w>
दु हाम</w>
दु विधा</w>
दु पट</w>
दु ख
दी पेश</w>
दी पेन</w>
दी पाः</w>
दी पा</w>
दी पा
दी नता</w>
दिवस स</w>
दिखा ने</w>
दिखा कर</w>
दि माग</w>
दि नेभ</w>
दि नत</w>
दान वों</w>
दां तों</w>
दा सस</w>
दा नेन</w>
दश वर</w>
दश म
दवा ओं</w>
दर वन</w>
द वाई</w>
द लों</w>
द लम</w>
द रव
द रभ
द मूल
द तः</w>
द का</w>
द कर</w>
द कं</w>
थो ऽपि</w>
थु ः</w>
थि री
थि तस</w>
थाप यामि</w>
थान से</w>
था सु</w>
था पक</w>
था नाम</w>
था नान</w>
था ंश
थ लानि</w>
थ ये</w>
थ यामहे</w>
थ मा
थ ता</w>
थ तः</w>
थ कान</w>
तो रई</w>
तो न</w>
तो ते</w>
तो ता</w>
तो ंकी</w>
ते यम</w>
ते यं</w>
ते जिन</w>
तृती यस</w>
तृ षा</w>
तृ भ</w>
तृ ण</w>
तू हल</w>
तुल नीय</w>
तु षु</w>
तु शास</w>
तु वायः</w>
तु ला
तु न</w>
तु एं</w>
ती ः</w>
ति रो
ति रत</w>
ति मिच</w>
ति थ</w>
ति तमे</w>
ति की</w>
ति कायाः</w>
ताल ु</w>
ताड यत</w>
ताज महल</w>
ता हा
ता सि</w>
ता वन</w>
ता रा
ता में</w>
तलि कायाः</w>
तलि कां</w>
तला याः</w>
तला त</w>
तला ं</w>
तल पदे</w>
तरा मि</w>
तर मेव</w>
तर -
तमा सस</w>
तमा ने</w>
तमा नाः</w>
तमा नः</w>
तमा ः</w>
तम ो</w>
तम प</w>
तब तक</w>
तनिवा रण
तद पि</w>
तद नु
तथा प</w>
तथ ै
ततो गत</w>
तट पर</w>
तः करण</w>
त ै</w>
त वृत</w>
त विद</w>
त रोत</w>
त यो</w>
त यामि</w>
त मिव</w>
त मिल</w>
त मिति</w>
त टं</w>
त कर
णु र</w>
णि मा
णि ः</w>
ण ैः</w>
ण लोल
ण यन</w>
ण में</w>
ण मूर</w>
ण पक</w>
ण का</w>
ण कं</w>
ढां पना</w>
ढा क</w>
डै म</w>
डे विड</w>
डू बे</w>
डू ब
डि सम</w>
डि का</w>
डा लती</w>
डा लता</w>
डा नि</w>
ड रे</w>
ड री
ड यते</w>
ड म
ड प</w>
ड ता</w>
ड तः</w>
ड ं
ठहर कर</w>
ठ ौ</w>
ठ सि</w>
ठ ता</w>
ठ ग
ठ ंडा</w>
टो ल</w>
टो करी</w>
टे गा</w>
टे क</w>
टे -
टू टी</w>
टि कायाः</w>
टि कया</w>
टा स</w>
टा श</w>
टा दश</w>
टा टा
टा ं</w>
ट मे</w>
ट पूर</w>
ट ण</w>
ञाप यतु</w>
ञानि कैः</w>
ञान रूपी</w>
ञा पयति</w>
ञा ने
ञा नात</w>
ञा तः</w>
झु क</w>
झु ंड</w>
झ े
झ ील</w>
झ ड</w>
जु ला
जीवि तं</w>
जीव नाय</w>
जी ना</w>
जी को</w>
जि याँ</w>
जि तात</w>
जा श</w>
जा रः</w>
जा यें</w>
जा याः</w>
जा इए</w>
जले बी</w>
जलि म</w>
जल से</w>
जल बिन</w>
जय पुर</w>
जबल पुर</w>
जनो ंका</w>
जना श</w>
जना य</w>
जन पद</w>
जन नम</w>
ज से</w>
ज वनि
ज ने
ज तु</w>
ज ठ
ज टि
ज ंघ
जंघ ा</w>
छू ता</w>
छि प</w>
छा ओं</w>
छा ं</w>
छ र</w>
छ नीय</w>
छ ताम</w>
छ -
चौ रा
चौ बीस</w>
चौ पाटी</w>
चौ थे</w>
चौ थी</w>
चौ ड</w>
चो लः</w>
चो रयति</w>
चो क</w>
चै वं</w>
चै न</w>
चे हरे</w>
चे द</w>
चे ताव
चू क</w>
चुरा ने</w>
चु रा</w>
चु का
ची स</w>
ची ता</w>
चि दा
चि टिका</w>
चाँ दनी</w>
चा वलों</w>
चा भी</w>
चा दर</w>
चा णक</w>
चलभा षं</w>
चल तां</w>
चल कर</w>
चरा चर</w>
चमकी ला</w>
चम सेन</w>
चट नी</w>
च ीं</w>
च वादनम</w>
च रों</w>
च रितं</w>
च बा</w>
च बा
च तम</w>
च कि
च -</w>
घों सला</w>
घो रं</w>
घटना ग</w>
गौरव पूर</w>
गो वत</w>
गो ला</w>
गो पालः</w>
गे श</w>
गृही तम</w>
गृही तं</w>
गृह मन</w>
गृ ञ</w>
गुरू णां</w>
गुरु वर</w>
गुरु प</w>
गुरु दक</w>
गुण े</w>
गुण सम</w>
गुण जी</w>
गुजरा ती</w>
गु द
गु डं</w>
गी ले</w>
गी र</w>
गिर फ</w>
गि लहरी</w>
गि रे
गि रावट</w>
गा ह
गा वत</w>
गा म
गा नि</w>
गा जर</w>
गम नेन</w>
गत वत</w>
गणे श
गण यामः</w>
ग ैर</w>
ग वां</w>
ग रीयसी</w>
ग मे</w>
ग धे</w>
ग तिर</w>
ग णाः</w>
खेल ती</w>
खे लन</w>
खूब सूरत</w>
खु लवा
खीं चकर</w>
खि ले</w>
खि लते</w>
खादि तुम</w>
खा रा</w>
खा ड</w>
खा ओगे</w>
ख ली
ख म</w>
ख नन</w>
ख तरा</w>
ख ञ</w>
कौ रव
कौ टिल</w>
कोटि शः</w>
को ष
को शे</w>
को शस</w>
को रिया</w>
को मण</w>
को ट
को च
कें कड</w>
के षां</w>
के शर</w>
के त
के ट</w>
कृत ोऽ
कृत सप</w>
कृत सं
कृत मयं</w>
कृत मय</w>
कृत भारत</w>
कृत घ</w>
कृ शः</w>
कृ श</w>
कू दते</w>
कुश लम</w>
कुश लं</w>
कुला धि
कुरु जाङ</w>
कुमा री</w>
कु लि
कु रं</w>
कु ठा
की ट</w>
किशो रस</w>
किम ु</w>
कि वाड</w>
कि ले</w>
कि न
कि चित</w>
काश ीं</w>
काल चक</w>
कारि णी</w>
कायि कक</w>
कां पना</w>
का लात</w>
का पि</w>
का णां</w>
कल हः</w>
करि ए</w>
करणी यं</w>
कर ौ</w>
कम रा</w>
कम ङ</w>
कथ यन</w>
कछु ए</w>
कच रा</w>
कं ठस</w>
क लन</w>
क राः</w>
क माया</w>
क भी-कभी</w>
क निर</w>
क नं</w>
क ंड
औ ौर</w>
औ रंग
ओ स</w>
ओ ंठ</w>
ओ ंकी</w>
ओ ंका</w>
ऐ च</w>
एक मेव</w>
एक जु
ए सोसिएशन</w>
ए लो
ए लि
ए रण</w>
ए तावत</w>
ए च</w>
ए कोऽपि</w>
ए के</w>
ए एस
ए ंगे</w>
ए ं
ऋ षी
ऋ षयः</w>
ऋ क</w>
ऊ ंट</w>
उपा यों</w>
उप सृत</w>
उप लक</w>
उप योक</w>
उप मन</w>
उप पद</w>
उप नयन</w>
उदा रता</w>
उतर ते</w>
उठा ती</w>
उ ल
उ रू
उ र
उ मा</w>
उ पास</w>
उ छा
उ चितम</w>
उ ँग
इतः पर</w>
इं जी
इ लेक</w>
इ म
इ दं
इ डु
इ टली</w>
आसन सो
आषा ढ</w>
आलि म
आयु षी</w>
आपात कालीन</w>
आप णात</w>
आनी तानि</w>
आनी ता</w>
आन यसि</w>
आन यन</w>
आन यतु</w>
आन ं
आदरणी या</w>
आद रं</w>
आद र
आगा मि</w>
आग म</w>
आग तं</w>
आ ा
आ हि
आ वास
आ लोक</w>
आ लु
आ लम</w>
आ राष</w>
आ यकर</w>
आ मंत</w>
आ नेतुम</w>
आ नेतुं</w>
आ धिपत</w>
आ धिकारिक</w>
आ धिक</w>
आ ढ</w>
आ ठम</w>
आ चरन</w>
आ चरति</w>
आ चर</w>
आ कृष</w>
आ एगी</w>
आ इए</w>
अहं कारी</w>
अह मेव</w>
असु र</w>
अवत रण
अव ै
अव गतम</w>
अलग- अलग</w>
अरु चि</w>
अमे ध</w>
अमृत सर</w>
अमा वस</w>
अभिल षित</w>
अभि सं
अभि षे
अभि मुखी
अभि भाव
अपरा धी</w>
अपने- अपने</w>
अप सर</w>
अप शब</w>
अप थ</w>
अप घातः</w>
अनुलो मन</w>
अनु वासन</w>
अनु मो
अनु पम</w>
अनु त</w>
अनागत विधाता</w>
अन ृत</w>
अधी त</w>
अधिकारि णा</w>
अधिक तर</w>
अधि कानि</w>
अथा ह</w>
अति ष</w>
अति थयः</w>
अज गर</w>
अग र
अंगू ठा</w>
अं ड
अं जना</w>
अं गा
अं कुर</w>
अ हिंसा
अ सौ</w>
अ सर</w>
अ संशयं</w>
अ शोक</w>
अ शो
अ विज</w>
अ ली</w>
अ लक</w>
अ रिन</w>
अ युक</w>
अ मितः</w>
अ भूतपूर</w>
अ भीष</w>
अ तुलनीय</w>
अ जे
अ कार</w>
अ कस</w>
ंशु कम</w>
ंड ल</w>
ं छ</w>
7 7</w>
7 2</w>
6 4</w>
5 7</w>
5 6</w>
4 8</w>
4 7</w>
4 4</w>
2 9</w>
2 ,
1 7</w>
1 .
0 8
.. .....</w>
. ५</w>
- वह</w>
- ना
- अन</w>
८ ०</w>
७ ७</w>
७ ५</w>
६ ८</w>
५ ४</w>
५ १</w>
४ ८</w>
४ ७</w>
४ २</w>
३ ३</w>
२० ०</w>
१९ ९
१ ६०</w>
१ २
ौ क
ोद क
ो न</w>
ै स</w>
ै ं
ैं टल</w>
े ऽ
ू ंगा</w>
ू ं</w>
ा ई-
ाई- झगड</w>
ऽ सौ</w>
ऽ भि
हौ रा</w>
हो तेहैं</w>
हो ताहै</w>
हो टल</w>
हो ओ</w>
हो ऊँ</w>
हो ंठ</w>
हैदरा बाद</w>
हैं -</w>
हे तोः</w>
हे त</w>
हु सैन</w>
हु सै
हु ता
हु ँ</w>
ही से</w>
ही यते</w>
ही नं</w>
हिमा ल
हिम दास</w>
हिं दी</w>
हि ष</w>
हि मम</w>
हि क
हास पूर</w>
हा सिक</w>
हा रस</w>
हा थ-
हरि त
हर ड</w>
हमा सस</w>
हम लोग</w>
हँसा ता</w>
हँस कर</w>
हँ से</w>
ह ॉल</w>
ह लु
ह रणम</w>
ह फ</w>
सौ मित</w>
सोच- विचार</w>
सो ये</w>
सो ए</w>
सैनि केभ</w>
सैनि कानां</w>
सैनि का</w>
सैं या
सेवि तं</w>
सेव या</w>
सेव कों</w>
सेना पति</w>
से फ</w>
से ट</w>
से क</w>
से ंड
सेंड ैंटल</w>
सू प</w>
सू नृ
सू नु
सू ख
सुन वाई</w>
सुगं धित</w>
सुखि नः</w>
सुखा नि</w>
सुख स</w>
सुख करी</w>
सु वास
सु ले
सुले खा</w>
सु रङ</w>
सु मधुरं</w>
सु पे
सुपे द</w>
सु ने</w>
सु धीर</w>
सु दृढ
सु दुष</w>
सु त</w>
सु गंध</w>
सु ओं</w>
सु ः</w>
सी बत</w>
सी ख</w>
सी ओ
सीओ वी
सीओवी आई
सीओवीआई डी</w>
सी ः</w>
सिने मा</w>
सिंह ेन</w>
सिं हं</w>
सि ते</w>
सि ट</w>
सि कुड</w>
सि कः</w>
सारा ंश</w>
सार थी</w>
सानु जः</w>
साधु ओं</w>
साध ना</w>
साग रः</w>
सा ड़ी</w>
सा हा
सा शास</w>
सा ला</w>
सा द
सहि तो</w>
सहा यतां</w>
सह ा</w>
सह योगी</w>
सह मति</w>
सह त</w>
सवाहि रिः</w>
सलि लम</w>
सरो वरं</w>
सरो वर
सरो ज</w>
सरी ये</w>
सराह ना</w>
सरा नन</w>
समू हस</w>
समीप काले</w>
समारो हः</w>
समायो जिता</w>
समा ह
समा नी</w>
समा नाः</w>
समा धान</w>
समा धा
समझ ो</w>
समझ ा
सम ो
सम वायः</w>
सम वर</w>
सम यमें</w>
सम य-
सम भवत</w>
सम प</w>
सम तल</w>
सम चित</w>
सब र</w>
सब नें</w>
सदृ शा
सद सि</w>
सती शः</w>
सती त</w>
सत त
सचि वः</w>
सके गा</w>
सके ंगे</w>
संसा रसा
संसा रको</w>
संस दि</w>
संस दः</w>
संशो धित</w>
संशो धन</w>
संवाद दा
संयोज कः</w>
संपाद कीय</w>
संघ ेन</w>
संघ स</w>
सं विधान</w>
सं रचना</w>
सं भोग</w>
सं भाषण</w>
सं धा
सं दूक</w>
सं तो
सं ता
सं तप</w>
सं जाता</w>
सं चालकः</w>
सं च
सं गी
सं कट
स श
स ले</w>
स लाह
सलाह कार</w>
स ल
स रि
स या</w>
स यति</w>
स जाया</w>
स जल</w>
स जल
स च
स ग</w>
स खा</w>
स खा
स की</w>
षोड श</w>
षो ऽपि</w>
षे द</w>
षी रसा
षी यन</w>
षी यते</w>
षी णः</w>
षिणा फ</w>
षिण -
षि पामि</w>
षि पन</w>
षि न</w>
षि तुं</w>
षि तवान</w>
षि णे</w>
षि कः</w>
षा शास</w>
षा द
षा -
षमा शील</w>
षणी यम</w>
षणा वृत</w>
षण ो</w>
षण मपि</w>
ष ैः</w>
ष सः</w>
ष स
ष यि
ष यते</w>
ष मात</w>
ष प</w>
ष ज</w>
ष च</w>
शोध च</w>
शो को</w>
शो का
शैल पुत</w>
शै ले</w>
शेष जी</w>
शे षों</w>
शे षाः</w>
शे षम</w>
शे षः</w>
शृ ं
शूर वीर</w>
शू ला
शू ल
शुरू आत</w>
शुभ कामनाः</w>
शुभ कामना</w>
शुभ कामना
शुचि र</w>
शु काः</w>
शीत लं</w>
शी शां
शी शा</w>
शी ला</w>
शी लता</w>
शिशु ं</w>
शिवा जी</w>
शिव जी</w>
शिबि रं</w>
शिबि र</w>
शि रो</w>
शि तवान</w>
शि तम</w>
शि ग</w>
शि खि
शि का</w>
शार दा</w>
शा टिका</w>
शा क
शरीर वाले</w>
शरी रका</w>
शम नार</w>
शम नं</w>
शनी यानि</w>
शतै रपि</w>
शक टः</w>
शं ख
श शाङ</w>
श यितुम</w>
श यामि</w>
श यतु</w>
श बरी</w>
श नेन</w>
श द</w>
श ताव
शताव री</w>
श कुं
शकुं तला</w>
श कान</w>
श का</w>
वैदि कमङ</w>
वै शिष</w>
वै रम</w>
वै दे
वै कल</w>
वेदा त</w>
वेद पाठी</w>
वेद पाठ</w>
वेद प</w>
वेद का</w>
वे षी</w>
वे षात</w>
वे षणम</w>
वे षण</w>
वे शः</w>
वे शं</w>
वे लायां</w>
वे ध
वे दन</w>
वे त
वे णी</w>
वे ङ</w>
वृणी ष</w>
वीर सैनिकाः</w>
वी रान</w>
वी रांग
वी रस</w>
वी कृताः</w>
वी कृतवन</w>
वी का</w>
वी करणी
विह गाः</w>
विषय मिदं</w>
विष यस</w>
विष यम
विषयम धिकृत</w>
विवे दी</w>
विवे की</w>
विवि धा</w>
विवा हिता</w>
विव रणम</w>
विला स
विरा ध</w>
विमृ श</w>
विभे दः</w>
विभव ो</w>
विप रीत
विना शक</w>
विन येन</w>
विन यं</w>
विन य
विधे यक</w>
विधि ना</w>
विदेश ेषु</w>
विदु षी</w>
विद धीत</w>
वित रित</w>
विज ोत</w>
विज श</w>
विज ः</w>
विचा रान</w>
विक सति</w>
विक त</w>
वि हित</w>
वि हि
वि सहस</w>
वि शन</w>
वि वेश</w>
वि विक</w>
वि वश</w>
वि व</w>
वि लीन</w>
वि राम</w>
वि रह</w>
वि मि
वि फल</w>
वि पा
वि निश</w>
वि नि</w>
वि धू
वि दार</w>
वि तं</w>
वि कार
वि कम</w>
वि ंग</w>
वाह नम</w>
वासि यों</w>
वारि तः</w>
वार मेव</w>
वायु की</w>
वामि नी</w>
वानु मान</w>
वाधीनता संग</w>
वाद स</w>
वाज पे
वाजपे यी</w>
वाच ि</w>
वाच म</w>
वाच ः</w>
वां सः</w>
वां छनीय</w>
वा ऽपि</w>
वा ही</w>
वा हिन</w>
वा सि</w>
वा मः</w>
वा निति</w>
वा दि</w>
वा तन</w>
वा जी
वा कांक</w>
वा कर</w>
वह सि</w>
वसु धां</w>
वसु देव
वस ृ
वस ु</w>
वस नम</w>
वस नं</w>
वरि तमेव</w>
वरि तं</w>
वर मे
वर खे
वनि याँ</w>
वन वासी</w>
वन को</w>
वधा नेन</w>
वद ध</w>
वद ङ</w>
वट ु</w>
वज ह</w>
वचषक पादकन</w>
वकी यां</w>
वंश ज</w>
व ॉट</w>
व हे</w>
व सूचना</w>
व शे</w>
व शीर</w>
व शास</w>
व शात</w>
व विधानि</w>
व वर</w>
व ले</w>
व लिष</w>
व लः</w>
व रे
व रूप
व रू
व रान</w>
व येन</w>
व ये
व मुख</w>
व मुक</w>
व भि
व बन</w>
व पुः</w>
व ना</w>
व देशी</w>
व देशी
व था
व गं
व काल</w>
व क
लड़ के</w>
लोच नम</w>
लोच न
लोगो ंको</w>
लोके ऽस</w>
लोक यति</w>
लोक नम</w>
लोक तन</w>
लो द</w>
लो कम</w>
लेखा ः</w>
लेख नीयः</w>
लेख न
लेख कः</w>
लू ंगा</w>
ली यं</w>
लिथि यम</w>
लिखि तानि</w>
लिखि ता</w>
लिख सि</w>
लि नी
लि तानि</w>
लि काम</w>
लि ं
लाह ौ
लाल ची</w>
ला सा</w>
ला ला
ला य</w>
ला भा
ला पन</w>
ला निस</w>
ला घ
ला ंकि</w>
लह सुन</w>
लव णम</w>
लता याः</w>
लगा ते</w>
लग ना</w>
ल- संस</w>
ल ौ</w>
ल श</w>
ल वे
ल पर</w>
ल पट
ल तयोः</w>
ल च</w>
ल गन</w>
रोमा ंच</w>
रोध ेन</w>
रो ष
रो परि
रो नाल</w>
रो तुं</w>
रो ट
रो ञ</w>
रो च</w>
रो गेण</w>
रो गे</w>
रो कना</w>
रो कते</w>
रो ः</w>
रॉ न</w>
रै स</w>
रै श</w>
रै या</w>
रेष यिष</w>
रेष यामि</w>
रेल यानम</w>
रे षन</w>
रे रितवान</w>
रे र
रे तुम</w>
रे डियो</w>
रूप ा</w>
रूप स</w>
रूप वती</w>
रू पक</w>
रू ट</w>
रुवरि मासस</w>
रुव रि</w>
रुधि र</w>
रुचि कर</w>
रुचि ं</w>
रुका वट</w>
रु ह
रु वाणि</w>
रु रोद</w>
रु पूर</w>
रु पी</w>
रु पद</w>
रु के</w>
रु के
रु का</w>
रीडा याम</w>
री शङ</w>
री वो</w>
री लंका
री रामः</w>
री यं</w>
री भरतजी</w>
री पन</w>
री प</w>
री नन</w>
री तिं</w>
री ग
री कृत</w>
रिया एँ</w>
रिया ई</w>
रिय वादी</w>
रिय -
रि र</w>
रि योंके</w>
रि मा</w>
रि भ</w>
रि पु</w>
रि प
रि तुम</w>
रि चक</w>
रि कार</w>
रि क
राम ौ</w>
राम वासी</w>
राम मेव</w>
राम मे
राम जी</w>
राम गीता</w>
राथ मिक
राण ो</w>
राजी ल</w>
राजा नः</w>
राजना थ
राज हंस</w>
राज सभा</w>
राज द</w>
राज तन</w>
राज त</w>
राज को
राचीन काल</w>
राघ वः</w>
रां सिस</w>
रा वास</w>
रा ल</w>
रा यो</w>
रा ये
रा मन</w>
रा पत</w>
रा तरं</w>
रा गात</w>
रा गा
रहि तः</w>
रहण से</w>
रसी दति</w>
रसा रयति</w>
रसा यनम</w>
रसा य
रसा दः</w>
रस ना</w>
रस ता</w>
रशं सित</w>
रवे शः</w>
रवी णः</w>
रवि क</w>
रवि ः</w>
रवा हित</w>
रवा सः</w>
रवा ई</w>
रव हन</w>
रव ति</w>
रव णं</w>
रया णां</w>
रमे ऽस</w>
रमि कों</w>
रमि कः</w>
रमा णम</w>
रम यं</w>
रम णस</w>
रम णम</w>
रम ञ</w>
रभा वेन</w>
रभा वेण</w>
रभा वात</w>
रभ ः</w>
रप रह</w>
रधा नम</w>
रधा नं</w>
रदे शाः</w>
रदा ः</w>
रती रे</w>
रतिवेदि तानि</w>
रतियोगि ताओं</w>
रति वसति</w>
रति निवृत</w>
रति निधि</w>
रति कू
रता पस</w>
रत ट</w>
रणी या</w>
रणी य</w>
रणि ताः</w>
रणा ल</w>
रणा र</w>
रणा न</w>
रणा कुलं</w>
रणा ः</w>
रण श</w>
रण मामि</w>
रण पत</w>
रण ः</w>
रजा नन</w>
रज ेत</w>
रज कः</w>
रचा ल</w>
रचा रणं</w>
रचा रं</w>
रच लिष</w>
रच लित</w>
रकाशि तं</w>
रकाश म</w>
रका रों</w>
रका रेण</w>
रका रका</w>
रका ंत</w>
रंग मंच</w>
रं श
र सा</w>
र ली
र रूप</w>
र येत</w>
र यिष</w>
र यितुं</w>
र भूषण</w>
र भि
र भाषा</w>
र पुष</w>
र परश</w>
र नील
र नि
र दीपः</w>
र दाय</w>
र दान
र ददाति</w>
र थे</w>
र थिता</w>
र थं</w>
र चो
र गो
र कृतेः</w>
र कृतिः</w>
र कुर</w>
र कु
र कस</w>
र कला</w>
यौ षधं</w>
यौ वने</w>
यौ वन</w>
योऽ हं</w>
योति ष
योगि नः</w>
योग ो</w>
योग शिक</w>
योग दानं</w>
यो हारों</w>
यो गों</w>
ये -
यू नं</w>
यू न
यू त
युवा वस</w>
युवा भ</w>
यु स</w>
यु धि</w>
यु धा
यु दण</w>
यु ति
यु टि
युटि कल</w>
यी कृत</w>
यि ल</w>
याव रणम</w>
याल याः</w>
याल ः</w>
याम ल
याभ रणं</w>
यानपे टिकाः</w>
यानपे टिकां</w>
यान माला</w>
यान म
यान चन</w>
याज वार</w>
याचि काकर</w>
याग ने</w>
याग तो</w>
या हं</w>
या सात</w>
या सक</w>
या या</w>
या मी</w>
या मस</w>
या पीठस</w>
या नी</w>
या नानां</w>
या धिः</w>
या धा
या ताः</w>
या तना</w>
या णाम</w>
या चे</w>
या को</w>
या करणं</w>
या कर</w>
या एं</w>
यस नी</w>
यवन -
यव हारे</w>
यव हरति</w>
यव ह
यव सितम</w>
यव नों</w>
यर ताः</w>
यय ने</w>
यमू क</w>
यमा नाय</w>
यमा णस</w>
यम य</w>
यम द</w>
यभि चार</w>
यद ले</w>
यज सि</w>
यज नम</w>
यकशि पु</w>
य- संस</w>
य ूर</w>
य हन</w>
य सू
य सङ</w>
य विद</w>
य वश</w>
य वन</w>
य वः</w>
य यस</w>
य मुक</w>
य मिदं</w>
य मत</w>
य भट</w>
य बन</w>
य फलं</w>
य पानं</w>
य पा
य ने</w>
य धर</w>
य दु</w>
य थ
य ते
य तनं</w>
य ची</w>
य कारी</w>
य काम</w>
य ंग
मौ सी</w>
मौ तें</w>
मौ क</w>
मो टे</w>
मैथु न
मै थि
मेघ माला</w>
में -
मे लितवान</w>
मे र
मे दारी</w>
मे द</w>
मृदु ः</w>
मृति भ</w>
मृ ष</w>
मूला दि</w>
मूढ ः</w>
मुस ल
मुस कान
मुनी नां</w>
मुनि भिर</w>
मुनि गण</w>
मुनि ं</w>
मुदि ताः</w>
मुख कमल</w>
मु सीबत</w>
मु पैति</w>
मु धा</w>
मु ट</w>
मी य</w>
मी पते</w>
मी नाक</w>
मी नः</w>
मी जी</w>
मी क</w>
मी ः</w>
मिषा रण</w>
मि षन</w>
मि दानीं</w>
मि दम</w>
मि कल</w>
मि ं
माल विका</w>
मारी च</w>
मार यति</w>
मार ते</w>
मार ती</w>
मान सम</w>
मान वः</w>
मातृ ष</w>
मातु ल
मांग लिक</w>
मांग ने</w>
माँग ने</w>
मा लाभ</w>
मा रभ
मा यया</w>
मा भि
मा ने
मा दृ
मा तुल</w>
मा णा
महिला यें</w>
महि षी</w>
महि षः</w>
महि ष</w>
महाभा ष</w>
महाभा गाः</w>
महाभा गः</w>
महाबा हो</w>
महा रानी</w>
महा भाग</w>
महा पा
महा ते
महा काल</w>
मह तां</w>
मसी पात</w>
मवि निग</w>
मलि नम</w>
मरी चिका</w>
मरणी यः</w>
मर ते</w>
मयू रा</w>
मनो हर
मनु भवन</w>
मनु ते</w>
मन रूपी</w>
मन नः</w>
मन ः
मधुरभा षी</w>
मधु रेण</w>
मधु प</w>
मतु लः</w>
मति मान</w>
मति पत</w>
मंगल मय</w>
मंगल कामनाएँ</w>
मं जिल</w>
म ैव</w>
म सु</w>
म समर</w>
म वती</w>
म ले
म लाई</w>
म ला
म रणानि</w>
म युद</w>
म भिः</w>
म पुत</w>
म प
म निरीक</w>
म दोन</w>
म दन</w>
म दः</w>
म णी</w>
म टर</w>
म गर</w>
म को</w>
म कान</w>
म कस</w>
म करा
म कर</w>
म कः</w>
भौं कते</w>
भोपा ले</w>
भोजना य</w>
भे तव</w>
भू षितः</w>
भू षणानि</w>
भू यो</w>
भू तानां</w>
भू चण
भू खण</w>
भुज ङ</w>
भु शु
भु जाएँ</w>
भी तर
भी जी</w>
भी क</w>
भी क
भि षक</w>
भि धानं</w>
भाषण े</w>
भाव ि</w>
भाव नात</w>
भारती यान</w>
भारती यः</w>
भारत देशे</w>
भार द</w>
भां जा</w>
भा सते</w>
भा षितम</w>
भा षमाणः</w>
भा षते</w>
भा वक</w>
भा ले</w>
भा रीपन</w>
भा भीजी</w>
भा नवे</w>
भा जनम</w>
भा ज</w>
भवि ता</w>
भव नस</w>
भव नम</w>
भर तस</w>
भयभी ताः</w>
भगि नी
भगवद ज</w>
भगत सिंह</w>
भ ों</w>
भ वान
भ वाः</w>
भ ली-
भ रो</w>
भ या
भ जे</w>
भ कर</w>
भ कः</w>
बड़ बड़ा</w>
बोल नी</w>
बो ली
बो लिए</w>
बो या</w>
बो म</w>
बैठ ोगे</w>
बैठ िए</w>
बैठ ती</w>
बै लों</w>
बे चते</w>
बृं हण</w>
बू फलानि</w>
बु लाते</w>
बु धः</w>
बी जा
बी जं</w>
बिता ना</w>
बि हार
बि भी
बि नेट</w>
बि टर</w>
बि च</w>
बि खे
बालिका यै</w>
बालि कानां</w>
बालि कां</w>
बाल के</w>
बाल कान</w>
बाबा गुरो
बाँ धती</w>
बा ग़</w>
बा स</w>
बा वड</w>
बा लाः</w>
बा धते</w>
बा जी</w>
बा ग
बा एँ</w>
बहू नां</w>
बहु श</w>
बहु विधानि</w>
बहु भिः</w>
बहु तों</w>
बहा ल</w>
बह े
बभू वुः</w>
बना एगा</w>
बद ना
बदना मी</w>
बता ने</w>
बता ई</w>
बता इए</w>
बई नगरे</w>
बं धु
ब लिष</w>
ब लस</w>
ब निये</w>
ब टु</w>
ब जे
ब जाय</w>
ब छ
ब चने</w>
ब को</w>
ब करा</w>
फै लाना</w>
फें कने</w>
फु टेज</w>
फी ट</w>
फला म</w>
फल के</w>
फँ स</w>
फ ेन</w>
फ ित</w>
फ ट</w>
पढ़ ने</w>
पढ़ ती</w>
पौ राणि
पौ धे</w>
पो षक</w>
पो ष</w>
पो पु
पो थी</w>
पो ंको</w>
पैतृ क</w>
पै थिक</w>
पे यम</w>
पे यं</w>
पे नाल</w>
पृ श</w>
पूज यित</w>
पूज यति</w>
पूछ ना</w>
पूछ कर</w>
पू रयन</w>
पू छा
पूछा -</w>
पुरू ष</w>
पुरुष ैः</w>
पुरा तन
पुन श</w>
पुन ः
पु नीत</w>
पु तली</w>
पु णे
पु टु
पुटु पल</w>
पु ट</w>
पु ट
पु जारी</w>
पीठि कायां</w>
पीछे -
पीछे- पीछे</w>
पी वे</w>
पी ये</w>
पी तवती</w>
पी तम</w>
पी ठ
पी टते</w>
पी .एस
पिबे त</w>
पिघ ल</w>
पि लाती</w>
पि तृ</w>
पि तानि</w>
पि ताः</w>
पि तवान</w>
पि तवन</w>
पि तवती</w>
पि कः</w>
पाहा रः</w>
पास ते</w>
पाल न-
पालन- पोषण</w>
पारितो षिक</w>
पाय सम</w>
पाय लट</w>
पाय यामि</w>
पाद पद</w>
पाणि ग</w>
पाठि तः</w>
पाक शाला
पाँच वें</w>
पा नीयम</w>
पा दोन</w>
पा तिव</w>
पा तः</w>
पा ट</w>
पा ङ</w>
पा कं</w>
पा एगा</w>
पा एँगे</w>
पहुं चकर</w>
पहि ये</w>
पसं दी
पसंदी दा</w>
परोप कार
परिवार जनाः</w>
परिच यः</w>
परि धान</w>
परि जन</w>
परा वृत</w>
परा ङ</w>
परमा णु
परम पुरुष</w>
पर सम</w>
पर या</w>
पर मिट</w>
पर ता</w>
पद वी</w>
पद कों</w>
पति यों</w>
पति ताः</w>
पति तवान</w>
पत यः</w>
पत ञ</w>
पठि तम</w>
पठ ेत</w>
पठ ने</w>
पठ नाय</w>
पठ तः</w>
पचा मि</w>
पका ते</w>
पका ती</w>
प सि</w>
प शून</w>
प रु
प मस</w>
प ध</w>
प दी
प णः</w>
प ढा
प टा
प टं</w>
प कने</w>
प कः</w>
नो म</w>
नै ष</w>
नै मिषारण</w>
नेह पूर</w>
ने हम</w>
ने हन</w>
ने वला</w>
ने र</w>
ने प</w>
ने ति</w>
नृ पा
नृ पं</w>
नू पुर</w>
नुरा गी</w>
नुरा गि
नु मतिपत</w>
नु ज</w>
नी लेशः</w>
नी रवस</w>
नी बू</w>
नी चो
नी चैः</w>
नी चा</w>
निषि द</w>
निवेद नम</w>
निवास स</w>
निर नुक</w>
निय मित</w>
निपा तेन</w>
निदा घ
निखि ल</w>
निक ष
निक ले</w>
निक ली</w>
निक टता</w>
नि सर</w>
नि षू
नि शुम</w>
नि शि</w>
नि ल</w>
नि रोधः</w>
नि रूप
नि रू
नि राम
नि योजयेत</w>
नि यल</w>
नि यत</w>
नि ना
नि तान</w>
नि ता</w>
नि तरां</w>
नि ट</w>
नि चले</w>
नि कृष</w>
नासा याः</w>
नामां कन</w>
नामा भिधानं</w>
नामधे यम</w>
नाम ों</w>
नाम से</w>
नाम करण</w>
नागरि कों</w>
ना सिक</w>
ना शः</w>
ना विक</w>
ना याः</w>
ना यं</w>
ना मन</w>
ना नक</w>
ना थः</w>
ना थं</w>
ना चना</w>
ना ं
ना -</w>
नव शिक</w>
नव वर</w>
नदी नां</w>
नती जे</w>
नग रेषु</w>
नग राणि</w>
न ह
न राणाम</w>
न यो</w>
न मय</w>
न भः</w>
न ब</w>
न पा
न नद</w>
न नंद</w>
न तिः</w>
न ट
न ज</w>
न ज
न गा
न कुल</w>
धो ऽपि</w>
धो खे
धोखे बाज</w>
धो खा</w>
धो ः</w>
धे रा</w>
धृ तिः</w>
धृ त
धु री</w>
धु भिः</w>
धु जन</w>
धीम ताम</w>
धी शः</w>
धी नि</w>
धिकारि भिः</w>
धि हीन</w>
धि से</w>
धि षणावृत</w>
धि यो</w>
धि ते</w>
धि ताय</w>
धि त
धि के</w>
धि कार</w>
धार यिष</w>
धा सु</w>
धा व</w>
धा मी</w>
धा भ</w>
धन से</w>
धन वानों</w>
धन राशि</w>
धन धान</w>
धन का</w>
धन क</w>
ध होरा</w>
ध रो
ध रात</w>
ध राः</w>
ध युक</w>
ध मन</w>
ध तया</w>
ध चन</w>
दौड़ ता</w>
दोष ो</w>
दो हरा
दो षी</w>
दो लने</w>
दो बारा</w>
दो द
दो ंके</w>
दो -
दैव तं</w>
दै वम</w>
दै निक</w>
देहि नाम</w>
देह ेन</w>
देह लीं</w>
देश ा</w>
देश में</w>
देश द</w>
देवा भ</w>
देवता ओंके</w>
देव शर</w>
देव नागर</w>
देख े
दे हस</w>
दे शाः</w>
दे वेभ</w>
दे वे
दे भ</w>
दृ शम</w>
दू रा
दुक ताड
दुःख से</w>
दु भि</w>
दु केन</w>
दु कं</w>
दु ओं</w>
दीपे शः</w>
दीपक कुमार</w>
दीख ते</w>
दी वाल</w>
दी या</w>
दी यमानं</w>
दी पस</w>
दी ना</w>
दि लाया</w>
दि राणां</w>
दि यों</w>
दि नात</w>
दि दं</w>
दि तव</w>
दि का</w>
दा सो
दा सी</w>
दा रः</w>
दा यिनी</w>
दा भ</w>
दा नाय</w>
दा ना</w>
दा दि
दा द</w>
दा खिल</w>
दना दि</w>
दन को</w>
द से</w>
द व</w>
द लेन</w>
द ले</w>
द लाः</w>
द लः</w>
द रद</w>
द यी</w>
द भ</w>
द पूर</w>
द धातु</w>
द ती</w>
द को
द कम</w>
थि रा</w>
थि रं</w>
थि नी</w>
थि तेः</w>
थि ते</w>
थि तियों</w>
थि तिम</w>
थाव रज
थान मा
थान के</w>
थान कं</w>
था ल</w>
था र</w>
था नीयं</w>
था नी
था नात</w>
थग यति</w>
थ ौ</w>
थ वर</w>
थ को</w>
थ की</w>
थ काम
तो र</w>
तै श</w>
तेलु गु</w>
तेल मालिश</w>
तेजो मय</w>
ते रह</w>
ते त</w>
ते जित</w>
ते जः</w>
तृ णम</w>
तू फान</w>
तुका मा</w>
तु षा
तु ला</w>
तु ङ</w>
ती रम</w>
ती फा</w>
ती खे</w>
ती -
तिल कः</w>
ति वाचन</w>
ति वर</w>
ति युक</w>
ति यां</w>
ति में</w>
ति नि</w>
ति न
ति तं</w>
ति गत</w>
ति के
ताव ना</w>
ताप मान
तादृ शः</w>
ताड यिष</w>
ता ले</w>
ता ली</w>
ता लिका</w>
ता ला</w>
ता लं</w>
ता रों</w>
ता मात</w>
ता मस</w>
ता पत</w>
ता ने</w>
ता द</w>
ता तः</w>
ता त
ता ई</w>
तवि कता</w>
तल ज</w>
तरी कों</w>
तराज ू</w>
तर भारते</w>
तर कस</w>
तमा ल
तमा नं</w>
तम सो</w>
तम श</w>
तम क</w>
तप सः</w>
तप ती</w>
तना ग</w>
तन ु</w>
तकौ मुदी</w>
तको षे</w>
तके षु</w>
तं भ</w>
त ड़ा
त से</w>
त विंशतिः</w>
त रेषु</w>
त रीय
त राज</w>
त रणम</w>
त योर</w>
त मु
त नोति</w>
त नू
त नाः</w>
त दु
त टी
त टा
त टस</w>
त चित</w>
त ग</w>
त काः</w>
णो त</w>
णु ने</w>
णु के</w>
णी यानि</w>
णा श</w>
णा मि</w>
णा पि</w>
णा क</w>
ण ूर</w>
ण मय</w>
ण भक</w>
ण ति</w>
ण का
ढी ला</w>
ढ के</w>
डो लर</w>
डॉ लर</w>
डे य
डू बी</w>
डी व</w>
डि वी
डि ले</w>
डि न</w>
डि तो</w>
डि ताः</w>
डाॅ श</w>
डा ली</w>
डा लकर</w>
डा क
डल मण</w>
ड वों</w>
ड ली</w>
ड लि
ठु र</w>
ठा वान</w>
ठा नं</w>
ठा न
ठहर ते</w>
ठह रता</w>
ठ ेत</w>
ठ हरा</w>
टो क</w>
टेली फोन</w>
टे शनों</w>
टे ण</w>
टी वी</w>
टी मीटर</w>
टी का
टि से</w>
टि कर</w>
टा लिका
टा यां</w>
टा ब</w>
टा पूर</w>
टा इ
टम कक</w>
ट ौ
ट ित</w>
ट तया</w>
ञानि यों</w>
ञान यज</w>
ञा पितम</w>
ञा ना
ञा ति
ञा तवान</w>
ञा चक</w>
ञ क</w>
झू ठा</w>
झा वा
झ ं
जो सेफ</w>
जै से
जु हू</w>
जी तकर</w>
जिस -
जि या</w>
जि तनी</w>
जि जीवि
जि का</w>
जि क</w>
जाये गें</w>
जाय ँ</w>
जानकी जी</w>
जान नेवाले</w>
जान की</w>
जाग ो</w>
जा लम</w>
जा मुन</w>
जा नेसे</w>
जा नु
जा ऊँगी</w>
जवनि का</w>
जला राम</w>
जला ती</w>
जल मपि</w>
जल ना</w>
जल ती</w>
जल कर</w>
जरू री</w>
जय पालः</w>
जय पाल</w>
जय दीप</w>
जनो ंकी</w>
जननी भ</w>
जन ै</w>
जन संसर</w>
जन प</w>
जन नं</w>
जग दिदं</w>
ज ॉर</w>
ज ॉ
ज हरी
ज लीय</w>
ज रे</w>
ज यिनी</w>
ज यते</w>
ज मी
ज पति</w>
ज तः</w>
ज के</w>
ज ँ
छो ड़</w>
छो टे-
छो टा-
छे दः</w>
छू ट</w>
छु आ</w>
छि लका</w>
छि पाता</w>
छि नत</w>
छा ता</w>
छा छ</w>
छल नध</w>
छ प</w>
छ थ</w>
चौ दह
चै नं</w>
चेताव नी</w>
चे म</w>
चे तस</w>
चू ड</w>
चु नना</w>
चु नकर</w>
ची न-
ची ं
चिरका ल</w>
चिं तन</w>
चि राय</w>
चि रम</w>
चि यों</w>
चि द
चि ते</w>
चि ताः</w>
चि ट</w>
चि ज</w>
चि च</w>
चि कना</w>
चि कः</w>
चि ंग</w>
चाहि यें</w>
चाल कस</w>
चार यति</w>
चां दी</w>
चा श</w>
चा व</w>
चा लितवान</w>
चा रा</w>
चा रं</w>
चा भि
चा ब</w>
चा कू</w>
चा क
चा ंटी</w>
चष केन</w>
चला वः</w>
चल तु</w>
चल त</w>
चरा च
च शिखरसम</w>
च लिए</w>
च रितम</w>
च येत</w>
च दश
च -
घो षयन</w>
घो र
घृ ष</w>
घु ष</w>
घु ड</w>
घु ँ
घुँ घरा
घुँघरा ले</w>
घाट य</w>
घाट नम</w>
घाट नकार</w>
घा वों</w>
घा यु</w>
घा ं</w>
घटना ओं</w>
घट नाः</w>
घ ी
घ मने</w>
घ प</w>
घ ने</w>
घ नी</w>
घ ं</w>
गौर वस</w>
गौर वम</w>
गौ रैया</w>
गोला कार</w>
गोदा वरी</w>
गो शाला</w>
गो शाला
गो वर</w>
गो मूत</w>
गो बर</w>
गो कुल
गै सा</w>
गे हूं</w>
गृही तवान</w>
गृहा ङ</w>
गृहमा गत</w>
गृह तः</w>
गू लर</w>
गू ं
गुरु पूर</w>
गुरु नानक</w>
गुरु देवको</w>
गुरु त</w>
गुरु णा</w>
गुरु कुल
गुण ो</w>
गुण ैः</w>
गुण ज</w>
गुण कारी</w>
गुजरा तस</w>
गुंजा यमान</w>
गु ली</w>
गु फा
गी ली</w>
गी यते</w>
गी ध</w>
गी ठी</w>
गी कारः</w>
गि रि</w>
गि राया</w>
गि रा
गां ठ</w>
गाँ वों</w>
गाँ धी</w>
गा सा
गा श</w>
गा मिनी</w>
गा ए</w>
गल ती</w>
गरी बी</w>
गरज ते</w>
गमन समये</w>
गम नाग
गणि तं</w>
गण यत</w>
गंगा जी</w>
ग वी</w>
ग वः</w>
ग लोक</w>
ग ले
ग लू
ग रेट</w>
ग रे</w>
ग रवः</w>
ग भी
ग जाः</w>
खे लों</w>
खे लिष</w>
खु श
खीं चना</w>
खी ंच</w>
खि ं
खा लिस</w>
खा दत</w>
खा ज</w>
खा ंसी</w>
खा ँ
खरीद कर</w>
खरी दिये</w>
ख ड़े</w>
ख ड़ा</w>
ख लि
ख रः</w>
ख नि
ख तरे</w>
ख गानां</w>
कौ तुक</w>
कोऽ प</w>
कोल का
कोम लता</w>
को शा
को पि</w>
को ने</w>
को दर
को टिः</w>
को चः</w>
को ख</w>
कॉ म</w>
कैं सर</w>
कै बिनेट</w>
केश वः</w>
के सरी</w>
के शः</w>
के लि
के मिकल</w>
के तन</w>
के चिद</w>
के के
कृश ता</w>
कृति क
कृत- प</w>
कृत विद</w>
कृत मेव</w>
कृत पुस</w>
कृत दिनम</w>
कृ ष
कृ ती</w>
कृ तिर</w>
कृ तात</w>
कृ तक</w>
कू पे</w>
कू पः</w>
कू प</w>
कू टाक</w>
कुसु मा
कुसु मम</w>
कुश ल
कुरूप ता</w>
कुरु थ</w>
कुटि लता</w>
कुटि ल</w>
कु लक</w>
कु रियाक</w>
कु पुत</w>
की दृश</w>
की ट
किसी को</w>
किस ल
किशो र
किरी ट</w>
किरण ें</w>
कि से</w>
कि मे
कि मिति</w>
कि मध</w>
कि नके</w>
कि तानि</w>
कि ता
कि तम</w>
काशी विश</w>
कारा गा
कार यानं</w>
कार य</w>
काम ो</w>
काम वासना</w>
कान डा
कां टे</w>
काँ टे</w>
काँ टा</w>
का शः</w>
का राष</w>
का रार</w>
का मी</w>
का बू</w>
का नि
का द</w>
का टा</w>
का टती</w>
का टकर</w>
का ंति</w>
का -
कवि यों</w>
कला म</w>
कला ओं</w>
कल ौ</w>
करो म</w>
करू ं</w>
करु णा</w>
करु ण</w>
करने में</w>
करने की</w>
कर प</w>
कर णानि</w>
कमा ंडर</w>
कमल लोचन</w>
कमल को</w>
कम ले</w>
कपि ल</w>
कपि ल
कथा वस</w>
कथा म</w>
कठि ना
कठि नता</w>
कठ ो
क हूँ</w>
क शा</w>
क शः</w>
क वच
क व</w>
क ली</w>
क मेव</w>
क पी
क नी</w>
क तं</w>
क णम</w>
क ंद</w>
क ंगन</w>
औष धा
औरंग जेब</w>
औ द</w>
ओ मिक</w>
ऐति हासिक</w>
ऐति हासि
ऐ स</w>
एम वी</w>
एतादृ शं</w>
एका दश
एका क</w>
एक साथ</w>
एक विंशतिः</w>
एं टी
ए वा
ए वं
ए रणाकुलं</w>
ए ति</w>
ए तदा
ए च
ए कल</w>
ऋषि ः</w>
ऋ तौ</w>
ऋ तुः</w>
ऋ णम</w>
ऊं चे</w>
ऊं चा</w>
ऊँ ची</w>
ऊ पर
ऊ नी</w>
उभ योः</w>
उपै ति</w>
उपा ख</w>
उपविशा मः</w>
उपधा ने</w>
उपकरण ों</w>
उप हार</w>
उप हसन</w>
उप वेक</w>
उप वे
उप रिष</w>
उप योगः</w>
उप योगं</w>
उप मुख</w>
उप निर</w>
उप नय
उप धानम</w>
उप चुनाव</w>
उद य
उतर ना</w>
उतर कर</w>
उठा ते</w>
उठ ना</w>
उंग ली</w>
उ री</w>
उ भे</w>
उ बाल
उ बटन</w>
उ ध</w>
उ देति</w>
उ दास</w>
उ तार</w>
उ तार
उ ठे</w>
उ ठी</w>
ई मान
ई ए</w>
ई .</w>
इला यची</w>
इला ज</w>
इम रान</w>
इदानी ं
इदं प</w>
इति वृत</w>
इं दौर</w>
इ ह
इ शा
इ रा
इ मानि</w>
इ तर</w>
इ तर
इ का
आहू तवन</w>
आहु तिं</w>
आहि र</w>
आसा नी</w>
आस नम</w>
आवेद नपत</w>
आलिम चन</w>
आयो जिता</w>
आप णि
आप णः</w>
आधा रः</w>
आतुराल ये</w>
आतप े</w>
आत ता
आत ङ</w>
आगम नम</w>
आं ध</w>
आं खों</w>
आं खें</w>
आ शय</w>
आ शं
आ वेश</w>
आ विर</w>
आ ला
आ रूढ</w>
आ रूढ
आ यात</w>
आ यव</w>
आ य</w>
आ मा
आ मल
आ म
आ भारतं</w>
आ भ
आ बा
आ देशं</w>
आ दान
आ दत</w>
आ चारः</w>
आ चार
आ कार
आ इस
अह ृष</w>
अह ा</w>
अव ोचत</w>
अव सरः</w>
अव सन</w>
अव शो
अव लम</w>
अव रोध
अव यव</w>
अव धी
अव दम</w>
अव गा
अव गन</w>
अल -
अरुणा चलप</w>
अरु न</w>
अमृ तके</w>
अमु ना</w>
अभि षिक</w>
अभि वाद</w>
अभि राम</w>
अभि मानी</w>
अभि मान
अभि भूत</w>
अप ी
अप हृ
अप स</w>
अप व</w>
अप राह</w>
अने कान</w>
अनुभू यते</w>
अनु यायि
अन ु</w>
अन वधानेन</w>
अन भ</w>
अन पत</w>
अन ंत
अधिकारि णः</w>
अधि पतिः</w>
अति स</w>
अति शैत</w>
अति शीघ</w>
अटा री</w>
अजी ज</w>
अगा डी</w>
अका उ
अंश ों</w>
अंश तया</w>
अंतर ंग</w>
अंड मान</w>
अंग ी
अं शु
अं जार</w>
अँ धेरा</w>
अँ गीठी</w>
अ हिंसक</w>
अ सीत</w>
अ सिद</w>
अ साधारण</w>
अ सह</w>
अ समय</w>
अ शास</w>
अ वेक</w>
अ लाप</w>
अ रविन</w>
अ यमेव</w>
अ य</w>
अ भवताम</w>
अ पार</w>
अ नी
अ धा
अ तस</w>
अ णिमा</w>
अ ठा
अ टन</w>
अ जल</w>
अ जः</w>
अ गणयत</w>
अ खादत</w>
अ खाद
अ कीर</w>
ंग ित</w>
ं सि
ं -
ँ ठ</w>
ँ -
s स</w>
s t
9 0</w>
5 1</w>
5 00</w>
4 1</w>
3 6</w>
3 3</w>
20 0</w>
2 वें</w>
2 2वें</w>
16 0</w>
1 7
.एस -
. ४</w>
. 30</w>
- वहाँ</w>
- त</w>
, ०००</w>
६ ७</w>
६ ६</w>
५ ९</w>
५ ००</w>
४ ५</w>
४ ४</w>
३ २</w>
२०१ ३</w>
१ ७
१ ३
१ २६</w>
ॠ षि</w>
फ़ ी</w>
ढ़ े</w>
ौ ड</w>
ौ ज</w>
ों वाला</w>
ो ऽस</w>
ो ल</w>
ो क</w>
े ऽपि</w>
े ष</w>
ू न</w>
ु त</w>
ी र</w>
ी न</w>
ि न</w>
ा द</w>
ा कू</w>
ा ः</w>
ा ं</w>
ऽ हम</w>
ऽ सि</w>
ऽ ष</w>
ऽ नन</w>
हो ऽ
हो लिका</w>
हो राग</w>
हो रा
हो दर</w>
हो ट</w>
हो ऊँगा</w>
हॉ की</w>
है रान</w>
है एस
हे तुं</w>
हे ण</w>
हु ओं</w>
हु आ
ही रो</w>
हिमा दासः</w>
हिम वन</w>
हित कामा
हित काम</w>
हिं सीः</w>
हि न
हि ण</w>
हि ंस</w>
हि ंद</w>
हा लांकि</w>
हा णि</w>
हवा महल</w>
हवा ओं</w>
हलु आ</w>
हल चल</w>
हरिया णा</w>
हरित गृह
हरितगृह वात
हरितगृहवात कानां</w>
हरि स</w>
हरि तवर</w>
हरि तः</w>
हरि कोटा</w>
हरि का</w>
हमे ं
हमें शा</w>
हम लोगों</w>
हंस दत</w>
हं सौ</w>
हं सी</w>
हं सः</w>
ह ृ</w>
ह सिष</w>
ह विषा</w>
ह व</w>
ह लाहल</w>
ह रेत</w>
ह रीन</w>
ह नू
ह न
ह तस</w>
ह ठात</w>
ह टी</w>
ह च
सौं पा</w>
सौ हार</w>
सोसाय टी</w>
सोम वासरः</w>
सोपा नं</w>
सोपा न
सोच ो</w>
सो ऽस</w>
सो मं</w>
सो चे</w>
सो चि
सो ई</w>
सो ंठ</w>
सैनि कैः</w>
सैंया वं</w>
सेवा याः</w>
सेवा एं</w>
सेव से</w>
सेव कानां</w>
सेव का</w>
सेव क
से षु</w>
से वैसे</w>
से वी</w>
से वन
से लु
से म</w>
से तुः</w>
से तु</w>
सृ जेत</w>
सृ जन</w>
सृ जत</w>
सूच ना
सू रज
सू जन</w>
सू चितं</w>
सुहृद ः</w>
सुशी ला</w>
सुविधा एं</w>
सुलभ ं</w>
सुरे खा</w>
सुमे रु</w>
सुभा षि
सुभा ष</w>
सुधि यः</w>
सुधा ं</w>
सुख- दुःख</w>
सुख मास</w>
सुंद रता</w>
सु शोभनं</w>
सु वि
सु रवर</w>
सु रभ
सु रखी</w>
सु रंग</w>
सु भ
सु बो
सु ब</w>
सु पारी</w>
सु पर</w>
सु दुर</w>
सु ता</w>
सु तं</w>
सु कोमल</w>
सु कर</w>
सु कता</w>
सु अर</w>
सीता म
सीता पते</w>
सी ढ़ी</w>
सी सा</w>
सी मन</w>
सी नः</w>
सी द</w>
सी टों</w>
सिं हास
सिं धी</w>
सिं गा
सि लान</w>
सि लसि
सि यों</w>
सि तं</w>
सि टी</w>
सि ग</w>
साह ेन</w>
सावर करः</w>
सार भूत</w>
सार गर</w>
सामाजिक संस</w>
साधु समा
साधु जन</w>
साधि तम</w>
साध वो</w>
साध येत</w>
साध यति</w>
साग रे</w>
साइ बे
साइ ड</w>
सां ताक</w>
सा ढ़े</w>
सा वन</w>
सा लयः</w>
सा ल
सा रूप</w>
सा रि
सा मू
सा मु
सा मी
सामी प</w>
सा फल</w>
सा पत</w>
सा नाम</w>
सा नां</w>
सा नन</w>
सा थी</w>
सा ठ</w>
सा खी</w>
सा कार</w>
सहो दरः</w>
सहो द
सहृ द
सहि ष</w>
सहाय कप</w>
सहा रन
सहा यिका</w>
सहा नु
सह वास</w>
सह रावत</w>
सह र</w>
सवि तः</w>
सवाहि री</w>
सवा री</w>
सरो वरः</w>
सरी सृ
सरा ओं</w>
सर लं</w>
समु पा
समु दी
समुदी षति</w>
समीची ना</w>
समी चीन</w>
समि तिः</w>
समारो हं</w>
समायो जि
समायो ज</w>
समाप यामि</w>
समाज सेविका</w>
समाज सेवा</w>
समाचा रान</w>
समाचा रम</w>
समा सेन</w>
समा विष</w>
समा म</w>
समा धाय</w>
समा जः</w>
समा गम</w>
समय- समय</w>
सम वे
सम लङ</w>
सम म</w>
सम बुद</w>
सम ज
सभा सद</w>
सभा याम</w>
सभा मध</w>
सब ी
सना दिक</w>
सना तनः</w>
सना तन
सदा चारः</w>
सती ष</w>
सता ए</w>
सजल नेत</w>
सच मुच</w>
सका शात</w>
सका शा
सक ला
संहा रक</w>
संसा रसे</w>
संसा रस</w>
संसा र-
संश यम</w>
संवाद दाता</w>
संय मित</w>
संय मः</w>
संगी त-
संकु चित</w>
संकट ों</w>
सं हरते</w>
सं सूचितम</w>
सं सक</w>
सं ल
संल पन</w>
सं योग
सं यु
सं यम
सं यन</w>
सं भ</w>
सं पादन</w>
सं निहित</w>
सं धियों</w>
सं धानम</w>
सं धान
सं दिग</w>
सं तों</w>
सं तराम</w>
सं चित</w>
सं गम
सं गत</w>
स हितः</w>
स सि</w>
स शस</w>
स वो</w>
स वाल</w>
स वं</w>
स राणि</w>
स रम
स परि
स नै
स दी</w>
स दास</w>
स दः</w>
स तीर</w>
स ठ</w>
स जी</w>
स जी
स जा
स घोष
सघोष प</w>
स गे</w>
स ग
स ँ
षो त</w>
षे पित</w>
षे पं</w>
षु र</w>
षु धा
षु ओं</w>
षी रका
षीरका को
षी रं</w>
षी त</w>
षिणा यन</w>
षिण ो</w>
षिण ध</w>
षिका यें</w>
षि भिः</w>
षि ते</w>
षि तुम</w>
षि तव</w>
षि णाम</w>
षि के</w>
षाल यतु</w>
षाल नयन</w>
षाल नम</w>
षा ऽ
षा सन</w>
षा स</w>
षा लितवान</w>
षा लित</w>
षा य
षा मंत</w>
षा म
षा फलम</w>
षा फलं</w>
षा पि</w>
षा नु
षा नी
षा नन</w>
षा ध</w>
षा काले</w>
षा कार</w>
षणे नैव</w>
षणा न</w>
षण वर</w>
षण ल</w>
षण भङ</w>
षण प</w>
षण च</w>
षण -
ष श</w>
ष व</w>
ष रों</w>
ष रन</w>
ष रक</w>
ष यो</w>
ष येत</w>
ष यितुं</w>
ष यानन</w>
ष पा
ष पर</w>
ष पद
ष ती</w>
ष गढ</w>
ष काल
ष कप</w>
ष -</w>
शौ नक</w>
शौ च</w>
शोभ नः</w>
शोभ ता</w>
शोध कार</w>
शोणि त
शो ऽ
शो ः</w>
शै थि
शैथि ल</w>
शै ख</w>
शे षा</w>
शे ख</w>
शृगा लस</w>
शू रवी
शू टिंग</w>
शुभ े</w>
शुन कः</w>
शु कः</w>
शीशांस ित</w>
शीशांस ति</w>
शील त</w>
शीत लेन</w>
शीत लम</w>
शीत काले</w>
शी लम</w>
शी य</w>
शी ति</w>
शी तं</w>
शिशु म</w>
शिशु ओं</w>
शिव के</w>
शिव कुमारः</w>
शिरो मणि</w>
शि शोः</w>
शि वन</w>
शि वन
शिवन कुट</w>
शि रास</w>
शि तं</w>
शास नस</w>
शास कः</w>
शाव काः</w>
शारी रक</w>
शाखा ओं</w>
शा सि</w>
शा वास</w>
शा टिका
शाटिका तः</w>
शा ंक</w>
शह नाई</w>
शरी रेण</w>
शरी रके</w>
शरी रकी</w>
शरणा र</w>
शपथ वाचनं</w>
शन ै</w>
शता धि
शत धा</w>
शक टं</w>
शं कित</w>
श ैव</w>
श हा
श ष</w>
श शी</w>
श शि
श शांक</w>
श शां
श शः</w>
श ल
श रोग</w>
श येन</w>
श यानम</w>
श मः</w>
श ब
श फ
श निः</w>
श नि</w>
श ती</w>
श तकं</w>
श कु
श -संस</w>
श -
वो ल</w>
वो र</w>
वो परि</w>
वैराणु बाधया</w>
वैभव शाली</w>
वैदे ही
वै सेवैसे</w>
वै शाली</w>
वै री</w>
वै रि
वै राण
वेष से</w>
वेदा ध</w>
वेदा दि</w>
वेदा ः</w>
वे हि</w>
वे ह</w>
वे शि
वे ला
वे प
वे दा</w>
वे तौ</w>
वे टर</w>
वे जनाः</w>
वृष भ</w>
वृ हत</w>
वीर पुर</w>
वीर गतिं</w>
वीर गति</w>
वी रसा
वी रस
वी तरा
वी जा</w>
वी को</w>
वी के</w>
वी करणीयम</w>
वी करणं</w>
विहा रम</w>
विहा य
विह रन</w>
विह ङ</w>
विषै ले</w>
विषा दः</w>
विष यमें</w>
विष यक
विष ः</w>
विशेष ो</w>
विशेष रूप</w>
विशे षेण</w>
विशा लां</w>
विवे कानन</w>
विविधा न</w>
विविधा ः</w>
विविध ैः</w>
विल पन</w>
विरे चन</w>
विर ले</w>
विमाननिल ये</w>
विमान पत</w>
विभी षिका</w>
विभा गों</w>
विपि नं</w>
विप दि</w>
विना यक</w>
विन यम</w>
विन ता
विनता नना</w>
विधे यकं</w>
विधि निर</w>
विधानसभा मण</w>
विधा यक</w>
विधा तुं</w>
विधा त</w>
विधा ं</w>
विदेशी याः</w>
विदु षां</w>
वितीय दिनाङ</w>
विती यां</w>
विता नम</w>
वित रन</w>
विजे ताओं</w>
विजया दशमी</w>
विजय वाड</w>
विजय कृष</w>
विचार ते</w>
विचा राः</w>
विच चार</w>
विका सं</w>
वि सप</w>
वि शतं</w>
वि वरं</w>
वि रू
विरू पाक</w>
वि रजानन</w>
वि योगः</w>
वि योग
वि युक</w>
वि याँ</w>
वि यत
वियत नाम</w>
वि मो
वि मूढ
वि भूत
वि भु
वि बु
वि फलता</w>
वि पाक</w>
वि पन</w>
वि धर</w>
वि दः</w>
वि तुं</w>
वि तानि</w>
वि ट</w>
वि जन</w>
वि चलन</w>
वि गुणः</w>
वि गत
वि ग
वि केट</w>
वि की</w>
वि काः</w>
वासु देव</w>
वास ु</w>
वास सम</w>
वास प</w>
वाल यिष</w>
वार का</w>
वायु सेना</w>
वायु श</w>
वायु का</w>
वायना डस</w>
वाय ूर</w>
वाय सः</w>
वामि शिवकुमारः</w>
वान राः</w>
वादि नः</w>
वादश वादने</w>
वाद यन</w>
वाद म</w>
वातानुकू लि
वातानुकूलि ते</w>
वाणी के</w>
वाच नम</w>
वा ऽस</w>
वा हि
वा वलम</w>
वा वधा
वावधा ने</w>
वा रस</w>
वा रं
वा यां</w>
वा महस</w>
वा नो</w>
वा ने</w>
वा नस</w>
वा नः</w>
वा धिक</w>
वा दु
वा तात</w>
वा तपित</w>
वा ट</w>
वा चो
वा चक</w>
वसु रः</w>
वसि मि</w>
वस सि</w>
वशु र</w>
वशी करण</w>
वल ति</w>
वरु णः</w>
वरु ण
वरि तम</w>
वयो निवर</w>
वयं भू</w>
वय नाट</w>
वम ति
वभू तानि</w>
वने श</w>
वने चर</w>
वनि वर</w>
वन प</w>
वन ज</w>
वदे हि
वतो परि</w>
वती -</w>
वज ं</w>
वचा में</w>
वच नानि</w>
वच नात</w>
वकी ये</w>
वकी य
वका रीय
वंशी ध</w>
वं शः</w>
वं दे</w>
वं तो</w>
व सेत</w>
व ष</w>
व शं</w>
व वृत</w>
व विभागस</w>
व रूपेण</w>
व मस</w>
व पन</w>
व नी
व नाथ
व नात</w>
व धार</w>
व धा</w>
व देश</w>
व दी
व दि
व दर</w>
व थ</w>
व ताः</w>
व णि
व जे
व जाः</w>
व चतुर</w>
व ख</w>
व के</w>
व -</w>
लौटा ने</w>
लौकि क
लौ हस</w>
लौ टना</w>
लोभ ेन</w>
लोक सेवा</w>
लोक वृत</w>
लोक यानेन</w>
लोक यात</w>
लोक पाल</w>
लोक पा
लोक गानं</w>
लो भात</w>
लो भः</w>
लो ना
लो ट</w>
लो केषु</w>
लो ंके</w>
लॉ जी</w>
लै ग</w>
लै ं
लेप करे</w>
लेखि तुं</w>
लेख नीय</w>
लेख नीं</w>
लेख नस</w>
लेख नम</w>
ले ह</w>
ले शं</w>
ले पः</w>
ले नी</w>
ले के</w>
लू ला</w>
लुटे रा</w>
लु रु</w>
लु नाति</w>
ली यते</w>
ली फ</w>
ली नाम</w>
ली जिए</w>
ली के</w>
लिका प</w>
लि य
लि प
लापर वाही</w>
लाप ैः</w>
लाइ ंस</w>
लाँ घ</w>
ला लि
ला यी</w>
ला याः</w>
ला भे</w>
ला भं</w>
ला खों</w>
लह रें</w>
ललि त
लभ म</w>
लभ तां</w>
लभ ं</w>
लता सु</w>
लता पूर</w>
लता के</w>
लघु पात</w>
लगा ई</w>
लं बाई</w>
ल ु</w>
ल यन</w>
ल य
ल भे
ल पे
ल पुष</w>
ल थ
ल ड
ल टका</w>
ल जि</w>
ल घू
ल कम</w>
रौढ मनोरमा</w>
रौढ मनोरमा
रौ क</w>
रोह णम</w>
रोफे सर
रोप यन</w>
रोधा दि</w>
रो हति</w>
रो येष</w>
रो धस</w>
रो दने</w>
रो णी</w>
रो णा
रो ट</w>
रो जर</w>
रो च
रो गी
रो खे</w>
रो के</w>
रो क
रो -
रै ने</w>
रेष यतु</w>
रेल याने</w>
रेम वश</w>
रेम लता</w>
रेणा पि</w>
रे षय</w>
रे शन</w>
रे रक</w>
रे र</w>
रे या</w>
रे यस</w>
रे मियों</w>
रे नस</w>
रे डि
रृं गा
रूप म
रूपम धिकं</w>
रूप धारी</w>
रूप ः</w>
रू रता</w>
रू त</w>
रू ठ</w>
रू चि</w>
रू खे</w>
रू ँगा</w>
रुप ए</w>
रुचि करं</w>
रु- तुल</w>
रु वीय</w>
रु माल</w>
रु नेल</w>
रु तौ</w>
रु तिः</w>
रु किये</w>
रु कता</w>
रु ं</w>
रीहरि कोटा</w>
रीराम हृदयं</w>
रीणी ते</w>
रीणी तः</w>
रीडा स</w>
रीडा मि</w>
रीडा मः</w>
रीडा परम</w>
रीडा ं</w>
रीडन कानि</w>
रीडन कम</w>
रीड ित</w>
रीड नम</w>
रीड नकं</w>
रीड कः</w>
री सीताजी</w>
री स</w>
री व
री यस</w>
री यते</w>
री यः</w>
री मत</w>
री भ</w>
री बी</w>
री नहा
रीनहा उस</w>
री नगर</w>
री ता</w>
री ज</w>
रिलो की</w>
रिया शील</w>
रियं वदे</w>
रिय तम</w>
रिय ग</w>
रिका चाल
रि संवत</w>
रि वा
रि रूपेण</w>
रि रङ</w>
रि योंको</w>
रि मबुद</w>
रि मण</w>
रि पु
रि पाठि
रि प</w>
रि तों</w>
रि तवती</w>
रि णा
रि गुण
रि के</w>
रि ए</w>
राहि का</w>
राह ु</w>
राह ट</w>
राह काः</w>
राव यतु</w>
राव यति</w>
राल यः</w>
राय ली</w>
रामे षु</w>
रामे ति</w>
रामा भ</w>
राम ोऽ
राम यामि</w>
राम मन</w>
राम भद</w>
राम प</w>
राम नाम</w>
राम तः</w>
राधि करण</w>
राधा बाई</w>
राणि योंको</w>
राणि नां</w>
राणि न</w>
राणा यामं</w>
राणा प</w>
राणा त</w>
राणा ः</w>
राजीव लोचनः</w>
राजीव लोचन</w>
राजा नं</w>
राजा को</w>
राजा के</w>
राज भवने</w>
राज भवन</w>
राज नीतिज</w>
राज कोट</w>
राज के</w>
राची नं</w>
राघ वं</w>
राके शः</w>
रा ऽऽ
रा हित</w>
रा हि</w>
रा हा
रा सिष</w>
रा सम</w>
रा सनादिक</w>
रा वी</w>
रा वासे</w>
रा वर</w>
रा वः</w>
रा योप
रा मि
रा मान</w>
रा मा</w>
रा भा
रा ब
राब जी</w>
रा पं
रा ने</w>
रा नंद</w>
रा न
रा देशि
रा तुः</w>
रा तरा
रा त-
रात- दिन</w>
रा ड</w>
रा गे
रा गं</w>
रा ऊ</w>
रा ंस
रहा लय</w>
रहा रेण</w>
रह ेषु</w>
रह नेवाली</w>
रह णम</w>
रसो ई
रसोई घर</w>
रसो इ
रसोइ या</w>
रसू ते</w>
रसा राय</w>
रसा यनं</w>
रसा धन
रसा ं</w>
रस वा</w>
रस व</w>
रस रति</w>
रशास निक</w>
रशास नं</w>
रवी भूत</w>
रवी द</w>
रवि शामि</w>
रवि वेश</w>
रवि म</w>
रवाह यन</w>
रवा हः</w>
रव ो</w>
रव णम</w>
रव चनम</w>
रयोजन मेव</w>
रयोज नं</w>
रयोग ेषु</w>
रयो दशी</w>
रया नेन</w>
रया नम</w>
रया ति</w>
रमो द</w>
रमे य</w>
रमुख ः</w>
रमु खा</w>
रमा मि</w>
रमा बाई</w>
रमा ङ</w>
रमा गच</w>
रमा के</w>
रमा कान</w>
रमण पथ
रम ौ
रम ूर</w>
रम श</w>
रम दितव</w>
रम णेन</w>
रभृ तय</w>
रभा त
रभ म</w>
रभ ङ</w>
रबा री</w>
रबा की</w>
रपा तः</w>
रपति भवने</w>
रप तेः</w>
रधा ना</w>
रधा नः</w>
रदू षित</w>
रदी यताम</w>
रद ने</w>
रथम कक</w>
रथ ों</w>
रथ स</w>
रथ मा
रतियोगिता एं</w>
रतिनि धि
रति शत</w>
रति वदेत</w>
रति वचनम</w>
रति रोद</w>
रति भा
रति पन</w>
रति ग</w>
रता याः</w>
रता प
रत टे</w>
रणि ताश</w>
रणि तः</w>
रण ष</w>
रण मन</w>
रजो गुण</w>
रज ौ</w>
रज े
रज स</w>
रज तं</w>
रचि तवान</w>
रचा रकार</w>
रच यिता</w>
रच ंड</w>
रख नेवाले</w>
रकाशि ता</w>
रकाश े</w>
रकाश यति</w>
रकाश ते</w>
रका री</w>
रं बार</w>
र- शिक</w>
र- निर</w>
र- तत</w>
र सिक</w>
र संग</w>
र संग
र शा
र वासरः</w>
र वा</w>
र वती</w>
र लाप</w>
र रूपेण</w>
र रूपी</w>
र ये</w>
र यु
र यात</w>
र याग</w>
र याः</w>
र मुद</w>
र मुत</w>
र मिष</w>
र भवन</w>
र भवत</w>
र भव
र बो
र पो
र पूतं</w>
र पात</w>
र परि
र पद
र दास</w>
र दम</w>
र थां</w>
र जो</w>
र जीके</w>
र चिन</w>
र घो
र गान</w>
र खि
र कूट</w>
र करण
र ंस</w>
योऽ र</w>
योऽ न</w>
योपा सनं</w>
योपा सन</w>
योतिष शास</w>
योति षी</w>
योजना याः</w>
योज यन</w>
योज नं</w>
योगी श</w>
योगि क</w>
योग सनं</w>
योग माया</w>
योग म</w>
योग पति</w>
योग क</w>
योग -
यो श</w>
यो रन</w>
यो म
यो दयः</w>
यो तक</w>
यो जन
यो गाय</w>
यो ंद</w>
यै श</w>
यै क
ये शु
ये वा
ये यवाक</w>
ये म</w>
ये नैव</w>
ये तव</w>
ये तद</w>
ये कस</w>
यूजी लैंड</w>
यू सिलान</w>
यू निवर</w>
यू ना</w>
यू नता</w>
यू नः</w>
यू ताः</w>
यू टी</w>
यू के</w>
युव योः</w>
युव तियों</w>
युव तयः</w>
युग लं</w>
युग में</w>
युग प
युगप देव</w>
यु षितम</w>
यु ल</w>
यु रिति</w>
यु पका
यु प</w>
यु ना</w>
यु दी
यु दये</w>
यु दय</w>
यु द
यु तस</w>
यु च
यी य</w>
यी य
यि तु
यावसा यिक</w>
याव रणं</w>
यालय छात</w>
यायाल येन</w>
यापा रियों</w>
याप नस</w>
याप काः</w>
याप क-
यानपे टिका</w>
यान समये</w>
यान सत</w>
यान चंद</w>
याधि तस</w>
याधि कारि
याधि क
यादि भिः</w>
याद व</w>
याद पि</w>
याता यात</w>
याण मय</w>
याण प</w>
याचि का
याच कः</w>
यां सि</w>
यां कन</w>
या सो</w>
या सान</w>
या सस</w>
या सन</w>
या ष</w>
या शु</w>
या विही
या वश</w>
या वच</w>
या ला</w>
या याम
या यति</w>
या मु
या मि
या मल</w>
या मन</w>
या पुरी</w>
या पीठ</w>
या नेषु</w>
या धिष</w>
या तृ</w>
या तिथिः</w>
या णा
या चन</w>
या गतवान</w>
या कं</w>
या ऊँ</w>
या ंत</w>
यहा ंसे</w>
यशो गान</w>
यश ो</w>
यवहा रेण</w>
यवहा रं</w>
यवसायि नाम</w>
यय पत</w>
यय नाय</w>
यमे वं</w>
यमे तत</w>
यमा सीत</w>
यमा णे</w>
यमा णा</w>
यमा णम</w>
यमा णं</w>
यमा ः</w>
यम होद
यम शील</w>
यम नस</w>
यप देशः</w>
यप थः</w>
यन शिप</w>
यदा -
यदा- कदा</w>
यथो क</w>
यथे च</w>
यथा कथञ</w>
यती तानि</w>
यट नस</w>
यजीवि वैज</w>
यजी वाः</w>
यज तु</w>
यज तः</w>
य हो</w>
य हा</w>
य समस</w>
य संस</w>
य संज</w>
य शै
य शालायाः</w>
य विषये</w>
य वि
य रच
य योग</w>
य यो
य युः</w>
य या
य यम</w>
य मे</w>
य मिक</w>
य भार</w>
य भाग</w>
य भ</w>
य ब</w>
य पान</w>
य पराक</w>
य धा
य दी
य दि
य दपि</w>
य ती</w>
य ताः</w>
य तंत</w>
य ट</w>
य जस</w>
य चिन</w>
य गृहे</w>
य गृह</w>
य कृत</w>
मौजू दा</w>
मौ नमेव</w>
मौ नं</w>
मोद कम</w>
मो ऽपि</w>
मो हम
मो स</w>
मो दिना</w>
मो दि
मो दर</w>
मो त</w>
मो ंमें</w>
मॉ डल</w>
मै क</w>
मेऽ द</w>
मेलि तुम</w>
में एस
मे सी</w>
मे षु</w>
मे षः</w>
मे लाप
मे ध
मे त</w>
मे ढक</w>
मे ढ</w>
मे डि
मेडि कल</w>
मे ज
मे खला</w>
मृग तृष</w>
मृ ता
मृ तक</w>
मू द</w>
मू ंग
मू ँछ</w>
मू ँग</w>
मुलह ठी</w>
मुनि भिः</w>
मुनि ना</w>
मुनि जनों</w>
मुझ पर</w>
मुख ेन</w>
मुख से</w>
मु हाई</w>
मु ल</w>
मु निर</w>
मु ड</w>
मी रबाकी</w>
मी ठी
मी को</w>
मी -
मिलि तवती</w>
मिल ूँगा</w>
मिथि ला
मिठा स</w>
मि ते</w>
मि ती
मि ति
मि णः</w>
माला कारः</w>
माल वाहक</w>
मार यित</w>
मार यतु</w>
मार ब</w>
माप यन</w>
मान से</w>
मान साः</w>
मान सरोवरं</w>
मान व-
मान म
मान द</w>
माध वोद</w>
मातृ स</w>
मातु लानि</w>
माता पिता</w>
मात ङ</w>
माण प</w>
माण कार</w>
माण -
मांस की</w>
मांग ता</w>
मां सि</w>
मां सक</w>
माँग ते</w>
मा ऽ
मा सी
मा सि
मा सरस</w>
मा स-
मा ष
मा लोक</w>
मा भि</w>
मा पने</w>
मा पन</w>
मा नेन</w>
मा नीय</w>
मा नाः</w>
मा तृ</w>
मा तुं</w>
मा णे</w>
मा ख</w>
मा के</w>
मा कृष</w>
मा का</w>
मा ंड</w>
महे ंद</w>
मही न</w>
महाभा गया</w>
महानौ कायाः</w>
महा शय</w>
महा वृक</w>
महा राणाप</w>
महा रत</w>
महा यज</w>
महा मुनि</w>
महा बली</w>
महा बलः</w>
महा पुरुषों</w>
महा पराक</w>
महा पणं</w>
महा प</w>
महा नौका
महा नु
महा नगर</w>
महा द</w>
महा काय</w>
मह ित</w>
मह मूद</w>
मह ता
मह तः</w>
मह ः</w>
मह ँगा
महँगा ई</w>
मशे द
मशा न
मश रूम</w>
मलि नानि</w>
मल या
मरी चम</w>
मय ूर</w>
ममा पि</w>
मनोह रः</w>
मनु रक</w>
मनु भू
मनु प</w>
मन से</w>
मन सुख</w>
मन चाहा</w>
मधु रैर</w>
मधु रां</w>
मधु पर</w>
मदा बा
मद मस</w>
मद द
मदद गार</w>
मथु रा
मत भेद</w>
मणि प</w>
मठा धीशः</w>
मठा धीश</w>
मचा रियों</w>
मचा रिणः</w>
मकर संक</w>
मंड ला</w>
मंड ल</w>
मं दा
म- जन</w>
म ीं</w>
म से</w>
म सूर</w>
म सि</w>
म सर</w>
म संयम</w>
म ष</w>
म विद</w>
म वश</w>
म लम</w>
म लता</w>
म रिच</w>
म रत</w>
म रणे</w>
म फल</w>
म फल
म पात</w>
म निर</w>
म दत</w>
म था
म थना</w>
म णम</w>
म णं</w>
म गतम</w>
म कारः</w>
म करोत</w>
म कड</w>
म ंड</w>
भौ रे</w>
भोजन वेदिकायां</w>
भोग ते</w>
भोग करी</w>
भो जि
भो गो
भो गा</w>
भो गः</w>
भै षज</w>
भै ंसा</w>
भे ऽस</w>
भे दो</w>
भे जे</w>
भे जता</w>
भूमि ध
भूमि गत</w>
भूमि कां</w>
भू विच</w>
भू लता</w>
भू योऽपि</w>
भू यस</w>
भू मित</w>
भू मण</w>
भू नती</w>
भू तों</w>
भू तेषु</w>
भु वनेश</w>
भु तकर</w>
भु तं</w>
भु जन
भुजन गरे</w>
भीक राक</w>
भी रता</w>
भी ति</w>
भिष ग</w>
भिला षः</w>
भि तं</w>
भासुर कस</w>
भाषा विद</w>
भाव ो</w>
भाव से</w>
भारतजन ताऽ
भारतजनताऽ हम</w>
भारत वासी</w>
भारत रूप</w>
भारत राष</w>
भार तात</w>
भार तम
भार तप</w>
भाज पाद
भाग ित</w>
भाग में</w>
भाग ता</w>
भाग तया</w>
भा वा</w>
भा वस</w>
भा म</w>
भा ड</w>
भा गुर</w>
भा गा</w>
भवान पि</w>
भव तीति</w>
भली- भाँति</w>
भरत मुनि</w>
भर तर</w>
भग वा
भग वती</w>
भग वं
भ वार</w>
भ रति</w>
भ या</w>
भ यस</w>
भ न</w>
भ टका</w>
भ टः</w>
भ जामि</w>
भ जनानि</w>
भ जते</w>
भ क
भ ँ
बढ़ ता</w>
बोले हे</w>
बोल कर</w>
बोधि तवान</w>
बोध यति</w>
बोध ने</w>
बो लेगा</w>
बो पल</w>
बो ता</w>
बैठ ूंगा</w>
बैंग लो
बै साखी</w>
बै ठा
बैठा या</w>
बे ह
बे ला</w>
बे ति
बे ड</w>
बे ड
बे टों</w>
बे चैन</w>
बे चारे</w>
बे चकर</w>
बे गुर</w>
बे ं
बू लं</w>
बू ज</w>
बू ंद</w>
बु लाओ</w>
बु ना</w>
बु आ</w>
बीमा रियों</w>
बी एस
बि ते</w>
बि तम</w>
बि डालः</w>
बि ड</w>
बाहु ल</w>
बाहु ः</w>
बालि काश</w>
बाल कम</w>
बाबा गुरुः</w>
बाधा ओं</w>
बाढ ं</w>
बाँ धे</w>
बाँ धी</w>
बा श</w>
बा ले</w>
बा ली</w>
बा रंबार</w>
बा यो
बा यें</w>
बा यीं</w>
बा मा</w>
बा बर</w>
बा ना
बा द-
बा णः</w>
बा ड</w>
बा जा</w>
बा ईं</w>
बा ंग</w>
बहु विकल</w>
बहु काल
बहा ने</w>
बह ने</w>
बह ना</w>
बलि हारी</w>
बलि को</w>
बल वती</w>
बल -
बर सा</w>
बर दस</w>
बन ते</w>
बता ती</w>
बतला ते</w>
बढ कर</w>
बचा व</w>
बचा या</w>
बचा ते</w>
बं धे</w>
बं धनों</w>
ब ढ़</w>
ब हार</w>
ब सें</w>
ब रस</w>
ब रम
ब रः</w>
ब य</w>
ब नो</w>
ब नं</w>
ब डे</w>
ब डी</w>
ब टेर</w>
ब जाओ</w>
ब जकर</w>
ब का
फोट नेन</w>
फो टाः</w>
फो टक</w>
फै लने</w>
फै ल
फै क</w>
फे स
फे नकं</w>
फि सल</w>
फा ल
फा यदा</w>
फा इल</w>
फल योः</w>
फ ौज</w>
फ ोड</w>
फ े</w>
फ ूर</w>
फ लाभ</w>
फ लान</w>
फ ला</w>
फ रत</w>
फ बारी</w>
फ णा</w>
फ ण</w>
फ टने</w>
पढ़ ो</w>
पढ़ ाए</w>
पौ ने</w>
पौ धों</w>
पौ डी</w>
पोपु ली</w>
पों छ</w>
पो ंसे</w>
पै लेस</w>
पै माने</w>
पै त</w>
पै ं
पे ष</w>
पे र</w>
पे भ</w>
पे टिकाः</w>
पृ शत</w>
पूज ने</w>
पूज नम</w>
पूज नं</w>
पूज ते</w>
पू ति
पू तना
पू जिताः</w>
पू ंछ</w>
पुलि सरक</w>
पुरो हितः</w>
पुरुष ोंका</w>
पुरुष ो
पुरुष श</w>
पुरुष व</w>
पुरा णानि</w>
पुर राज</w>
पुर तो</w>
पुनरा वृत</w>
पु लस</w>
पु रीष</w>
पु रन</w>
पु मान</w>
पीछे पीछे</w>
पी स</w>
पी यते</w>
पी य</w>
पी तल</w>
पी तं</w>
पी डा
पी ठं</w>
पी टने</w>
पिधा यति</w>
पितामह स</w>
पिता नां</w>
पितर ो</w>
पि यों</w>
पि यो</w>
पि ये</w>
पि ये
पि तु
पि तस</w>
पि तं</w>
पि ञ</w>
पाहा रम</w>
पाषाण खण</w>
पाल यिष</w>
पाल यन</w>
पाल नम</w>
पाल न
पाल की</w>
पारितोषि कानि</w>
पारंग ता</w>
पादि का</w>
पाद ों</w>
पाद योः</w>
पाद नाय</w>
पाणि नेः</w>
पाणि -
पाठि तवान</w>
पाठि तवती</w>
पाठशाला ओं</w>
पाठ यितुं</w>
पाठ यन</w>
पाट लपुष</w>
पा से</w>
पा शं</w>
पा वक</w>
पा ले</w>
पा लित</w>
पा लस</w>
पा लता</w>
पा रुष</w>
पा रम</w>
पा ये</w>
पा यस</w>
पा पा
पा नि</w>
पा दस</w>
पा ञ</w>
पा च</w>
पा ख</w>
पा के</w>
पा ए</w>
पा इप</w>
पहुं ची</w>
पहुँचा ने</w>
पहुँ चती</w>
पहचा नने</w>
पह लुओं</w>
पला यन</w>
पला यते</w>
परोप कारी</w>
परोप काराय</w>
परिहा सं</w>
परिवेष यतु</w>
परिणा मः</w>
परिण त</w>
परि शोध
परि शी
परि वे
परि वृ
परि मित
परि माण</w>
परि भू
परि दधा
परि णी
परदा रेषु</w>
परदा राभि
पर सो</w>
पर धर</w>
पर -
पय ः
पन सम</w>
पधा रे</w>
पदा म</w>
पदा ः</w>
पद ों</w>
पद पर</w>
पद पङ</w>
पति वर</w>
पति तो</w>
पता का</w>
पत कैः</w>
पणी पुस</w>
पढ ूँगा</w>
पठ नं</w>
पठ न
पटे ल</w>
पट ु</w>
पट ले</w>
पं खों</w>
प ॉ
प ृ</w>
प हा
प वर</w>
प रास</w>
प रहस</w>
प येत</w>
प यत</w>
प माला</w>
प बुद</w>
प पी
प पत</w>
प थे</w>
प थम</w>
प तत</w>
प ग
नौका याम</w>
नौ सेना
नौ यात</w>
नौ मि</w>
नोप देशेन</w>
नो ष</w>
नो द</w>
नो च</w>
नो खी</w>
नो ंके</w>
नै जी
नै केन</w>
नेह रू</w>
ने ऽ
ने हा</w>
ने वालों</w>
ने या</w>
ने दं</w>
ने ता
ने तर</w>
ने टवर</w>
ने ंगे</w>
नृ सिंह</w>
नृ प
नू तना</w>
नू तनस</w>
नू तनः</w>
नुसा रमेव</w>
नुरागि णः</w>
नु ं</w>
नील कमल</w>
नीति ग</w>
नी स</w>
नी व</w>
नी यानि</w>
नी दर
नीदर लैंड</w>
नी तिं</w>
नी तम</w>
नी चों</w>
नी के</w>
निवेद यामि</w>
निवेद यामास</w>
निवेद नं</w>
निवे शः</w>
निवास व</w>
निवस तः</w>
निरा शा</w>
निर दि
निरदि शत</w>
निय तं</w>
निमि षे</w>
निको बार</w>
निकाल ते</w>
निकल कर</w>
निः सा
निः सं
नि हितम</w>
नि षी
नि षाद</w>
नि शि
नि शस</w>
नि रुपद</w>
नि योज
नि मील
नि मी
नि बो
नि पर</w>
नि पपात</w>
नि धे</w>
नि धि
नि धान</w>
नि दान</w>
नि दर</w>
नि डर</w>
नि घर</w>
नि गल</w>
नि गम
नि काले</w>
नि कर</w>
नि कम</w>
नि कं</w>
नासि कया</w>
नारी शक</w>
नारायण के</w>
नाराय णन</w>
नार शाला</w>
नामधे या</w>
नाम -
नाभि ला
नानृ तं</w>
नाट कों</w>
नाग राज</w>
नाग पुर</w>
नाग केशर</w>
नाइ जी
ना ह</w>
ना सि</w>
ना शु</w>
ना शयति</w>
ना विकः</w>
ना लङ</w>
ना मस</w>
ना प
ना नुसार</w>
ना ध</w>
ना दं</w>
ना ते</w>
ना ती</w>
ना ता</w>
ना तन
ना डी</w>
ना गार</w>
ना कुलम</w>
नहा ना</w>
नवल शङ</w>
नव वत</w>
नव प</w>
नव तितमे</w>
नव तिः</w>
नय ने</w>
नय नम</w>
नय तन</w>
नम श</w>
नम करोत</w>
नना ंद
ननांद ृ</w>
नडि याद</w>
नटे शः</w>
नगरपा लिकायाः</w>
नगरपा लिका</w>
नग रम
न ज़
न हा</w>
न वास</w>
न वं</w>
न राणां</w>
न यं</w>
न भ</w>
न फरत</w>
न पक</w>
न नन</w>
न दाता</w>
न ड</w>
न ञ</w>
न गुप</w>
न खा</w>
धो ते</w>
धे र</w>
धे नोः</w>
धूलि धूसरित</w>
धु म</w>
धु एं</w>
धीम तां</w>
धी रो</w>
धी राः</w>
धी मा</w>
धी ंगरा</w>
धि या</w>
धि मानों</w>
धि ताः</w>
धि की</w>
धार यामि</w>
धा श</w>
धा वन
धा वक</w>
धा रियों</w>
धा रणा
धा रणं</w>
धा पुरी</w>
धा परम</w>
धा ति</w>
धरे यं</w>
धम काती</w>
धनुष बाण</w>
धनुरा दाय</w>
धन हीन
धन विषये</w>
धन मिच</w>
धन द</w>
धन ं
धनं जय</w>
ध ृ</w>
ध से</w>
ध श</w>
ध विश</w>
ध रो</w>
ध रित</w>
ध रन</w>
ध रणि
ध येत</w>
ध मेव</w>
ध ब</w>
ध पञ</w>
ध नार</w>
ध तां</w>
ध जन</w>
ध कारे</w>
ध का
ध कं</w>
ध -</w>
दौ लत</w>
दोष से</w>
दोल नं</w>
दो ऽस</w>
दो षान</w>
दो षा</w>
दो लायते</w>
दो राबजी</w>
दो नोंका</w>
दो ंको</w>
दै स</w>
दै वी</w>
देह धारियों</w>
देश ेषु</w>
देश म</w>
देश तः</w>
देवा नाम</w>
देवताओ ंका</w>
देव रानी</w>
देव राजस</w>
देव योः</w>
देव दूत</w>
देव द</w>
देव द
देव गण
देव की</w>
देख ेंगे</w>
दे हल</w>
दे वात</w>
दे रसे</w>
दे यानि</w>
दे य</w>
दे मातरम</w>
दृ ढ़
दृ प</w>
दृ ग</w>
दृ क</w>
दूरभा ष</w>
दू रन</w>
दुःखि ता</w>
दुःखि तः</w>
दुःख स</w>
दुःख दायी</w>
दुः खे
दु हित</w>
दु हने</w>
दु हता</w>
दु ह</w>
दु रात</w>
दु रतिक</w>
दु पाण</w>
दु कस</w>
दु कम</w>
दीपगोल के</w>
दी राम</w>
दी मा
दी नाः</w>
दिशा यां</w>
दिन रात</w>
दिन चर</w>
दिखा ती</w>
दिखा ओ</w>
दिखा एगा</w>
दि ह</w>
दि शेत</w>
दि रा
दि र
दि नक</w>
दि ताः</w>
दि तवान</w>
दार केण</w>
दान वीर</w>
दा सानु
दा सदा
दा रिका</w>
दा रा</w>
दा यर</w>
दा यमान</w>
दा मोदर</w>
दा नि</w>
दा ध</w>
दा डि
दा कि
दा -</w>
दशरथ स</w>
दशम कक</w>
दश महाविद</w>
दश म</w>
दल पत
दरव ने</w>
दया के</w>
दम ब</w>
दं शः</w>
द ैर</w>
द सों</w>
द शक</w>
द वात</w>
द वर</w>
द वः</w>
द रूप</w>
द री
द मूल</w>
द मान
द नानि</w>
द दौ</w>
द ति
द को</w>
द कः</w>
द ंश</w>
थो ड़ा</w>
थू लता</w>
थू लं</w>
थी नि</w>
थि रुनेल</w>
थि नो</w>
थि तेन</w>
थि तिं</w>
थि तवन</w>
थाप यितुं</w>
थाप कः</w>
थान त</w>
था श</w>
था लिकां</w>
था या</w>
था भ</w>
था नोंमें</w>
था न-
था तव</w>
था ं
थ ॉ
थ वान</w>
थ वत</w>
थ व</w>
थ ली
थ रा</w>
थ यात</w>
थ कता</w>
थ क
तोऽ यं</w>
तोऽ प</w>
तो ंमें</w>
तो ंका</w>
तैल मर</w>
तै लेन</w>
तै रना</w>
तेज सः</w>
ते ऽपि</w>
ते रापं
ते नोक</w>
ते नेव</w>
ते नाऽ
ते नास</w>
ते दारों</w>
ते दार</w>
ते जो</w>
तृती यः</w>
तृती य</w>
तूह लं</w>
तूणी र</w>
तू न</w>
तुम शक</w>
तुम अब</w>
तुका मः</w>
तुंग बल</w>
तु षार</w>
तु वन</w>
तु लस</w>
तु लक</w>
तु नः</w>
तु झ</w>
ती नि</w>
तिवा री</w>
तिल कस</w>
तिथि रूपेण</w>
तिके य</w>
ति हीन</w>
ति सा
ति सम</w>
ति भा
ति पथ
ति तवान</w>
ति ट</w>
ति ग</w>
ति करण</w>
ति कर
तालि बा
ताला बों</w>
तात काश</w>
ता ऽऽ
ता ऽपि</w>
ता ह
ता वस</w>
ता रूढ</w>
ता रसे</w>
ता रकान</w>
ता रक</w>
ता यते</w>
ता मि</w>
ता मग</w>
ता पः</w>
ता नु
ता गोभी</w>
ता ग</w>
ता कत</w>
ता ंस</w>
ता -</w>
तस वीर</w>
तल व
तरु णी</w>
तरु ण</w>
तरा ल</w>
तर श</w>
तर बूज</w>
तयो रे
तमि ळ
तमा नि</w>
तमा ना</w>
तम ौ
तम ब</w>
तम नाः</w>
तब -
तप सि</w>
तप ते</w>
तनु ते</w>
तनु ं</w>
तन ू</w>
तन या</w>
तन या
तन यः</w>
तन क</w>
तन ं
तनं तिट</w>
तद द</w>
तथा -</w>
तकाल यं</w>
तक लीफ</w>
त ॄ
त सङ</w>
त शुक</w>
त वे
त वीर</w>
त वाक</w>
त वा</w>
त वं</w>
त लिका</w>
त राय
त यतु</w>
त मी
त मिस</w>
त मिदं</w>
त मित</w>
त मात</w>
त मन
त भावेन</w>
त भा
त बा
त पाद
त पश</w>
त निष</w>
त दृष</w>
त तश</w>
त तम</w>
त तत</w>
त टों</w>
त ञ</w>
त चेतसाम</w>
त चर
त गीत
त ख</w>
त कल</w>
त ंद</w>
त ंग</w>
णो द</w>
णो क</w>
णु सहस</w>
णु स</w>
णु भगवान</w>
णु ध</w>
णु ं</w>
णी न</w>
णा वत</w>
णा र
णा म
णा भ</w>
णलोल कं</w>
ण श</w>
ण वे</w>
ण व</w>
ण ल</w>
ण योः</w>
ण यं</w>
ण मुखे</w>
ण म
ण पदकं</w>
ण पतकानि</w>
ण ते</w>
ण तः</w>
ण कार</w>
ढो ते</w>
ढा ल</w>
ढ ाई</w>
डो क</w>
डो ंग
डोंग रे</w>
डे ढ़</w>
डे ल</w>
डे य</w>
डु ः</w>
डी ए
डीए वी</w>
डि स</w>
डि प</w>
डि तों</w>
डि ंग</w>
डा ले</w>
डा लने</w>
डा पन</w>
डा कू</w>
डा इ
ड ोर</w>
ड संस</w>
ड वा
ड ला
ड रो</w>
ड रा</w>
ड यि
ड ने</w>
ड नं</w>
ड ग</w>
ठि ते</w>
ठा ने</w>
ठहर ना</w>
ठ हरे
ठ वर</w>
ठ वत</w>
ठ र</w>
ठ या</w>
ठ प</w>
ठ ंडी</w>
टो रियल</w>
टो रिक</w>
टो प</w>
टेली विजन</w>
टे ंट</w>
टू टना</w>
टू टकर</w>
टु क
टी में</w>
टी के</w>
टी -
टि र</w>
टि या</w>
टि न</w>
टि ति</w>
टि तम</w>
टि की</w>
टा शीतिसहस</w>
टा ति
टा तः</w>
टा ंग</w>
टम दिनाङ</w>
ट हासपूर</w>
ट हा
ट ह
ट साध</w>
ट श</w>
ट रों</w>
ट री</w>
ट नवतितमे</w>
ट नं</w>
ट धा</w>
ट कि
ट कस</w>
ट ं
ञोप वी
ञे यः</w>
ञानि की</w>
ञानि कानां</w>
ञान केन</w>
ञा सु</w>
ञा पितः</w>
ञा नीय
ञा नार</w>
ञा नाय</w>
ञा नव
ञा नता</w>
ञा ताः</w>
ञा तव</w>
ञ ोऽ
ञ ेन</w>
ञ कुण</w>
झू ंठ</w>
झु ण</w>
झु के</w>
झि ल</w>
झा ँ
झ रोखे</w>
झ र-
झ ण</w>
झ टिति</w>
झ टके</w>
झ टका</w>
जो री</w>
जो र-
जो डना</w>
जे ंट</w>
जू ठा</w>
जू ट</w>
जू झ</w>
जुला हा</w>
जु हु
जु नः</w>
जु के
जुके शन</w>
जु कम</w>
जु आ</w>
जीवि तुं</w>
जी वामि</w>
जी वात</w>
जी तीं</w>
जी जा</w>
जी करणं</w>
जिस- जिस</w>
जिन -
जि यों</w>
जि द-
जि तैः</w>
जि कल</w>
जाना त</w>
जान वरों</w>
जान कार</w>
जाग रिष</w>
जाग रितुम</w>
जाग रणं</w>
जाग रण
जाए ंगी</w>
जा ला</w>
जा लं</w>
जा मा</w>
जा पानस</w>
जा नेके</w>
जा तो</w>
जा तियों</w>
जा ओ
जा ँच</w>
जा ँ
जहा ति</w>
जवा ला
जलि यां
जला रामस</w>
जला र</w>
जला कर</w>
जल में</w>
जल पूर</w>
जल धौ</w>
जल का</w>
जरा इल</w>
जय दीपः</w>
जमी ं
जमीं दारों</w>
जब- जब</w>
जनि ता</w>
जना त</w>
जन यति</w>
जन धन</w>
जन के</w>
जन कस</w>
जटा ओं</w>
जग दीप
जग दा
जँ भाई</w>
ज ू</w>
ज ु</w>
ज सा</w>
ज स
ज वासरे</w>
ज लों</w>
ज रु
ज यत</w>
ज मुहाई</w>
ज मशेद
ज पा
ज नेन</w>
ज नु
ज ज</w>
ज घान</w>
ज घन</w>
ज गाद</w>
ज गा</w>
छोटा- सा</w>
छे यम</w>
छे दने</w>
छृ णुध</w>
छु ए</w>
छु ः</w>
छी ल</w>
छि पी</w>
छि पाकर</w>
छि पकर</w>
छि क</w>
छा व</w>
छा नि</w>
छा दि
छा दने</w>
छ- कुछ</w>
छ ु</w>
छ वि</w>
छ ला
छ बि
छ पः</w>
छ ध</w>
छ टा
छ ं
चौरा हे</w>
चौ रं</w>
चौ ं
चोर यिष</w>
चो रों</w>
चो त</w>
चैंपि यन</w>
चे द
चे ताः</w>
चू ं</w>
चू ँगा</w>
चु र</w>
चिंता जनक</w>
चि रा
चि र</w>
चि दु
चि दान
चि तानि</w>
चि तव</w>
चि टिकां</w>
चाह ना</w>
चा सीत</w>
चा रिणः</w>
चा र-
चा म
चा तक</w>
चा टना</w>
चलभा षेण</w>
चलभा षम</w>
चलभा षक</w>
चल म</w>
चरि तानि</w>
चरा चर
चरण ोंमें</w>
चरण ोंकी</w>
चरण ो
चरण योः</w>
चरण ः</w>
चय पूर</w>
चम कने</w>
चम कते</w>
चतु रः</w>
चट काः</w>
चट का</w>
चक वा</w>
च ौ</w>
च ैर</w>
च हच
च सहस</w>
च षक</w>
च शतानि</w>
च शतं</w>
च वर</w>
च व</w>
च लक</w>
च लं</w>
च रिष</w>
च राता</w>
च राः</w>
च मे</w>
च मिन</w>
च मासस</w>
च मस</w>
च मः</w>
च पेट</w>
च पल</w>
च नेन</w>
च नः</w>
च तर
घों सले</w>
घो ड़े</w>
घो रे</w>
घो डा</w>
घो टक</w>
घे रे</w>
घू मे</w>
घु से</w>
घु सकर</w>
घि रा</w>
घा टी</w>
घटना याम</w>
घट स</w>
घट नास</w>
घ रको</w>
घ म</w>
गौ तम
गौ ओं</w>
गोपि योंके</w>
गोपाल कः</w>
गोपा यति</w>
गो ह</w>
गो शालां</w>
गो वा</w>
गो र</w>
गो माता</w>
गो म
गो प</w>
गो दर</w>
गो जा</w>
गो चरम</w>
गे भ</w>
गे ंद
गृही ताः</w>
गृहा णां</w>
गृह प</w>
गूढ ा</w>
गुहा याम</w>
गुरो र</w>
गुरु वायूर</w>
गुरु नान
गुरु जन</w>
गुरु ग</w>
गुण ै
गुजरा तराज</w>
गु लि
गु लाम</w>
गु रौ</w>
गु न</w>
गु डा
गु ज</w>
गीता श</w>
गीता यां</w>
गी तवन</w>
गी तवती</w>
गि रीशः</w>
गाय ब</w>
गाम ठस</w>
गां वों</w>
गाँ धी
गा ड़ी</w>
गा हते</w>
गा ष</w>
गा वः</w>
गा रः</w>
गा यें</w>
गा यावः</w>
गा याव</w>
गा नद</w>
गा जा</w>
गा ङ</w>
गा गोदर</w>
गा एँ</w>
गा -
गह रे</w>
गह राई</w>
गह रा</w>
गवे षण
गल कामनाः</w>
गरज ता</w>
गति शी
गतमा से</w>
गणे शस</w>
गणना नुसारं</w>
गणक यन</w>
गण ैर</w>
गण पति</w>
गं धर</w>
गं दे</w>
ग समुद</w>
ग श</w>
ग वेष
ग मेन</w>
ग मने</w>
ग मं</w>
ग तो</w>
ग तम
ग जे</w>
ग गन</w>
खो लो</w>
खो ला</w>
खो री</w>
खेल -
खे षु</w>
खे ला
खे तों</w>
खुश बू</w>
खु ले</w>
खु दीराम</w>
खिला ते</w>
खिं चाव</w>
खि यों</w>
खि द</w>
खि चड</w>
खादि तवन</w>
खाद नीयम</w>
खा सी</w>
खा नेवाला</w>
खा तिर</w>
खा ए</w>
खा ः</w>
खल नम</w>
खब रें</w>
खन नं</w>
ख ैर</w>
ख ले</w>
ख द</w>
ख जाना</w>
ख गोल
ख गेभ</w>
ख गः</w>
ख ग</w>
ख ं
कौश लं</w>
कौन से</w>
कौन सी</w>
कौ र</w>
कोऽ न</w>
कोऽ त</w>
कोशा तकी</w>
कोवि डस</w>
को शं</w>
को व</w>
को टातः</w>
को चं</w>
को ंके</w>
को ं
कॉ फ़ी</w>
कैके य</w>
कै शिकी</w>
कै वल</w>
केव लज</w>
केव ल
केरली याः</w>
के शी</w>
के ल</w>
के यूर</w>
के भी</w>
के नचित</w>
के तु</w>
के तक
के चित</w>
कृषि कर</w>
कृप णता</w>
कृता ञ</w>
कृत- सम</w>
कृत- संस</w>
कृत- विश</w>
कृत ोप
कृत शास</w>
कृत मस</w>
कृत भाषां</w>
कृ मि</w>
कृ ण</w>
कूप ीं</w>
कू ली</w>
कू पी</w>
कू पात</w>
कू तिः</w>
कू टा
कू टर</w>
कुश लिनी</w>
कुश लिन</w>
कुल दीपः</w>
कुल त</w>
कुल कर</w>
कुमु दिनी</w>
कुमा रभ
कुमा यूँ</w>
कु वल
कु ली</w>
कु लगा
कु राकर</w>
कु मुद</w>
कु म
कु ब</w>
कु पितः</w>
कु तर
कु ड
कु जवासरे</w>
कु छ-कुछ</w>
कु च</w>
कु कृत</w>
कु कर</w>
की पर</w>
की -
किस ली</w>
किरी टम</w>
किरी ट
किं वदन</w>
किं चि
कि राया</w>
कि यन</w>
कि मस</w>
कि मत</w>
कि णी</w>
कि ङ</w>
कास यामि</w>
कास यन</w>
कालि क</w>
कारु ण</w>
कारि णे</w>
कारा गार
कारण से</w>
कारगि लयुद</w>
कार येत</w>
कार यन</w>
कार यत</w>
कार के</w>
कार कम</w>
कायि कस</w>
काम दु
कान ने</w>
काक पक</w>
कां टा</w>
कां ची</w>
काँ पती</w>
का रित</w>
का रि</w>
का या</w>
का मु
का मिनी</w>
का मान</w>
का मा</w>
का नें</w>
का दारभ</w>
का दश
का द
का टे</w>
का चित</w>
का चस</w>
का चः</w>
का गज</w>
का को</w>
का एँ</w>
कहू ंगा</w>
कहू ँगा</w>
कहा वत</w>
कह लाती</w>
कह नेपर</w>
कवि ः</w>
कलि न</w>
कल हो</w>
कल नम</w>
कल ङ</w>
कल ं
करे ण</w>
करु ण
करि का</w>
करा ये</w>
करा य</w>
करा कर</w>
करा ओ</w>
करणी य</w>
कर पत</w>
कर पट</w>
कर ना-
कर दीपः</w>
कर तार
कर णार</w>
कर छु
कमा ई</w>
कमल में</w>
कमल पत</w>
कम लिनी</w>
कम लं</w>
कम रों</w>
कम जोरी</w>
कपा लि
कन पत</w>
कदा प</w>
कदली फलानि</w>
कदली फलं</w>
कद ली</w>
कथ मस</w>
कति पय</w>
कति पय
कठिना इयों</w>
कंजू स</w>
कं ठ</w>
क सरत</w>
क शे
क शा
क वित</w>
क पट
क नी
क थितं</w>
क ढ</w>
क टिक</w>
क टन</w>
क कड</w>
क ए
क ंड</w>
औष धी</w>
औष धियों</w>
औष धस</w>
औ दार</w>
ओं नादं</w>
ओं नाद</w>
ओ लिम</w>
ओ बामा</w>
ओ फ</w>
ओ ट</w>
ओ ङ</w>
ओ ंकार</w>
ऐतिहासि कं</w>
ऐ न</w>
एस .के.</w>
एव मुक</w>
एलो पैथिक</w>
एनडी ए</w>
एता वान</w>
एता दृश</w>
एड क</w>
एक समानः</w>
एक वादने</w>
एक लक</w>
एक में</w>
एक मत</w>
एएस आर
एएसआर ओ</w>
ए षु</w>
ए वमे
ए तेन</w>
ए तां</w>
ए तन</w>
ए तच</w>
ए जुकेशन</w>
ए .</w>
ए -
ऋषि गण</w>
ऋषि केश</w>
ऋष भ
ऋ तुओं</w>
ऋ तस</w>
ऋ त</w>
ऊं ची</w>
ऊ ं</w>
उस पर</w>
उरू कस</w>
उमा देवी</w>
उबाल ती</w>
उपा श</w>
उपा वे
उपविश सि</w>
उपनि ष
उपनय नोपदेशेन</w>
उप ो
उप वेष</w>
उप लभ</w>
उप योगिता</w>
उप नाम</w>
उप देक</w>
उप त</w>
उदा रच
उदा त</w>
उतार कर</w>
उता रते</w>
उठ ते</w>
उ षा</w>
उ रु
उ मे
उ तरा</w>
उ ट
उ जागर</w>
उ गाता</w>
उ खाड</w>
ईं टें</w>
ई ०</w>
ई स
ई ष</w>
ई शावास</w>
ई न</w>
इला के</w>
इदानीं तन
इतिहा सः</w>
इतिहा सं</w>
इति हास
इडु कि</w>
इटु की</w>
इटु क</w>
इं तजार</w>
इं डिया</w>
इं जिन</w>
इ समे</w>
इ वा
इ मौ</w>
इ मार
इ नाम</w>
इ त
इ ण</w>
इ ट</w>
इ जराइल</w>
इ ंगित</w>
आहू तवान</w>
आह ताः</w>
आसु री</w>
आस नानि</w>
आवे गः</w>
आवा सः</w>
आवा भ</w>
आरो हामि</w>
आरो हन</w>
आरो हण</w>
आरु ह</w>
आर ती</w>
आर .
आयोजि ताः</w>
आयु धानि</w>
आबा दी</w>
आन यानि</w>
आदि श</w>
आदि वासिनः</w>
आदि का</w>
आदान -प</w>
आदर- सम</w>
आदर- सत</w>
आदर पूर</w>
आद तों</w>
आतुराल यं</w>
आजा द</w>
आगं तुक</w>
आकाशबा णः</w>
आकाश मार</w>
आकाश पिण</w>
आका शं</w>
आं शिक</w>
आँख े</w>
आँख के</w>
आ सूत</w>
आ शु</w>
आ लोचना</w>
आ लू
आ ल</w>
आ रोप
आ राध</w>
आ रण</w>
आ या
आ भास</w>
आ बे</w>
आ ब
आ धीन</w>
आ दाय</w>
आ दानम</w>
आ ण
आ जीवन</w>
आ घात</w>
आ खे
आ कूतिः</w>
आ ओगे</w>
आ ऊँगी</w>
आ ईं</w>
आ ः</w>
आ ंगन</w>
अह ह</w>
अह मद</w>
अशोक वाटिका</w>
अवि चल</w>
अवस रेऽस</w>
अवत रितवान</w>
अवकाश विज</w>
अवका शः</w>
अव साद</w>
अव शेषों</w>
अव द
अव करिका</w>
अव करम</w>
अल गोजा</w>
अरु णः</w>
अमेरिका -
अमृ तम</w>
अमृ तत</w>
अभि लेख
अभि रक</w>
अभि यन</w>
अभि मानार</w>
अभि मन</w>
अभि कर</w>
अपा करोति</w>
अपरि ग</w>
अपने को</w>
अपना ने</w>
अप यश</w>
अप तत</w>
अनेक वारं</w>
अने जत</w>
अनृ तम</w>
अनृ तं</w>
अनुयायि यों</w>
अनुम तिं</w>
अनु शोचि
अनु शासन</w>
अनु वैद</w>
अनु यायी</w>
अनु मतिः</w>
अनु बंध</w>
अनु पश</w>
अनु जायाः</w>
अनु चितं</w>
अनु चर</w>
अनु कू
अनु करणं</w>
अनि च</w>
अनसू ये</w>
अनंत पुरी</w>
अन व
अन ं
अनं तनाग</w>
अधी तम</w>
अधि कां</w>
अधि करणम</w>
अदा लत</w>
अददा त</w>
अतिथी नां</w>
अति व</w>
अति रिच</w>
अति प</w>
अति द</w>
अठा रह</w>
अजे य</w>
अजा यत</w>
अज मेर</w>
अगा ध
अगर तल</w>
अखाद यत</w>
अख रोट</w>
अख बार</w>
अकाउ ंट</w>
अक बर</w>
अंधे रे</w>
अंगो ंका</w>
अं शः</w>
अं धे</w>
अं दा
अं ततोगत</w>
अं कों</w>
अ हिं
अ सी
अ सा
अ सल</w>
अ सम
अ सफलता</w>
अ सद</w>
अ संभव</w>
अ वेहि</w>
अ वित
अ वाच</w>
अ लो
अ रिष</w>
अ य
अ मिता</w>
अ मित
अ मात</w>
अ भा
अ भविष</w>
अ भयं</w>
अ बला</w>
अ पुत</w>
अ नोखी</w>
अ निल
अ निन</w>
अ नाश</w>
अ धित</w>
अ धार</w>
अ दीनाः</w>
अ दम</w>
अ टूट</w>
अ जान</w>
अ जात</w>
अ जन</w>
अ जगन</w>
अ जग
अ चूक</w>
अ गोचर</w>
ः क</w>
ः -
ंस ों</w>
ं तं</w>
ं -</w>
ँ का</w>
S S
8 6</w>
7 5
5 9</w>
5 4</w>
4 6</w>
4 2</w>
4 0
3 00</w>
25 000</w>
202 4</w>
200 5</w>
2 8
2 7</w>
2 -
199 8</w>
14 .
14. 08
14.08 .
0 ,000</w>
. 4</w>
- हाँ</w>
- सत</w>
- पुत</w>
- पर</w>
- ऊर</w>
- आज</w>
- 1</w>
९ ९</w>
७ ९</w>
७ २</w>
६ ९</w>
४ ६</w>
४ ३</w>
४ ०००</w>
४ ००</w>
३ १</w>
३ ०
३ म</w>
२०१ ८</w>
२०१ १</w>
१८ २</w>
१० ६</w>
१ ००</w>
१ ,
० ०
० ,०००</w>
फ़ िल</w>
फ़ ान</w>
ढ़ ी
ढ़ ा</w>
ड़ ते</w>
ड़ ती</w>
ज़ ोर</w>
ज़ ार</w>
ौ ष</w>
ौ ल</w>
ौ ती</w>
ौ ता</w>
ोदक मात</w>
ै रपि</w>
ै बर</w>
े- टुकड</w>
े से</w>
े ण</w>
ू चतु
ू क</w>
ु ः</w>
ी- बड</w>
ी यम</w>
ी चे</w>
ि याएँ</w>
ि यां</w>
ा- सा</w>
ा ही</w>
ा ये</w>
ा गे</w>
ऽऽ र</w>
ऽऽ त</w>
ऽऽ ज</w>
ऽनु ष</w>
ऽनु कू
ऽ वस</w>
ऽ व
ऽ थ</w>
होने वाली</w>
होने के</w>
हो ष</w>
हो शि
होशि यार</w>
हो वें</w>
हो लि
हो ल</w>
हो मवर</w>
हो नेवाला</w>
हो जाता</w>
हो जा
हो ँठ</w>
हैदरा बाद-
हैं एस
है- यह</w>
है- ऐसा</w>
है या</w>
है न</w>
हे श</w>
हे ल</w>
हे म</w>
हे म
हृद यो</w>
हृद येन</w>
हृद यको</w>
हृ तं</w>
हू ँ
हु र</w>
हु मा
हु त</w>
हु ई-
हु ः</w>
ही रे</w>
ही नो</w>
ही का</w>
ही ंग</w>
ही ंके</w>
ही ंकी</w>
हिमांशु गौड</w>
हिमा लयः</w>
हिमा चले</w>
हिम वान</w>
हिम पातः</w>
हिन हि
हितकामा नाम</w>
हित कारक</w>
हिं सनम</w>
हि लने</w>
हि लती</w>
हि ल</w>
हि रे</w>
हि रा
हिरा सत</w>
हि रणी</w>
हि मस</w>
हि तोप
हि तै
हि चित</w>
हि का
हि ः</w>
हाहा कार</w>
हाहा कार
हारि णम</w>
हाथ- पैर</w>
हाथ ोंमें</w>
हाथ से</w>
हाथ में</w>
हा लिया</w>
हा लत</w>
हा रो</w>
हा रिक</w>
हा रा
हा रं</w>
हा नि
हा तव</w>
हा किसली</w>
हवा ई
हवाई अड</w>
हल वाहा</w>
हरिया ली</w>
हरि हर
हरि राम</w>
हरि र</w>
हरि भक</w>
हरि प</w>
हरि ओम</w>
हर बानी</w>
हर की</w>
हथ कड</w>
हटा ने</w>
हटा ना</w>
हंस ो</w>
हंस कर</w>
हं हो</w>
ह से</w>
ह सीना</w>
ह सितम</w>
ह सि
ह सतः</w>
ह वि</w>
ह वन
हवन कुण</w>
ह व
हव नार</w>
ह ला
ह रन</w>
ह रता</w>
ह रणं</w>
ह रं</w>
ह या</w>
ह मे</w>
ह मिति</w>
ह बाय</w>
ह ताश</w>
ह तम</w>
ह ठ
ह टना</w>
ह -
सौं फ</w>
सौ भद</w>
सौ दा
सौ त</w>
सौ चिकः</w>
सौ कर</w>
सोऽ र</w>
सोऽ न</w>
सोपा नेन</w>
सोचि ये</w>
सोच- विचारकर</w>
सो लह
सोलह वें</w>
सो पाने</w>
सो पान</w>
सो पस</w>
सो प
सो ढ</w>
सो ंके</w>
सो ं
सैनि क
सै ला</w>
सेवि तम</w>
सेवा म</w>
सेव फलं</w>
सेव नेन</w>
सेव नं</w>
सेना यां</w>
सेना नी</w>
सेना नियों</w>
सेना निनः</w>
सेतु बन</w>
सें टीमीटर</w>
सें कती</w>
से ऽ
से हत</w>
से विका
से लति</w>
से ब</w>
से नः</w>
से टक
से गा</w>
सृ जामि</w>
सृ जति</w>
सूनृ ता</w>
सूचि तवान</w>
सूच नात</w>
सूंघ ते</w>
सूंघ कर</w>
सूँ ड</w>
सूँ घ
सू पं</w>
सू ते</w>
सू चि</w>
सू कर</w>
सुहृ न</w>
सुहृ दाम</w>
सुविधा ओं</w>
सुलभ म</w>
सुरव रः</w>
सुरभ ि</w>
सुर ैः</w>
सुर भूमिम</w>
सुर भी
सुभाष चंद</w>
सुभा षित</w>
सुना ने</w>
सुन कः</w>
सुधा कर</w>
सुखा सन</w>
सुखा दि</w>
सुखदुःख योः</w>
सुख ोप
सुख े</w>
सुख मे
सुख प</w>
सुख देव</w>
सुख दुःखा
सुख दायक</w>
सुख को</w>
सुख कर</w>
सु हा
सु षु
सुषु प</w>
सु ष
सु शोभन</w>
सु वे
सु वीराः</w>
सु लह</w>
सु लभा</w>
सु ल
सु री</w>
सु रान</w>
सु रस
सु मनस</w>
सु मधुरेण</w>
सु पात</w>
सु नोति</w>
सु नेंगे</w>
सु नीता</w>
सु धीः</w>
सु धार</w>
सु धर</w>
सु दू
सु तीक</w>
सु तरां</w>
सु तम</w>
सु त
सु ज</w>
सु ग
सु कृतं</w>
सु कृत
सु कुमा
सु काः</w>
सीता समे
सीता लक</w>
सीता मातरं</w>
सीता पति</w>
सीख ना</w>
सी माया</w>
सी माओं</w>
सी तेति</w>
सी -
सिंहास नम</w>
सिंह व</w>
सिंह -
सिंगा पुर</w>
सिं हा</w>
सि रि
सि रपर</w>
सि रदर</w>
सि यस</w>
सि नं</w>
सि तुं</w>
सि तारे</w>
सि तस</w>
सि तव</w>
सि गरेट</w>
सि खा</w>
सि क
साह सी</w>
साव धानं</w>
सार ल</w>
सायं प</w>
सायं कालपर</w>
साय किल</w>
सामु दा
सामाजि क-
साम यिक</w>
सानु यात</w>
साधुसमा गमम</w>
साधु -
साधन भूत</w>
साध कः</w>
साद नार</w>
सात वें</w>
साग रसे</w>
साग रको</w>
सा ष</w>
सा ले</w>
सा रसा
सा याम</w>
सा बरम
साबरम ती</w>
सा ब</w>
सा धोः</w>
सा दि
सा जि
साजि श</w>
सा ंत</w>
सा ंड</w>
सा ंग</w>
सहो दरी</w>
सहि तस</w>
सहा यो</w>
सहा यता
सहा यकं</w>
सहा यः</w>
सहच री</w>
सह सैव</w>
सह भागि
सह नशील</w>
सह देवः</w>
सह देव</w>
सह जन</w>
सह कारेण</w>
सह कर</w>
सह -
सवि मर</w>
सवि धे</w>
सवा ँ</w>
सव ंत</w>
सलि लं</w>
सलि ल</w>
सरोवर का</w>
सरो वरों</w>
सरो वरे</w>
सरीसृ प</w>
सरा एँ</w>
सरका र-
सर सि</w>
सर सः</w>
सर ला</w>
सर ल-
सर दार</w>
समे ट</w>
समूह से</w>
समू हों</w>
समू हे</w>
समुदा यस</w>
समु ह</w>
समु चितं</w>
समु चित
समु क</w>
समीप वर</w>
समी रे</w>
समी पप</w>
समी चीन
समाप यतु</w>
समाधा तुं</w>
समादृ ता</w>
समा हितः</w>
समा हर</w>
समा साद</w>
समा वे
समा रम</w>
समा याति</w>
समा यातः</w>
समा पयति</w>
समा नाय</w>
समा धिस</w>
समा धिः</w>
समा जाय</w>
समा जं</w>
समा चारों</w>
समा चारः</w>
समा चर</w>
समा गत</w>
समझ ती</w>
समज नि</w>
सम ष</w>
सम याव
समयाव काशः</w>
सम मेव</w>
सम भाव</w>
सम दृष</w>
सम ता
सम ण</w>
सभा सदस</w>
सभा सदः</w>
सभा ओं</w>
सब री
सब कुछ</w>
सफल तां</w>
सफ ला</w>
सफ र</w>
सपरि वारं</w>
सनै राश</w>
सना तनम</w>
सना तनं</w>
सदृ शाः</w>
सदृ श
सदुप योग</w>
सदाचा रेण</w>
सदा नन</w>
सद नस</w>
सजा वट</w>
सकृ दपि</w>
सका शं</w>
सक ों</w>
सक ूं</w>
संहा रं</w>
संह तिः</w>
संसारसा ग
संसार रूपी</w>
संसा रभ
संसा रका</w>
संशो धनं</w>
संयोज यति</w>
संयो जन
संचा लित</w>
संघ े</w>
संग तिः</w>
सं हि
सं शि
संशि तव</w>
सं विग</w>
सं वदध</w>
सं ला
सं रम</w>
सं योगात</w>
सं योगं</w>
सं यत</w>
सं यंत</w>
सं मूढ
सं मर</w>
सं भाषण
सं भव
सं बभूवुः</w>
सं धित</w>
सं धान</w>
सं तजन</w>
सं जीवन
सं जीव</w>
सं ज
सं चलने</w>
सं घा
सं गीतं</w>
सं करा</w>
स ीं</w>
स सार</w>
स सर</w>
स सङ</w>
स शर</w>
स वों</w>
स वै
स वेषु</w>
स विशेष
स वानु
सवानु बन</w>
स वर</w>
स वम</w>
स ली
सली लम</w>
स लक</w>
स रा</w>
स रसो</w>
स रम</w>
स रन</w>
स युक</w>
स पे
स पुत</w>
स नेन</w>
स नी
स नस</w>
स नन</w>
स धैर</w>
स दै
स तान</w>
स जाते</w>
स चित</w>
स चराच
स घन</w>
स को</w>
स कुशल</w>
स काश
स ः
स -</w>
षोडश दिनाङ</w>
षो भते</w>
षो परि</w>
षेप से</w>
षेप णम</w>
षे यम</w>
षे म</w>
षे म
षे न</w>
षे णे
षेणे ह</w>
षू टौ
षूटौ ट</w>
षु स</w>
षु षः</w>
षु ष</w>
षु रपत</w>
षु भिः</w>
षु भ</w>
षु धार</w>
षु ण</w>
षु काय</w>
षीरकाको ली</w>
षीर वृक</w>
षिण ेन</w>
षिण हस</w>
षिका एँ</w>
षि शाव
षि राज</w>
षि यन</w>
षि पुरुषैः</w>
षि पा
षि निके
षि णात</w>
षि कायाः</w>
षि -
षालि तम</w>
षानी तेः</w>
षा रों</w>
षा रसः</w>
षा महे</w>
षा मपि</w>
षा मः</w>
षा भ</w>
षा बन</w>
षा दि</w>
षा टनं</w>
षा के</w>
षा कर</w>
षा एं</w>
षा ऋतु</w>
षा ं
षयि णी</w>
षम से</w>
षम ते</w>
षपण क</w>
षणी याः</w>
षणा नन</w>
षणा द</w>
षणा ः</w>
षण ोप
षण ोंवाला</w>
षण ैः</w>
षण ि
षण यन</w>
षण मेव</w>
षण मंत</w>
षण भं
षणभं गुर</w>
षण कार</w>
षण -</w>
ष ू</w>
ष सान</w>
ष शोभि
षशोभि तः</w>
ष रति</w>
ष रः</w>
ष र
ष ये
ष यितव</w>
ष यान</w>
ष मे</w>
ष मी</w>
ष भः</w>
ष पूर</w>
ष पस</w>
ष पः</w>
ष धी
ष धि</w>
ष धि
ष दल
ष ताः</w>
ष तां</w>
ष त
ष गांठ</w>
ष कान</w>
ष कल</w>
ष क-
शौ चा
शौ चमिन</w>
शोभा यात</w>
शोभ ना</w>
शोफ ः</w>
शोध पत</w>
शोध प</w>
शोचि तुमर</w>
शो षः</w>
शो ष</w>
शो पास
शो त</w>
शो चति</w>
शो च</w>
शे षत</w>
शे ट</w>
शे खरः</w>
शृणो षि</w>
शृणु ध</w>
शृगा लेन</w>
शूरवी रता</w>
शू लं</w>
शू राः</w>
शू रस</w>
शू रः</w>
शुरु आती</w>
शुभा शुभम</w>
शुभा शुभ
शुभा न</w>
शुभकामना एं</w>
शुभ स</w>
शुभ कर</w>
शुचि ता</w>
शु भाव
शु नः</w>
शु न</w>
शु चौ</w>
शु कह
शु कं</w>
शीत लता</w>
शी ले</w>
शी तो</w>
शी तिः</w>
शिशि रसन</w>
शिवि रों</w>
शिवा लये</w>
शिवा लय</w>
शिव संकल</w>
शिव जीके</w>
शिव कुमारस</w>
शिला खण</w>
शिबि रस</w>
शिबि रम</w>
शिबि का</w>
शिख रों</w>
शिख रम</w>
शि शिर
शि वे</w>
शि वम</w>
शि रा
शि या</w>
शि मला
शिमला मिर</w>
शि खण</w>
शासन काल</w>
शास ित</w>
शास नं</w>
शाव कानां</w>
शालि ना</w>
शालि ग</w>
शाला विधौ</w>
शाला याम</w>
शारी रम</w>
शान दार</w>
शाक विक</w>
शां तिपूर</w>
शा यी</w>
शा य
शा दी</w>
शा दि</w>
शा द</w>
शा टी</w>
शा टिकाम</w>
शा कानां</w>
शा कप</w>
शा कः</w>
शही दों</w>
शश ंस</w>
शला का
शल जम</w>
शरीर पर</w>
शरी रों</w>
शरी राणि</w>
शरी रम
शरी त</w>
शरणा गतवत</w>
शरण में</w>
शर दः</w>
शम नाय</w>
शब रि
शफ री</w>
शनि वासरः</w>
शना नुमतिपत</w>
शन शिक</w>
शन शास</w>
शकर कन</w>
शकर कंद</w>
शक टिकया</w>
शंख के</w>
शं का
श- रोग</w>
श सां</w>
श शक</w>
श वाः</w>
श रभङ</w>
श योक</w>
श यि
श भ</w>
श निक</w>
श नार</w>
श दा
श तेषु</w>
श तप
श तको
श त-
श ठ</w>
श च</w>
श कुमार
श कानां</w>
श कः</w>
वो ऽपि</w>
वो ऽ
वो ढुं</w>
वै रपि</w>
वै रं</w>
वै न</w>
वै देशि
वै दुष</w>
वै त</w>
वेप थुः</w>
वेदो त</w>
वेदि यों</w>
वेदि कासु</w>
वेदि काः</w>
वेदा ंत</w>
वेद सम</w>
वेद शास</w>
वेद मन</w>
वेद पाठं</w>
वेद नया</w>
वेद ग</w>
वेद के</w>
वेद -
वेत कन</w>
वे षाद</w>
वे षणस</w>
वे षं</w>
वे लां</w>
वे धा</w>
वे दे</w>
वे ताल</w>
वे णु</w>
वृष भस</w>
वृ ताः</w>
वु र</w>
वीरसा वर
वीर सैनिका</w>
वीर पुरे</w>
वीप राष</w>
वीतरा गे
वीतरागे णे
वीत चिन</w>
वीणा कर</w>
वी रुध</w>
वी रवर</w>
वी रम
वीरम ृत</w>
वी रं</w>
वी यमि
वीयमि शनशिक</w>
वी नां</w>
वी थिः</w>
वी डि
वीडि योगे
वीडियोगे म</w>
वी कृति</w>
वी कृतवती</w>
वी कृतः</w>
वी -
विहाय सा</w>
विह रति</w>
विष ी
विष वात
विषवात कप</w>
विष य-
विष न</w>
विष ण</w>
विष कुम</w>
विशे षा</w>
विशा ले</w>
विशा लाः</w>
विशा लं</w>
विशा रदाः</w>
विश दी
विवेक पूर</w>
विवे चन
विविध राज</w>
विविध प</w>
विवा हितः</w>
विवा हित</w>
विवा हस</w>
विल सन</w>
विरो धम</w>
विरो च
विरह से</w>
विर लाः</w>
विमूढ धीः</w>
विमान वाहक</w>
विम लेश</w>
विम ले</w>
विभे दाः</w>
विभू षितं</w>
विभू षि
विभा सि</w>
विभा जन
विभव े</w>
विपु लं</w>
विपि ने</w>
विपि न
विनोद सञ</w>
विनोद यिष</w>
विना शं</w>
विन यान</w>
विन याद</w>
विधे यं</w>
विधू य</w>
विधि याँ</w>
विधि ज</w>
विधि -
विधा यकस</w>
विधा तव</w>
विदेश स</w>
विदेश मन</w>
विदेश मंत</w>
विदेश गमने</w>
विदू षकः</w>
विदु ः</w>
विदा हिनः</w>
विदा ह</w>
विजि तवान</w>
विजय लक</w>
विजय नगर</w>
विजय कुमार
विज ोंको</w>
विज येन</w>
विज यप</w>
विचार शील</w>
विका स-
विका स
विका रो</w>
विंश मध</w>
वि हार
वि वृतम</w>
वि वृ
वि वादने</w>
वि वादः</w>
वि वस</w>
वि वक</w>
वि लेपनं</w>
वि लं
वि राम
वि रत</w>
वि रच</w>
वि मुञ</w>
वि मुखः</w>
वि माने</w>
वि मतिः</w>
वि भवः</w>
वि भव</w>
वि बन</w>
वि पाद</w>
वि नो</w>
वि नाम</w>
वि देशि
वि देशः</w>
वि दितं</w>
वि तान</w>
वि तान
वि तरति</w>
वि जै
वि जिह</w>
वि जानाति</w>
वि जाति</w>
वि चेष</w>
वि गते</w>
वि कों</w>
वि किरण</w>
वि कारी</w>
वि करा
विकरा ल</w>
वि कता</w>
वाऽ भ</w>
वासि नौ</w>
वास शिबिराणि</w>
वास रपर</w>
वास घा
वाशि ंग</w>
वालि नं</w>
वाला मुखी</w>
वारि तम</w>
वाराण सी
वारका णां</w>
वारं वार</w>
वार यति</w>
वार पा
वार पर</w>
वायु यान</w>
वायु मलिनीकरण
वायु ं</w>
वाय व</w>
वाय रल</w>
वाभि वाञ</w>
वाभि मानी</w>
वापी -
वानु रूपा</w>
वान रा</w>
वान र
वान प</w>
वाद युक</w>
वाद कः</w>
वातावरण निरीक</w>
वाताव रणे</w>
वाताय नात</w>
वात वर</w>
वाणी में</w>
वाणि यों</w>
वाचना लय</w>
वाच नाय</w>
वाच कः</w>
वाच -</w>
वा सिन</w>
वा साय</w>
वा साः</w>
वा सां</w>
वा सा
वा सम</w>
वा वपि</w>
वा ले
वा लु
वा रेषु</w>
वा रिक</w>
वा रात</w>
वा रमा
वा रता</w>
वा रण</w>
वा यो</w>
वा मे
वा मा</w>
वा मन</w>
वा पी</w>
वा नाम</w>
वा धिकं</w>
वा ध
वा देन</w>
वा दृ
वा तिः</w>
वा ताः</w>
वा ता</w>
वा तंत</w>
वा णीं</w>
वा णा
वा ठ</w>
वा चिक</w>
वा किया</w>
वा इप</w>
वा इज</w>
वा ंडे</w>
वा ँ
वा -
वह ष
वह श</w>
वसू ल</w>
वसू रिका
वसु धा</w>
वसु ं
वस न
वस थः</w>
वस ते</w>
वस तु</w>
वस चि
वल ीं</w>
वल यं</w>
वल की</w>
वरु णा
वर ैर</w>
वर ैः</w>
वर से</w>
वर मिह</w>
वर दायक</w>
वर दाता</w>
वर तन</w>
वयं भु
वय ूर</w>
वय मे
वमे धा
वमि दानीं</w>
वम भि
वम ंग
वभौ मिक</w>
वप नं</w>
वनि तास</w>
वनि ं</w>
वनि -
वना वस</w>
वन से</w>
वन राजप
वनराजप दाय</w>
वन या</w>
वन माला</w>
वन देवता</w>
वन डे</w>
वन ग
वन के</w>
वधू ः</w>
वदे म</w>
वदि तुम</w>
वद नं</w>
वद न
वद तः</w>
वथ यति</w>
वती वन</w>
वती य</w>
वती के</w>
वत शृङ</w>
वजा रोहणं</w>
वजा रोहण</w>
वजा रोह
वज नेषु</w>
वच सा</w>
वच स</w>
वगं धा</w>
वकी ल</w>
वकी या</w>
वकी य</w>
वका रीय-
वंशी य
वंश जः</w>
वंश के</w>
वं शस</w>
वं ति</w>
वं तरि</w>
वं टित</w>
व- स</w>
व ौ
व ही
व हिष</w>
व हा
व से
व सूचनां</w>
व सी
व सा
व सर</w>
व शरी
व वेद</w>
व वित</w>
व विख</w>
व लोकस</w>
व लेन</w>
व लिता</w>
व लाः</w>
व रित</w>
व रि</w>
व रमा
व रम
व रद</w>
व रत</w>
व रणं</w>
व योर</w>
व यम
व यतः</w>
व मित</w>
व मात</w>
व मना
व भाषा
व पे
व पृष</w>
व पुस</w>
व पुर</w>
व पु
व पाप
व परि
व निर</w>
व नानि</w>
व नान</w>
व नः</w>
व धि
व धाय</w>
व धः</w>
व दान</w>
व थि
व तार</w>
व तात</w>
व तां</w>
व तमा
वतमा ला</w>
व तन
व ण
व जे</w>
व जा</w>
व जने</w>
व जनसंख</w>
व चिन</w>
व गृह
व गात</w>
व गर</w>
व गन</w>
व गतम</w>
व गतं</w>
व ग
व को</w>
व कक</w>
व कः</w>
लौह घटि
लौह कारः</w>
लौ टने</w>
लौ टता</w>
लौ ंग</w>
लोम ड</w>
लोच नाभ</w>
लोको ंका</w>
लोकपा लों</w>
लोक सभासदस</w>
लोक यानस</w>
लोक नाथ
लोक द</w>
लोक तंत</w>
लोक ज</w>
लोक को</w>
लो ऽस</w>
लो हार</w>
लो हस</w>
लो ह</w>
लो वाकिया</w>
लो व</w>
लो लोच</w>
लो ल</w>
लो मश</w>
लो नी</w>
लो टा</w>
लो केन</w>
लो कार</w>
लो कानां</w>
लो कह
लोकह ित</w>
लो ंसे</w>
लो ंमें</w>
लो ंकी</w>
लै ब</w>
लै ण</w>
लेखि नी</w>
लेख ो</w>
लेख नीयानि</w>
ले ऽपि</w>
ले षक</w>
ले र</w>
ले पन
ले नाभि
ले द</w>
ले ड</w>
ले ंस</w>
ले -
लू सी</w>
लु नन</w>
लील यैव</w>
ली होदर</w>
ली द</w>
ली तः</w>
लिखि तुम</w>
लिखि तः</w>
लिखा वट</w>
लिख ीं</w>
लि यो</w>
लि यो
लि यां</w>
लि पुत</w>
लि तवन</w>
लि त
लि ट</w>
लाह ट</w>
लाला यित</w>
लाल येत</w>
लाभ दायक</w>
लाजपत रायस</w>
लाजपत राय</w>
लां गु
ला हो
ला वा</w>
ला मिक
ला भस</w>
ला देन</w>
ला दयः</w>
ला ण</w>
ला ठी</w>
ला जा</w>
ला घा
ला एगा</w>
लव ते</w>
लव ङ</w>
लव ग</w>
ललि त-
लला टम</w>
लल चा
लथ पथ</w>
लता यै</w>
लता यें</w>
लता एँ</w>
लट के</w>
लट कते</w>
लघुपतन कना
लघुपतनकना मा</w>
लघु ता</w>
लगा नेवाले</w>
लगा ओ</w>
लग ेगा</w>
लग ेंगे</w>
लखनऊ मेल
लखनऊमेल रेलयानं</w>
लक ड़ी</w>
लं पिक</w>
लं घ
ल- कूद</w>
ल ैर</w>
ल सन</w>
ल ष</w>
ल वेन</w>
ल वाः</w>
ल वा</w>
ल वस</w>
ल वर</w>
ल वम</w>
ल वन</w>
ल लव
ल लना</w>
ल ध</w>
ल तिका</w>
ल तया</w>
ल तक</w>
ल टक</w>
ल जी</w>
ल गि
लगि ष</w>
ल को</w>
ल के</w>
ल की</w>
रौप दी
रौ षीत</w>
रोहि णी</w>
रोमा ञ</w>
रोपरि तलात</w>
रोप ण
रोधा ग</w>
रोध मूर</w>
रोदि षि</w>
रोगि यो</w>
रोगि णां</w>
रोगा णां</w>
रोग प</w>
रो. प</w>
रो ऽस</w>
रो शन</w>
रो शः</w>
रो रपि</w>
रो ये</w>
रो मां
रो धो
रो धं</w>
रो ति</w>
रो तव</w>
रो त
रो टिका</w>
रो ज
रो चन</w>
रो गाः</w>
रो को</w>
रो ओ</w>
रो इंग</w>
रॉ स</w>
रॉ यल</w>
रै क
रेषि तवती</w>
रेलि यायां</w>
रेलि याई</w>
रेलि यां</w>
रेल यानस</w>
रेर णां</w>
रेम से</w>
रेम वापी
रेम रूपी</w>
रेम भाव</w>
रेम का</w>
रेण ैव</w>
रेखा याः</w>
रे षितः</w>
रे षित</w>
रे शः</w>
रे रिताः</w>
रे रयन</w>
रे य
रे मा
रे दार</w>
रे द</w>
रे ति</w>
रे णि
रे ड</w>
रे जरी</w>
रे कोर</w>
रे ं
रे -
रृणो षि</w>
रृं गारं</w>
रृं गार</w>
रूपि णौ</w>
रूपा नु
रूपा णां</w>
रूप ों</w>
रूप े</w>
रूप यौवन
रूप कों</w>
रूढ ः</w>
रू रः</w>
रू पाणि-
रू ण</w>
रू ण
रू ठी</w>
रू खा</w>
रू ँगी</w>
रुप री
रुपरी ताक</w>
रुत वत</w>
रुत पार
रुतपार दृश</w>
रुत गत</w>
रुण द</w>
रुचि र</w>
रुके गा</w>
रु हान</w>
रु श</w>
रु लोचनः</w>
रु र
रु मः</w>
रु दि
रु दण</w>
रु द
रु तप</w>
रु ट</w>
रु जने</w>
रु कम</w>
रु कने</w>
रु क
रु ई
रु ँ
रीहरि का</w>
रीराम हृदय</w>
रीराम भक</w>
रीय- संस</w>
रीय सङ</w>
रीडा वः</w>
रीडा मण</w>
रीडा क</w>
रीड तः</w>
री- राष</w>
री वृन</w>
री वा
री वसचि
री राष</w>
री रामस</w>
री रघुनाथ</w>
री र</w>
री या</w>
री यमुना
री बन</w>
री ब</w>
री पति
री निवास</w>
री नाथ</w>
री दा
री तवती</w>
री तदा
री णाम</w>
री णात</w>
री ढ</w>
री छ</w>
री गोविन</w>
री को</w>
रिया वान</w>
रिया याः</w>
रिया प</w>
रिया एं</w>
रियवादि नम</w>
रियमा णं</w>
रिय सखी</w>
रिय वृत</w>
रिय या</w>
रिय मेव</w>
रिय पुरस</w>
रिय ध</w>
रिय ता</w>
रिय तमा</w>
रिय ंका</w>
रिय -</w>
रिभु वन</w>
रि शूल</w>
रि शत-
रि वि
रि वारं</w>
रि लोक
रि रे</w>
रि योंका</w>
रि यान</w>
रि यात</w>
रि मोप
रि मे</w>
रि मूर</w>
रि पे
रि ते</w>
रि टर</w>
रि ङ</w>
रि कैः</w>
रि काम</w>
रि कः</w>
रि ंसि
रिंसि पल</w>
रि -
राहु र</w>
राहु ः</w>
राह कान</w>
राशि ः</w>
रावण योः</w>
रावण पूर</w>
राव यामि</w>
राव णो</w>
राल ये</w>
राल यस</w>
राय ि</w>
राय शः</w>
रामे भ</w>
रामी णों</w>
रामाय णं</w>
रामा भि
रामा नन</w>
रामा द</w>
रामा णाम</w>
राम ोऽपि</w>
राम त</w>
राम जन</w>
राम चंद</w>
राम के</w>
राफे ल
राधि करणस</w>
राध यन</w>
राथ मि
रातृ भाज</w>
रातृ जा
रातर ौ</w>
राणि यो</w>
राणि मात</w>
राणि ति</w>
राणा यामः</w>
राण ेभ</w>
राण रक</w>
राजपू त</w>
राजप थः</w>
राजनाथ सिंहः</w>
राजना थ</w>
राज सी</w>
राज मन</w>
राज भाषा</w>
राज पद</w>
राज पथि</w>
राज पत</w>
राज गुरु</w>
राज कुमार</w>
राज कु
राज का
राज क</w>
राचीन काल
राइ फल</w>
राँ चीं</w>
राँ ची
राँची नगरे</w>
रा समण</w>
रा सभ</w>
रा वी
रा रविन</w>
रा रं
रारं भिक</w>
रा याम</w>
रा यद</w>
रा मि</w>
रा मार</w>
रा भाई</w>
रा भ
रा फ</w>
रा नखा
रा धी
रा धान</w>
रा धन
रा दुर
रा तृ</w>
रा तिष</w>
रा तरम</w>
रा णे</w>
रा ठ
रा गच</w>
रा कम</w>
रा एँ</w>
रा ए
रा इव</w>
रा ंति</w>
रही तुमिच</w>
रही तुम</w>
रहा त</w>
रहण ेषु</w>
रहण क</w>
रह ूँगी</w>
रह सन</w>
रह रणम</w>
रह पूर</w>
रह नेपर</w>
रह णाद</w>
रह -
रसो त</w>
रसे वार</w>
रसि कता</w>
रसायन शास</w>
रसा ल
रसा रयन</w>
रसा रण</w>
रसा रण
रसा रं</w>
रसा यन</w>
रसगोल कानि</w>
रसंग ेन</w>
रस स</w>
रस रहित</w>
रस भा
रस भ
रस को</w>
रशास नम</w>
रशास न
रवे शनानुमतिपत</w>
रवि शा
रवि रुद</w>
रवि नो
रविनो देन</w>
रवि धि</w>
रवाह यिष</w>
रवा हे</w>
रवा सेषु</w>
रवा से</w>
रवा ना</w>
रवा ताव
रवा टिका</w>
रवा क</w>
रव ौ</w>
रव दन</w>
रव णे</w>
रव च
रल य
रयोज कः</w>
रयोग स</w>
रयोग शालां</w>
रयो ऽपि</w>
रयो र</w>
रयो दश</w>
रयो गाय</w>
रयो क</w>
रया सों</w>
रया नानि</w>
रया ते</w>
रया ञ</w>
रय से</w>
रय विक</w>
रय तिष</w>
रय णीयम</w>
रय णाय</w>
रमो दिनः</w>
रमे त</w>
रमृ ज</w>
रमि वाम</w>
रमि व</w>
रमि दं</w>
रमि कस</w>
रमां कं</w>
रमा सः</w>
रमा नाथ</w>
रमा दी</w>
रमा दं</w>
रमा णाम</w>
रमा इ
रमाइ ंड</w>
रमण वेग
रम ैः</w>
रम ी
रम हा
रम सि</w>
रम यति</w>
रम पदं</w>
रम ना</w>
रम दः</w>
रम णे</w>
रम ज</w>
रम ंडल</w>
रभृ तयः</w>
रभु ता</w>
रभाव से</w>
रभा षणं</w>
रभा षण
रभा विता</w>
रभा वस</w>
रभा कर</w>
रभ वेत</w>
रभ त</w>
रभ ज</w>
रबं धक</w>
रपो क</w>
रधा रः</w>
रदेश ों</w>
रदेश ेभ</w>
रदेश वासिनः</w>
रदेश ं</w>
रदेश -
रदे शात</w>
रदू षणस</w>
रदा ता</w>
रथा ङ</w>
रथम ो</w>
रथम वारं</w>
रथम चरणे</w>
रती ष</w>
रती ति</w>
रती कारम</w>
रती कात</w>
रतिवे शिनी</w>
रतिरोध मन</w>
रतियोगिता एँ</w>
रतिपादि तवान</w>
रतिनि धियों</w>
रतिनि धयः</w>
रतिकू लानि</w>
रति बिं
रतिबिं ब</w>
रति बन</w>
रति पालक</w>
रति पादितम</w>
रति पादन</w>
रति पक</w>
रति प</w>
रति दिव
रति जै
रति गृह</w>
रति कार</w>
रति कर</w>
रता पूर</w>
रता निर</w>
रत रा</w>
रत टा</w>
रणि यों</w>
रणा म
रण से</w>
रण स</w>
रण त
रजा मि</w>
रजा म</w>
रजा पतिः</w>
रजा तियों</w>
रजा ङ</w>
रजतप दकं</w>
रज ेन</w>
रज ित</w>
रज से</w>
रज ले</w>
रज राज
रज ति</w>
रज तस</w>
रज कस</w>
रचा लिता</w>
रचा रार</w>
रचा राय</w>
रचना ओं</w>
रचना एँ</w>
रच लिता</w>
रच लितं</w>
रच याम</w>
रच ता</w>
रच त</w>
रच ण</w>
रघु वंश
रघु पति
रगदा पद</w>
रग ट</w>
रखि ये</w>
रख ें</w>
रख ूँगा</w>
रख ूँ</w>
रख र</w>
रको पक</w>
रकृति माता</w>
रकु पितो</w>
रकाशि ताः</w>
रका शक</w>
रका रैः</w>
रका राः</w>
रका त</w>
रकट यन</w>
रंग ने</w>
रंग -
रं शं</w>
रं परिक</w>
रं गा
रं -
र- छात</w>
र है</w>
र सैर</w>
र सेन</w>
र संस</w>
र शांत</w>
र शशंस</w>
र वैः</w>
र वृष</w>
र वृ
र वान</w>
र वम</w>
र युज</w>
र यी</w>
र यान
र यते</w>
र य-
रय- विक</w>
र मुखं</w>
र भे
र भूति</w>
र भूतं</w>
र बोध</w>
र बलता</w>
र फलानि</w>
र पौ
र पू
र पुरस</w>
र पुर</w>
र पाणि
र पा</w>
र पदा
र पट</w>
र नाम</w>
र धी
र धनुष</w>
र ध
र दो
र दार</w>
र दानं</w>
र दक</w>
र दं</w>
र थी</w>
र तो</w>
र तो
र तुः</w>
र तवान</w>
र तरङ</w>
र ड</w>
र ट</w>
र ट
र जीवने</w>
र जान
रजान प
र चितम</w>
र चय</w>
र गुप</w>
र गुण
र गः</w>
र कृष</w>
र कृतयः</w>
र कुप</w>
र कुत</w>
र कल</w>
र करणं</w>
र करण</w>
र ंगे</w>
यौ हार</w>
यौ वनावस</w>
यौ वनम</w>
यौ न</w>
यौ ति
योऽ श</w>
योऽ यम</w>
योऽ ध</w>
योऽ णिमा</w>
योप चार
योति षाम</w>
योज य</w>
योज नां</w>
योगि योंके</w>
योगि नो</w>
योगि जनों</w>
योगि जन</w>
योगि की
योग- ध</w>
योग दिने</w>
योग दिन</w>
यो ष
यो रा
यो रपि</w>
यो माक</w>
यो मसी
योमसी म</w>
यो पै
योपै थी</w>
यो पे
यो द
यो तयन</w>
यो जि
यो कि</w>
यै स</w>
यै ते</w>
यै तत</w>
येऽ द</w>
येशु दास</w>
येवा धिका
येवाधिका रस</w>
ये ऽपि</w>
ये षा
ये वाक</w>
ये रन</w>
ये यम</w>
ये दकर</w>
ये दं</w>
ये तेषां</w>
ये ताभ</w>
ये ता</w>
ये ता
ये तयोः</w>
ये च</w>
ये को</w>
ये केन</w>
ये के</w>
ये का</w>
ये ः</w>
यू हः</w>
यू रो
यू योर</w>
यू य
यूय ॉर</w>
यू ब-
यू नेस</w>
यू नियन</w>
यू नम</w>
यू नत</w>
यू नक</w>
यू तौ</w>
यू तस</w>
यू ज</w>
यू ची</w>
यू -ना
युवा ओं</w>
युव शं</w>
युव राजः</w>
युव योर</w>
युव तिः</w>
युव कौ</w>
यु से</w>
यु तो</w>
यु तके</w>
यु ड</w>
यु ङ</w>
यु गम</w>
यु को</w>
यु -
याऽऽ ह</w>
यास लाई</w>
यास ने</w>
याविही नः</w>
यावा दिन</w>
याव हारिक</w>
याव शू
याल य-
यायाधी शों</w>
यायाधी शः</w>
यायाधि पा</w>
याया सनेन</w>
याया मी</w>
याय से</w>
याय शास</w>
याय कारी</w>
याभि षेक</w>
यापि तम</w>
यापा रः</w>
यापा रं</w>
याप ने</w>
याप नम</w>
याप कानाम</w>
याप कानां</w>
याप कस</w>
याप कता</w>
यान से</w>
यान श</w>
यान में</w>
याधिकारि णः</w>
याधि पतिः</w>
याधि पति</w>
याधि ग</w>
यादृ शी</w>
यादृ शः</w>
याण मयी</w>
याण कारक</w>
याचि तुम</w>
याचि कां</w>
याग ेन</w>
याग शीलता</w>
याकाश निलयात</w>
याकरण शास</w>
यां सः</w>
यां मार</w>
या ही</w>
या ही
या समं</w>
या शी</w>
या शा
या वन
या लिङ</w>
या रोप</w>
या रह
या रभ</w>
या रत</w>
या यो</w>
या यिक</w>
या यास</w>
या यार</w>
या यस</w>
या यत</w>
या मे
या मीति</w>
या मिव</w>
या भिः</w>
या पी
या पाद
या ने
या नाभ</w>
या नः</w>
या धो</w>
या धु
या धी
या ध
या दे</w>
या दीन</w>
या दाय</w>
या दात</w>
या थ</w>
या तुम</w>
या तु</w>
या तु
या तस</w>
या णं</w>
या चिन</w>
या घातः</w>
या गम</w>
या गतः</w>
या गः</w>
या कृत</w>
या कार</w>
या का</w>
या का
या कम</w>
यस नों</w>
यस नेन</w>
यस न
यशोदा किशो
यशोदाकिशो रे</w>
यशो दानन</w>
यशो दा</w>
यवा गू</w>
यवहा रों</w>
यवहा र
यवह शयत</w>
यवसा ये</w>
यवतमा ल</w>
यव सत</w>
यव च</w>
यव ंश
यव ं
यवं शी</w>
यय श</w>
यय नप</w>
यमे वेश</w>
यमे धः</w>
यमुना नद</w>
यमुना तट
यमु ने</w>
यमु च</w>
यमाना सु</w>
यमाना नाम</w>
यमा प</w>
यमा नोऽपि</w>
यमा ने
यमा नात</w>
यमा णाः</w>
यम ल</w>
यम राजके</w>
यम यं</w>
यम ब</w>
यम नित</w>
यम ना
यम ग</w>
यम क</w>
यम ं</w>
यन योः</w>
यदु पते</w>
यदु दा
यदुदा हृतम</w>
यदि च</w>
यद लेन</w>
यद लस</w>
यथो चितं</w>
यथा पूर</w>
यट कों</w>
यट काः</w>
यजे द</w>
यजा म</w>
यकारि णम</w>
यका रक</w>
यक णि
यं श</w>
यं तु</w>
यं तर
यं जनानि</w>
य- व</w>
य ृ
य ह
य सेन</w>
य सत</w>
य संघटनेन</w>
य शृङ</w>
य शालिनी</w>
य विभागेन</w>
य विघा
य वादी</w>
य वादं</w>
य वाद
य वाः</w>
य लक</w>
य रात</w>
य रतः</w>
य यो</w>
य युग</w>
य यज</w>
य मुद</w>
य मिन</w>
य मिच</w>
य मिक
यमिक विद</w>
य महं</w>
य मम</w>
य भव
य भ
य पे
य पृच</w>
य पुरस</w>
य पस</w>
य पश</w>
य पथ</w>
य नार</w>
य नाथ
य नव
य नया</w>
य दुरा
य दस</w>
य थान</w>
य थम</w>
य तस</w>
य तनम</w>
य तन
य तत</w>
य जनाः</w>
य जनक</w>
य चिह</w>
य चिद</w>
य चिकित</w>
य चर</w>
य च
य ङ
य गुण
य गा
यगा दीत</w>
य ख</w>
य कुल
य कि
य कश</w>
मौ र</w>
मौ पम</w>
मौ नी</w>
मौ नम</w>
मोह न
मोम कं</w>
मोप देश</w>
मोदि वर</w>
मोद कान</w>
मो हिनी</w>
मो हर</w>
मो हम</w>
मो ठ</w>
मो ट</w>
मो च</w>
मो ंकी</w>
मॉ स</w>
मैथु नं</w>
मै श</w>
मै र</w>
मेह नती</w>
मेल नावसरे</w>
मेद की</w>
मेज बानी</w>
मेघ ों</w>
मेघ स</w>
मे ऽस</w>
मे हरबानी</w>
मे वाऽ
मे वाभिवाञ</w>
मे ले</w>
मे ली</w>
मे रवक</w>
मे य</w>
मे ना-
मे दु
मे दिनी</w>
मे दा
मे ते</w>
मे डल</w>
मे कम
मृद ंग</w>
मृति ग</w>
मृगा श</w>
मृ षा</w>
मृ षा
मृ तौ</w>
मृ ण</w>
मृ गों</w>
मृ गो</w>
मृ गो
मृ गा</w>
मूल प</w>
मूल कम</w>
मूंग फली</w>
मू सल</w>
मू षिका</w>
मू षि
मू षकं</w>
मू ले</w>
मू ले
मू लिका</w>
मू ठ</w>
मू ग</w>
मू ं
मुसल मान</w>
मुसकान युक</w>
मुला यम</w>
मुलह टी</w>
मुरा रिः</w>
मुरा रि
मुपा गतः</w>
मुनी न</w>
मुख में</w>
मु वाच</w>
मु मूर</w>
मु पेक</w>
मु पस</w>
मु परि</w>
मु प</w>
मु नेः</w>
मु दितः</w>
मु दरं</w>
मीठी -
मीठी- मीठी</w>
मी रात</w>
मी रा</w>
मी यन</w>
मी बिया</w>
मी नस</w>
मी द
मीद वार</w>
मी त</w>
मी की</w>
मिला वः</w>
मिल त</w>
मिता शी</w>
मिठा इ
मिटा ने</w>
मि हा
मि साइ
मि लेगी</w>
मि लिष</w>
मि लाना</w>
मि यं</w>
मि मं</w>
मि निट</w>
मि द</w>
मि तो</w>
मि तान
मितान नः</w>
मि ताः</w>
मि तवती</w>
मि जो
मि कं</w>
मि ः</w>
मासा भ</w>
मास पर</w>
माला ं</w>
माल वीयमिशनशिक</w>
माल वीय</w>
माल योः</w>
माल या</w>
माल यं</w>
माल पु
मालपु आ</w>
माल ति</w>
मार यिष</w>
मार यत</w>
मार नेवाले</w>
मार के</w>
मार क
माया वी</w>
माया मानु
माया मय</w>
माया मनुष</w>
माम ला</w>
माप -
मानि तः</w>
मानवा धिकार</w>
मान सी</w>
मान सं</w>
मान यत</w>
मान मिच</w>
मान कों</w>
मान -सम</w>
मातृ समा</w>
मातृ भूमिः</w>
मातृ देवो</w>
मातुल गृहं</w>
मातु ली</w>
माता महः</w>
माता मह</w>
माता पितृ
माता जी</w>
माता एँ</w>
माणा धीन</w>
माँग ो</w>
मा सान</w>
मा सन</w>
मा लाः</w>
मा रेगा</w>
मा रुतः</w>
मा रम</w>
मा रत</w>
मा यत</w>
मा मे
मा माह</w>
मा मपि</w>
मा भ</w>
मा पिन</w>
मा पि</w>
मा पि
मा पता</w>
मा नो
मा नेष</w>
मा नानि</w>
मा नन</w>
मा धुरी</w>
मा देव</w>
मा दः</w>
मा थे</w>
मा था</w>
मा तुम</w>
मा तु</w>
मा णाय</w>
मा णस</w>
मा गतः</w>
मा ंड
मा ंगा</w>
मा -
महोद ये</w>
महोद याय</w>
महे तुः</w>
महाभा गे</w>
महाते जाः</w>
महा समुद</w>
महा संघ</w>
महा श</w>
महा वाक</w>
महा वत</w>
महा रण</w>
महा मा
महा मते</w>
महा मत</w>
महा म
महा भूत</w>
महा भारत</w>
महा भारत
महा बलशाली</w>
महा पापी</w>
महा नता</w>
महा न
मह रूम</w>
मह तो</w>
मह तीम</w>
मशा ल</w>
मवि दः</w>
मले शिया</w>
मलिनी करणं</w>
मलि क</w>
मरीचि कां</w>
मरी जों</w>
मरण पुस</w>
मर ना</w>
मर कर</w>
मम ैव</w>
मनोह रं</w>
मनो ऽ
मनो रथः</w>
मनो रञ</w>
मनो भ</w>
मनो कामना</w>
मनु जा
मनु ज
मनी षी</w>
मन ै
मन सो</w>
मन सा
मन वेल</w>
मन वाला</w>
मन के</w>
मन की</w>
मधु राम</w>
मधु माध
मधु कर</w>
मदा श</w>
मथु रा</w>
मथ ता</w>
मति प</w>
मतदान प</w>
[...]
