्
।
है
प
य
,
के
स
त
में
से
ति
हैं
र
को
़
?
का
न
की
क
द
और
श
या
पर
नहीं
वह
कर
व
:
॥
भी
अस
हो
च
ही
सर
ट
वर
ने
ष
(
)
!
कार
संस
मैं
ध
म
वा
हूँ
ते
एक
–
सः
उत
वे
तो
तु
ग
लिए
तुम
विद
अन
ज
तस
सम
यं
यह
गया
किया
यक
&apos;
री
-
यः
करने
यन
करता
सन
अहं
ये
राप
यति
इस
तः
था
जो
ता
मन
तत
निर
रक
षा
हुए
करते
अपि
ब
पुत
जाता
कृत
वारा
तथा
होता
वस
करना
पूर
थ
सा
सब
वन
ण
रम
हुआ
वं
सभी
सत
गच
यम
मम
रं
अर
यते
‌
साथ
पत
नाम
दर
हे
कि
तक
रहा
भ
आप
छात
तं
एव
विश
बहुत
.
रह
रकार
दोनों
उन
इति
घर
ा
धर
रस
अपने
वाले
मा
हम
आज
चित
थे
पढ
भवति
यस
धन
तम
छति
तर
शिक
अत
यत
समय
त@@
मित
समान
याः
अद
कल
मनुष
मेरे
पश
रहे
उद
जन
मार
माता
लक
लोग
पुस
राष
वाला
दो
अ@@
रा
रत
किं
य@@
े
उसके
राम
करोति
तव
पन
रः
जल
कहा
यात
वत
इच
इन
यों
रे
कुर
उस
अध
चाहिए
दिया
छा
वयं
आसीत
लिये
कोई
यां
कुछ
रूप
जा
ी
&#124;
शक
व@@
राज
अच
यामि
यज
होती
तब
करके
रों
रही
रात
दुर
वक
वृक
बन
ले
थं
योग
भक
आदि
यान
इत
युक
वहाँ
ना
चाहिये
गई
चन
थी
ञान
जाते
भारत
द@@
हुई
मण
जी
कुत
ठ
-@@
र@@
करती
अब
कारण
दी
होने
मिन
कौन
जनाः
म@@
कः
होते
फिर
बुद
अग
ध@@
आत
न@@
काम
बाद
मत
यदि
हि
धि
वास
पिता
या@@
नी
राजा
सूर
भोजन
किसी
आगच
&quot;
सह
तन
शास
थान
कस
पास
बिना
रेष
क@@
दृष
ति@@
गए
ञ
वार
होकर
ग@@
छन
आ@@
कहाँ
चिन
मुख
पार
देश
यालय
मध
आश
ऐसा
ड
भविष
नास
मे
भवन
ती
मुझे
जब
जाती
दिन
फल
शीघ
ता@@
वाली
पक
यहाँ
युद
अधुना
बढ
वी
छामि
गर
माँ
अधिक
शरीर
मात
उसे
ह
सुन
थित
बड
बहु
ट@@
उसका
वान
अहम
अनेक
का@@
षेत
कम
किम
आ
ण@@
लोगों
पहले
दे
तेन
पुष
देता
नं
राणि
कभी
यास
मेरी
रसन
करो
जाने
समुद
विष
एवं
दन
उसकी
हस
लड
धा
जाना
भगवान
याम
ली
पानी
कन
वः
मूर
आम
छ
मेरा
मृत
सकता
अपनी
कृष
रन
थात
रति
षण
अभ
पञ
शान
सङ
धं
प@@
छोड
रान
यो
च@@
ज@@
वृद
देखकर
आर
निष
तान
तद
तदा
तौ
सु@@
हाथ
वम
रता
विस
शत
मैंने
शब
ओर
हर
राह
बालक
सिद
गृहे
भवान
निश
तरह
मान
दूर
दक
मा@@
नम
नः
बच
गन
नि
पुनः
रहता
ष@@
आसन
उनके
तरं
अनन
वि@@
मि
रिय
थ@@
किन
दूध
होना
ना@@
धारण
चक
कृते
चर
नष
गये
ख
सज
भाग
विक
यथा
पुरुष
तिष
करिष
पद
मः
ताः
तुं
उच
ल
दुष
स@@
आपके
उसने
ड@@
बात
होंने
सदा
नान
अभवत
हें
जिस
येन
करें
बार
होगा
दत
रहते
योंकि
अथवा
वा@@
राः
षक
नि@@
रा@@
जलं
भाषा
पति
टी
अतः
वविद
समर
नेत
लिया
ददाति
गुरु
रि@@
जैसे
शुद
अभी
अपना
यानं
ए@@
यर
री@@
बल
भार
केन
चा@@
जा@@
किमर
मर
रद
कैसे
बजे
कष
पात
मस
पृथ
केवल
तीन
गा@@
हारे
उक
नित
अङ
दूसरे
अश
उसी
यदा
रास
ठीक
कान
भर
रेण
पड
टि
सप
रहित
उप@@
राक
बर
रश
शन
दस
दा@@
दि@@
तवान
टा
वदति
संसार
मुक
याद
गे
चतुर
वाक
हाँ
नमस
करे
माकं
धनं
यसि
जीवन
धा@@
अनु@@
दुग
कु@@
सार
समस
वच
विज
कब
चिकित
अक
सं@@
आवश
धि@@
चार
इसके
परीक
थम
ञा
फ
तां
यार
तीर
अम
ः
समाप
वाणी
धम
सुख
दान
रव
नदी
कक
भाई
भारतस
तप
तिः
रौ
गमिष
पण
चाहता
मूल
देते
रियों
महान
किये
अवश
तते
सेवा
देने
भ@@
याख
रो
रमा
शिष
दृश
षे
जाएगा
सबसे
बाहर
सुनकर
अभि@@
रज
हमारे
यद
देना
षी
श@@
लम
कण
देव
नन
वप
ताम
नृत
रदर
रीय
पुरस
भोजनं
उ@@
देखा
पा@@
ततः
गो@@
रातः
षः
ों
सी
ब@@
देख
पुण
रार
पित
पठति
किमपि
मंत
जानता
वित
आनन
विषय
ओह
रष
परन
धः
ऊपर
ठ@@
लेकर
कं
ईश
वामी
रो@@
कदा
विचार
मी
दण
कृतं
लोक
आपका
चल
इसलिए
पृष
आया
पाठ
तु@@
रु
ल@@
खड
ऐसे
रयत
वीर
वो
षित
सा@@
वज
णा
कि@@
षिका
याग
वेद
भारतीय
यप
ख@@
ला
देती
मया
संग
छत
काल
महा@@
गृहं
यु
रहने
दु@@
आचार
सीता
एषा
पूजा
वृत
नामक
रु@@
हमेशा
किस
पवित
अष
को@@
चे
गत
हों
मद
कृतम
यतः
एकं
रिया
चात
यालयस
कृतवान
सहस
बोला
धान
बोलता
षस
रेम
रि
वश
णः
भवत
करेंगे
दा
मुद
रित
बहन
नां
करोमि
ययन
तर@@
कीर
मै
यानि
सञ
ला@@
इ@@
अव@@
आकर
णा@@
थः
तकं
कथं
रसिद
मल
शर
सुरक
सहित
काश
जगत
;
भवतः
थि@@
कृत@@
रुत
परं
तमे
भिः
वायु
बीच
चि@@
आता
अरे
सात
देखता
वल
शस
तात
गः
अप
जगह
वैज
अल
साक
विना
वदा
नाट
उनका
बाल
ं
ं@@
टा@@
भा@@
रवेश
हूं
दिल
शाम
घ@@
गम
रूपी
रीरामचन
परि@@
णं
छ@@
जाकर
छे
सौ
कर@@
जल@@
रम@@
बालकः
भाव
छी
सच
देवता
चढ
कुल
महत
जानते
यु@@
षा@@
रवर
नोति
याय
उसको
वती
चेत
नी@@
जन@@
तवन
यामः
नैव
ह@@
हृदय
मास
परम
बालिका
तानि
ैः
वैद
टि@@
उपस
दः
नाश
खुश
घोड
खाता
भवती
मां
आगे
षम
मधुर
वाहन
कहते
शकुन
&#93;
टम
बहिः
एकः
नीचे
धार
भूमि
दीर
खलु
अति
दं
उससे
तो@@
नो
ती@@
साहित
यवस
शुक
चा
गाँव
संख
गीत
हारा
रतिदिन
गुण
दी@@
दौड
कश
रीकृष
अति@@
रोचते
तपस
रण
दुःख
निन
शुरू
था@@
देखते
उनकी
मि@@
&#91;
तम@@
टं
अज
के@@
याप
नगर
आस
नाः
टः
कति
जि@@
रोध
रति@@
वाद
मरण
दास
वरूप
इदानीं
चय
लेता
षत
अनुसार
रदेश
जी@@
अप@@
राणां
गृहम
एषः
उड
लगे
ठा
गाय
वही
ओ
वद
पीड
दिव
आकाश
षात
खाना
आते
बोले
संवत
नेन
रकट
देव@@
कहता
बस
सामने
सम@@
भू@@
रे@@
वहां
खाते
आए
आपकी
इसलिये
इससे
‘
इव
गु@@
जिसके
केंद
सुबह
उपदेश
राज@@
रामः
तया
वौ
विषये
पीछे
किए
रोग
सूत
तला
पि@@
युत
अवदत
तवती
सकते
करनी
उचित
मक
टर
जैसा
शिव
मे@@
वेषां
केवलं
विभिन
पालन
यता
चंद
रहण
गति
रतीक
आपको
सद
भूत
ङ
यै
वयम
निवास
घ
बेटा
षि@@
सिंह
विप
पाकिस
काः
मनः
कपड
नस
वात
दे@@
जहाँ
होगी
वे@@
भवेत
बना
ो
कितने
यवहार
रहना
ने@@
सुवर
तरम
काले
’
तथापि
पृच
वचन
रवृत
याण
समूह
वभाव
कहीं
एक@@
निद
रतिदिनं
यताम
षणं
षमा
लता
गुरु@@
आयोजित
हन
ते@@
तुष
शोभा
रमः
छा@@
थिति
माण
सिर
डा
भव
तेज
धनम
रजी
षं
जातः
कार@@
बा@@
ई@@
हत
असत
थोड
यश
ञा@@
भि@@
“
ठति
अनेके
सुशोभित
हा@@
मोक
दूसरा
धीरे
इसी
दोष
वया
गतवान
आने
जाओ
ओ@@
आग
वी@@
ए
समा@@
सूक
णन
रायः
ञान@@
रेषु
रामं
तथैव
भय
लब
रमण
जिन
वेष
पूज
लः
दिनाङ
कुरु
किञ
धिमान
सव
यम@@
विशेष
दरिद
दू@@
वां
करेगा
धे
परस
यपि
भगिनी
षां
फलं
बालकाः
हाथी
तार
लगा
घटना
सुप
खा@@
भिक
सरस
गुण@@
केरल
रधानमन
सुग
जानाति
सि
जनः
तेषां
पेड
महिला
पांच
आलस
बेटी
अवस
पा
शा@@
कुक
आह
रप
षिप
चत
एका
थानं
देहि
यालयं
वैसा
चारों
पदार
रथ
गा
डि@@
पाँच
लाभ
पि
छसि
यावत
वारं
लो
उल
देखो
सेना
सि@@
सक
काव
चला
लेने
आक
सामान
यो@@
रणाम
आती
रदान
धन@@
रिय@@
धते
ये@@
एस
आठ
साल
गाड
खेल
जुन
डा@@
गि@@
शि@@
मान@@
तू
तिं
नयति
आवां
नों
भाषण
रिक
माला
पल
अंग
माध
जिनके
धी@@
चाहते
थीं
नई
नियुक
मोदी
तकानि
समये
एतद
केचन
वीकार
गयी
धैर
देवताओं
घड
यकर
कला@@
की@@
जम
नौ
हनुमान
दम
विशिष
रशिक
पः
एकस
ऊर
लाता
लेना
खाने
दया
राम@@
हिरण
रहती
षु
गण
रय
समीप
थिर
इसका
रावण
ची
ठे
हजार
करनेवाला
हारी
रोगी
पं
कृतवन
आगमिष
ाई
सबको
आओ
संयुक
विशाल
मु@@
आचरण
सभा
सकती
परित
अधि@@
बद
रख
खादति
दि
शहर
नद
पतिः
लं
षकः
मपि
रैव
गिर
कमल
जानने
दीप
हार
पर@@
लिखति
”
तेषु
मह
गं
अभवन
सो
यधिक
ञानी
हा
पाप
फूल
पकड
तियों
णु
रंग
‍
शङ
पी
लो@@
राता
यालये
ठः
वरं
शनैः
जानामि
थर
परिवार
नु@@
बिल
र-@@
डी
धु@@
अव
तों
चाहती
निरन
गुणों
विभाग
गृह
वृन
देश@@
कदापि
वदन
कुतः
गायति
एष
आनयति
यही
बोलते
येष
कू@@
पूरी
थना
ले@@
टे
पसंद
वैसे
रथम
कहकर
उष
डे
धिः
थितः
एते
जनों
अतिथि
दिर
जोड
अन@@
हमें
बहु@@
कल@@
जिले
लि@@
गीता
याघ
यू@@
दश
ञानं
रधानमंत
छतु
उपरि
यमेव
नगरे
नानं
जिसका
पु@@
ऐसी
मी@@
पता
कृपया
अपेक
रोक
दश@@
गङ
विष@@
जातम
वदामि
ञः
वरः
यासं
भो
चे@@
नक
तकें
हिन
सान
उपग
जु@@
मों
चलता
राण
निग
हुये
ञ@@
सृष
रामस
भगवन
नरेन
सस
रां
एतत
सहन
देर
ञात
समृद
मिलता
साफ
इसमें
नर
पट
सी@@
माना
पुनर
पूरा
नेतृत
येक
खा
परमात
भस
चले
धो
सेवन
करिये
पठन
महात
अथ
सु
यतु
युः
एतस
गतः
येषु
रमेव
वालों
घास
ली@@
देखने
लगता
आये
कई
वसन
भिन
पूछा
तदनन
इसीलिए
रण@@
रव@@
दो@@
तरे
ौ
णे
यमन
तालाब
रकाश
मिट
हमारा
मो@@
मधु@@
पान
रू@@
नया
रेल
करनेवाले
रशंसा
वर@@
नात
षों
साम
धी
रतिष
तुल
परिवर
णम
रूपेण
वाणि
योः
यच
टवान
मेव
गीतं
रखने
दूसरों
परमेश
इसे
पष
धनुष
सबके
बोलना
युवक
बने
ताक
यग
षय
तैयार
मचारी
रिका
लभ
लज
जीत
विघ
जाऊँगा
जर
रणम
गुरुः
रमस
जंगल
थापित
पैदा
बा
पी@@
रयास
राय
लग
सुना
बु@@
लेकिन
जिज
मय
रुद
काम@@
रीव
बोलने
दित
बोल
पिताजी
धस
गान
चरण
राजस
वेश
करोतु
तूनि
रयोग
आवाज
करा@@
लाल
हल
अं@@
अनुभव
पाण
कै@@
पैर
घी
विमान
यंत
शो@@
दुनिया
आदेश
कों
नता
कहना
आपने
जान
जाए
यमान
मुनि
चलते
नही
रपति
पति@@
सरकार
इतः
तकम
गस
यया
नानि
ददामि
णस
कोsपि
ित
तुत
बोलती
षर
कप
मना
संकल
सागर
नति
चूर
याति
हरिद
निवृत
आरक
कुल@@
हरि@@
मङ
लिख
थाने
वेन
मानं
रथमं
सामग
गुप
महीने
रोत
चरित
शून
बि@@
भद
देह
षी@@
चरण@@
गृहस
काष
मिल
गृह@@
विचक
दीजिये
य-@@
...
मातुः
ठं
ततो
भारते
परिश
ई
थों
हित
बी
सैनिक
नार
सिन
चल@@
यहां
संरक
बाह
उपयोग
कृति
आसक
रजा
आदर
रविष
तन@@
तेजस
येव
तैः
धाः
रामे
कथम
पीने
भावना
षियों
तुति
डर
समाज
कितना
षिण
गौ@@
विन
रीड
मंदिर
बारे
सुखी
रखा
सदस
राणियों
कृ@@
सारे
से@@
सह@@
अयोध
चो@@
मिला
नए
लिखता
रियते
परंतु
सुख@@
बोली
थाय
.@@
ैर
कारः
येत
याने
आगतवान
आरम
सोने
तिक
तेल
घा@@
चीन
थल
निवेदन
मज
चों
षति
खण
कहां
वतन
रमे
लस
अहो
टी@@
नाथ
भारतं
वेद@@
यौ
तानां
अयं
वनं
डू
पेट
हो@@
उपलब
गाती
पराक
सबका
कुमार
छोटा
ठी
पे@@
जड
वै@@
ा@@
इक
अलग
पुरुषों
अमृत
बातचीत
सख
नेता
पहली
सदैव
यकता
वामित
जिनका
दिये
पृथक
रामचन
पौत
हं
काल@@
यसे
कथ@@
पाद@@
कदाचित
वेभ
ञं
देशे
यैव
भयं
दिने
कं@@
फोन
लाली
रह@@
तीव
बातें
कथा
माया
विपत
वयस
पो@@
ै
वैश
भरत
वसिष
रवि@@
चलचित
चलति
अनुवर
यानम
भोः
वादने
अहमपि
गृहात
आभूषण
पू@@
दिखाई
नीति
तोड
जिसकी
नियंत
गार
बे@@
दार
पम
सुनता
शुभ
वन@@
तुओं
मिश
दान@@
जना
उपाय
कच
मांस
हमारी
यादि
रस@@
पाता
तीनों
होंगे
फ@@
जीव
सैन
रिपोर
यव@@
षाः
रहः
तमः
कानि
शः
देशः
अनेन
याणि
यापि
तावत
ददातु
अगच
अकरोत
रकृति
दीपक
लिप
कूल
धू@@
निस
​
साध
धत
भेद
ची@@
दिनों
सारा
दुःख@@
मिलकर
शल
गरम
जिससे
इष
रुग
भव@@
षण@@
जानन
णी@@
रिणा
दद
थान@@
वि
तच
टिः
शयति
आरब
आरभ
मरति
करणीयम
यायाः
पृथिवी
दिशा
छिद
शेष
वाध
उसमें
रविवार
कम@@
अना@@
अंदर
समारोह
जीर
फल@@
मारा
उपा@@
छता
समन
तृप
देवी
जीवित
निरीक
डित
याह
बताया
करूँगा
वेत
इनके
दैत
वने
रुपये
भग
पे
निशा
मुम
नव@@
देशस
नमः
मं
ऽपि
जायते
शयनं
रदेशे
दोपहर
ाने
आना
यापक
दूसरी
शेर
नत
गाते
अधर
शरण
लेन
वतः
कह
मारे
चेष
कठोर
तट
शोक
देकर
विलम
त-@@
देवदत
षि
यावरण
पस
नाय
+
येण
यिष
युवां
आयु
कृपा
मीठा
तरा@@
टे@@
हि@@
नेह
अवसर
रतिद
संघर
पाद
देखना
खाद
सू@@
गी@@
कठिन
बनाता
नाम@@
संन
दिष
ऊ@@
रधान
परा@@
बान
क-@@
रच
शम
अपितु
यथा@@
मृ@@
कृता
जलम
रियः
रैः
गात
भाषणं
तृणं
साधन
समझ
झूठ
मिक
कोट
चौ@@
चु@@
निम
विकास
आदि@@
पहला
सूचना
रहस
रीत
विवाह
खेलते
दिवस
वहीं
सफल
तृष
चलो
पशु
लोक@@
विविध
भी@@
मुख@@
शुष
नो@@
षार
जीव@@
तुएँ
ीं
तिका
नश
यू
फिल
डः
थापयति
चालयति
हसति
अधिकं
दानं
टाः
निवसति
टुम
यूयं
खादन
चैव
भूल
डु@@
बनाने
एकत
किसके
अंतरिक
छोटी
खो@@
हिस
चम
फूलों
बाण
सिक
उम
वैदिक
मू@@
1
तमा@@
साह
ऋतु
तोत
नौका
रारम
फलम
उनको
हँसता
णी
बाल@@
गण@@
यमा@@
शोध
रमा@@
नरेंद
मिति
10
वै
﻿
युष
कैः
वाः
फलानि
पिबति
रीणाति
मणः
छामः
किसान
सेवक
आई
रभाव
आशा
कता
कुम
मुर
शी
घो@@
पूछता
छुट
खट
बैठ
सुंदर
हास
चिह
रकाशित
परिक
दें
ंग@@
तरफ
यान@@
विचित
जिह
लव
भे
ऐ
पुर
विदेश
धावति
अधः
शनं
पदं
णां
दुःखी
टो@@
वनि
अनुकूल
बादल
कड
टिक
किनारे
छाया
मणि
झ@@
लास
मौत
ै@@
दों
ऋषि
राणी
सारी
यादा
आन
समाचार
कहे
कैकेयी
करोषि
रमुख
भारी
पीता
लाया
मीर
नै@@
तिर
देशों
ताव@@
विभा
जाय
महाराज
कृतः
तृ@@
यानां
णानि
गाः
षणम
करः
सं
यैः
पितामहः
तनं
कोऽपि
गत@@
आगत
नेष
नेवाला
तिस
याकुल
एकमात
छोटे
दृढ
बैठा
हजारों
वथा
रके
मुझसे
तुमने
सोना
शु@@
जो@@
पताल
गे@@
सो@@
मेलन
बैठे
भाव@@
सैनिकों
निमित
गुफा
मामा
विरुद
उद@@
डल
छिन
भृत
विशाखा
बल@@
मो
रेक
ऋचा
रवा@@
थस
लिका
गुरुजी
जारी
लान
शय
भवतु
वयमेव
रवीत
माम
माभिः
एकदा
यतां
ऽ@@
षेभ
आसम
खादिष
भिर
तलवार
रुक
भोग
औषधि
रुओं
विपक
कोमल
तप@@
आधार
किसका
जे
लकड
पहाड
अंतर
उनमें
अभिनय
रतिज
हीन
घाटन
बनाया
नीय
पतन
कैसा
खे@@
बाग
मञ
कहने
विजय
शिल
एँ
कहा-
ठि@@
लिखा
योजना
मग
ञेश
रिया@@
इनका
मन@@
शं
3@@
वाग
रसा@@
१
ेन
वान@@
कुण
रयः
रतः
इदं
भः
वयति
थाः
तोऽ@@
सैनिकाः
मासस
हानि
सुगन
बिजली
मारने
नव
उज
लु@@
गले
पदक
तश
छे@@
ओं
दशरथ
रखना
मैत
सायं
मूत
जानती
बोलो
घूमते
ऐश
णि@@
भुक
भु@@
मिथ
तिम
रज@@
गल@@
रत@@
मिलित
दिक
राग
वृष
कौ@@
वास@@
वरम
णेन
थास
तेऽ@@
रेभ
रृणोति
सुखम
रणं
मिलति
पठामि
यानानि
वमेव
कां
जाताः
रिणः
निगदितम
तरिक
निकल
मानव
मोबाइल
ञानिक
चोर
कला
पथ
इंद
शी@@
ताह
शामिल
रै@@
मिनट
संबंध
कुशल
तक@@
तित
वापस
समग
घट@@
रचना
पिछले
कामना
लेख
दना
करा
धारी
जहां
चलने
लिखते
रीमान
आग@@
जिसने
लङ
भरे
फलों
मुनि@@
धिक
तेरे
राजन
अतएव
भि
रीराम
डस
गृहीत
गोविन
चुनाव
इनमें
वो@@
रको
न-@@
सरे
दिश
रमन
योत
मिष
षट
जनम
डितः
षन
सुखं
षरं
समं
टुं
मुखं
सायंकाले
लिखन
रदेशस
थायाः
टुकड
मेघ
लेते
सौन
भयंकर
पूजन
योद
मोर
याज
सीमा
रखते
रोता
जित
शुल
घूमने
संलग
षे@@
संक
2
थानों
षकों
संतुष
अधिकारी
आविष
वादिष
तमान
चै@@
मानो
यकी
नींद
ढ@@
हेतु
दर@@
नियन
हीं
इसको
गुरुकुल
नीच
वागत
ठा@@
ें
कितनी
गाता
गता
भित
रेरित
षड
रखता
कत
कथा@@
गास
सेविका
सखी
सखि
तके
धे@@
कोच
चेन
मनस
मप
माद
वदतु
तमस
रापि
कियत
मधुरं
कारं
कृतस
मणा
नगरं
रमेण
रमाः
कृतवती
नौकर
मछली
मह@@
शासन
धकार
विनाश
दै@@
शांति
हवा
बारिश
बंद
बे
लाख
दुख
आनंद
गी
तय
मानित
आहार
नाटक
तद@@
सहायता
णु@@
मृग
रालय
देखती
रखकर
पद@@
वेदान
राण@@
विकार
लताओं
वं@@
तदर
पाठशाला
बलवान
दिखा
जीता
कृतसम
वनस
नाद
रकोष
तिके
तनम
अतीव
२
तास
एल
अह@@
जति
रियं
रूपं
शरीरं
पाठयति
यानस
निवसन
रमं
रपतिः
मुखे
दिरं
वेगेन
गतदिने
दिनानि
बालिकाः
लौट
टान
जोर
खाया
बीज
उपासना
जय
किसलिए
आँख
िया
तारीख
नाव
साइकिल
जू@@
खेत
अंत
गद
जने
अट
हे@@
ईर
सहयोग
ः@@
कोटि
वध
जाये
मृति
लीन
हंस
तै@@
गं@@
रता@@
वृ@@
हवन
छः
वाङ
देह@@
जैसी
गांव
सरल
षता
डी@@
रीष
ताओं
चञ
दोष@@
पाया
निवर
पशुओं
रणा@@
जीवन@@
जग@@
सदृश
जिसमें
वकर
मिता
मश
खाती
निक
सीता@@
दूरदर
रसार
रशस
अनुज
रय@@
रसे
रभा@@
सहसा
दन@@
रूप@@
अवशिष
मुत
विवर
टस
यित
णि
थाप@@
वारि
षेण
मरन
यावः
जनानां
ऽस
खादामि
मुँह
लगभग
अभाव
जानना
तिमान
वल@@
बैल
तिथि
युवती
घु@@
शा
गल
ी@@
चलती
असमर
अहंकार
किल
अशुद
रू
याम@@
जाया
ठान
समुदाय
जप
दीक
वचनों
करूँ
कट
तल
भेज
तिलक
शीतल
तेरी
कीजिये
जे@@
याप@@
गायन
रभो
नाग@@
शनी
समाचारपत
देवस
बिन
महर
रकी
यमंत
वाम
नृ@@
जनस
गिरि@@
एम
डॉ
कूर
णाम
षते
वारम
गतं
लभते
पठ
आगतवन
षया
धिष
यकाणि
आपणं
भागं
घण
षीण
धूप
आदमी
जननी
बकरी
करण
रबन
खोज
धक
अगस
शीर
सही
रोज
अनुमति
डाल
भरा
दल
पाने
उपेक
शील
कुटुम
भो@@
बाजार
दाता
देवों
यहीं
तेरा
परिपूर
रुचि
परम@@
विधि
अञ
वत@@
ही@@
लघु
वेग
पाते
योगी
अमेरिका
नारायण
संचालन
जाएगी
भारती
ऋ@@
देवा@@
कुलपति
6
5
वति
कात
चरणारविन
ताप@@
दीप@@
%
विज@@
जः
दति
सवः
समीपे
पुरतः
जयति
तमं
उपविष
पितामही
ऽऽ@@
णाः
कुरुतः
पितुः
जीवनं
चलच
थक
अनुसन
इसकी
बनाते
सड
पुराना
चाहे
आधा
लेश
आदित
संजय
योधन
रौपदी
षष
नाक
पीठ
छि@@
बी@@
चावल
पादन
भजन
षेप
रं@@
8
खुशी
काट
नियम
पते
विधानसभा
सफलता
निपुण
महिलाओं
भूख
विग
परा
पीना
खीर
यञ
यायाम
तुम@@
मणों
याओं
विवाद
लोभ
सुनो
वायु@@
दु
वानों
तीक
सुनने
आयुर
दते
साधु
नायक
मुग
सीताजी
अंतिम
करेगी
गायत
सेव
सौ@@
जनं
डॉ.
19@@
जिलों
याश
वह@@
कृत-@@
वृथा
एन
बहिर
याव@@
लोके
नुवन
दूरं
दिरम
भोजनम
इयं
सततं
साहाय
रीणां
समयः
नोमि
ददति
जनपदे
भारतेन
अमेरिक
बारह
देगा
गों
कालः
देखिये
तल@@
शिखर
कौआ
पुल
ियाँ
एं
बक
बीस
अतिरिक
सुनते
भीतर
आशीर
दौरान
डाला
गोल
लों
जिसे
आगन
आयोजन
दही
नमन
नारी
बो@@
तोष
हरण
यथार
यजन
सके
नोत
उनसे
याय@@
टों
पैदल
दिए
राणों
बालकों
कास
चरणों
विषयों
भेजा
धो@@
पत@@
राव@@
यष
महोदय
टो
बुक
निः
आप@@
ठन
तायाः
मनु@@
शनम
मू
तपः
टु@@
पिप
पृथिव
अफ
कोविड
पुरा
भारत@@
समुत
तयति
शृणु
ययनं
तेभ
यालयः
यकम
जिघ
माति
वीकरोति
रोदिति
थिताः
आगतः
थिता
षायां
भूषणं
नेव
दनं
रामो
ञानिकाः
तारः
ाया
गति@@
लेप
गड
शं@@
धनुर
तुमको
डे@@
कोयल
दाँत
हड
डू@@
गोद
वीप
फा@@
ंग
घूमता
रतिक
परे
अतिक
भुत
अगर
यय
सैकड
दोस
उठता
मोहन
रिस
चलन
हु@@
उठा
औ@@
वंश
गंगा
रतीत
ु
वेदों
सूचित
सल
करोगे
मानता
-प
रचित
पराजित
तियाँ
दुखी
जनता
रच@@
भगवद
पाल@@
आएगा
घंटे
राद
भा
वाल
रका@@
टन
ञानिकों
भे@@
रका
साधु@@
थानम
नप
पुरुषः
सिंहः
नाति
णाति
तृ
धवान
चरन
गृ@@
रवहति
बहूनि
रमणं
रपि
पाठं
आगतम
पठिष
जीवति
षणे
रविवासरे
षकाः
दुरापन
मुस
राजाओं
धित
उदर
पच
छित
मोह
उपकार
वीरों
घि@@
साँप
णय
चुम
काला
छह
करोड
दशा
जाग
हासिल
चू@@
अधीन
लाने
णता
राचीन
उग
इकट
पूरे
नमक
अभिनन
छेद
खर
खेलता
बगीचे
नेवाले
टता
विनय
जान@@
परंपरा
निकाल
सांप
मिलते
ि@@
डं
हवाई
तृत
जानकर
पप
ोंके
मण@@
गम@@
गोदी
णो@@
बैठते
ऊष
अलङ
पों
माया@@
कुट
ऋषियों
पशु@@
रोध@@
गो
हति
रुष
पोता
े@@
राधा
दया@@
कवि@@
चि
थि
लानि
कान@@
धु
पट@@
डि
चाण
षु@@
वरस
संवर
यवर
कुञ
वद@@
णो
रमोदी
नूतन@@
पिष
चैः
लाः
युज
उवाच
ताभ
वयि
तदा@@
परः
रुः
छम
यितुं
ययः
षाणि
शरीरे
धिं
वम@@
करं
मरामि
परितः
रविशति
रमणार
कुलं
रयन
योऽ@@
बालकस
नीयम
दिवसे
यङ
बहवः
नहि
नामकः
कृतभाषायां
रसं
माणं
दीयते
डले
तनानि
थया
संगठन
सहारा
भयानक
कारक
यी
रवण
रीति
परसों
जाग@@
जहाज
थन
सियार
खि@@
चली
युग
सोता
परिचय
चोरी
विनी
तंत
ंड@@
खत
समिति
3
कमा@@
आँखों
खिलाफ
हिंसा
मालिक
चाल@@
कवि
याकरण
नाच
मिलना
चते
खान
रहें
पीते
पैरों
बैंक
धाम
पसन
देंगे
रग
याणकारी
सामर
मनोहर
बैठकर
रदत
षिणा
गणना
कमरे
शिर
चस
सुधा
रहो
पालक
पाली
लेती
सेन
कराया
सबकी
इसरो
दादाजी
ठस
वच@@
राश
वाद@@
भूत@@
रद@@
रथम@@
ञस
अधिकारियों
तरङ
सेवा@@
मनो@@
तवत
मासे
मानु@@
णे@@
50
व-@@
नु
जनान
डेन
ञानम
सति
दनम
कानां
तुः
चति
गणयति
पतति
रितः
तयन
वारः
अनेकानि
अपश
नेषु
असि
वादः
उपविश
वेषु
इदानीम
सेवां
आवेदितम
यितुम
वचित
नयामि
मुप@@
पठितुम
गतवती
रालयेन
यनेन
अनार
हट
अधिकार
संगति
मैदान
कूड
ू
रजा@@
रतिमा
दवा
बत
मच
बैठक
कोर
कोण
पह@@
खु@@
बैठता
मतलब
शे@@
अनुचित
/
बीमार
रीम
षिक
रेस
परिष
घृ@@
हाथों
कथन
कविता
अचानक
तू@@
पुरुषार
मानते
रहकर
मिलती
गौ
सोचकर
यतीत
धों
पोषण
चार@@
यको
टक
अरण
यमुना
तकों
किसकी
तवा@@
डरता
शौर
चला@@
माजी
यवान
जाएँगे
पेन
लीजिये
..
लिखती
गुजरात
दुरन
भैया
योगासन
कृता@@
पचति
घोषणा
सरः
योंका
मै@@
धव
दिन@@
कृतभाषा
पङ
ि
4@@
गोप@@
पीत
पेक
डो@@
शैक
वारे
जस
तुभ
१@@
वाञ
धृ@@
यै@@
सूच
संवृत
कृतिः
कौ
चः
दूरे
रिः
तरति
उपविशति
आरोहति
औषधं
माणि
हतः
यकं
तोऽपि
तदेव
जले
आनीतवान
रिकां
आनयामि
लप
टव
यमस
यि@@
लिखामि
कथ
भूमौ
आगतवती
डलेषु
ंगे
पाई
पापी
तालाप
पुराने
कराने
उदय
बनी
लगातार
ाता
कुन
किसने
जेल
तकिया
पंक
धम@@
रेन
ंद
छु@@
ंश
टिका
तरी
सिं@@
मुहूर
विनम
तीसरे
अपूर
विरोध
यके
अकेला
षेपण
अकेले
जबकि
गाने
सुखपूर
कौशल
दग
मेल
गाना
रहार
नाना
रीडा
लिखने
गांधी
विवेक
भूषण
महाविद
लेखनी
नगरी
हँसते
धना@@
वहन
कमल@@
नाशक
कही
विभक
महोत
ंस
भट
गमन
राव
घृत
वधर
गिरा
वें
करूंगा
तूने
जिनकी
तारे
मणो
नाना@@
लाती
कपा@@
जयन
केश@@
लव@@
यें
षयति
गुह
रङ
षतः
थियों
30
रियां
5@@
भूमि@@
वस@@
शो
पिण
३
६
तना@@
वते
तथा@@
8@@
निध
रीं
कलि@@
शिव@@
शृङ
मनो
चान
रियम
रभृति
जितम
योगः
केषु
ठम
धनस
मनसा
टौ
नानां
वनम
दपि
पाणि
वयोः
रूयते
तये
मनसि
करणीयः
भुवि
वमा@@
मोदकं
रातःकाले
जानासि
विधास
केवलम
रहं
वीराः
थानेषु
यालयेषु
धावनाङ
अनुसरण
कारी
बार-बार
आकार
आँखें
हितकारी
सौम
दुकान
दुश
सोमवार
णिमा
समापन
लगी
टेन
गुड
संगीत
लन
वजन
दिखाता
इधर
संपूर
इतना
लिक
पाल
वितीय
थापना
उर
मौ@@
एकान
कंपनी
सामाजिक
मति
सहायक
धातु
कीचड
कीमत
लू@@
ठण
घट
वीकृत
वाह
कृतार
सौभाग
जीवि@@
मुझ
7
4
आं
ढ
देख@@
बुलाता
ोंसे
दनन
नये
कफ
संज
विपरीत
पीले
अनर
लघु@@
ताप
दृ@@
मरण@@
अवि@@
वानर
काय
जाओगे
लाते
औषध
देवर
धता
जीते
एवम
अँगूर
काशी
असम
ेंगे
मणि@@
हिमांशु
घरों
घायल
कृतज
बई
राध
लॉन
गीता@@
....
याग@@
मानस
खल@@
संसारमें
योंके
गुणा@@
रोंसे
यव
देन
अड
कौसल
7@@
भय@@
करण@@
आहत
नम@@
डॉ@@
दिवसीय
ऑस
वाप
याध
योगि@@
ठत
नग@@
हसन
भरतजी
राणाम
षुः
कया
अकुर
मयि
वासः
चितः
तिथिः
देवः
यासः
जितः
सां
धया
कारणात
वितः
हितं
हृदयं
रीडन
वरेण
तावद
मृताः
पठित
दिकं
यायां
येते
नोचेत
भाषायां
बिभेति
वकीयं
नुमः
वपि
कायाः
यदाकदा
टानि
षायाः
वकारेण
साढ
संकट
भरी
लाई
चलाता
साड
रमी
ंसे
बाघ
गली
थाली
यं@@
पल@@
जाल
मिर
छाल
चम@@
तारा
कदम
मं@@
गुणा
लोहे
थू@@
हरा
तीस
टात
पहचान
कमी
अयोग
वपूर
वोच
खुद
एकता
रभु
इतिहास
चारण
वों
शूद
वेक
डन
जाति
सास
छो@@
अपराध
धृत
ऐ@@
बू@@
बाढ
किशोर
कोष
भीर
मौन
विचरण
निकट
रातःकाल
है-@@
उपद
रकर
समझता
है@@
तभी
जय@@
सरोवर
थैले
मीठे
निकलता
गायों
चुके
यका
साङ
उठकर
शाला
येषां
सुनाई
ँ@@
हृष
दीन
अमृत@@
भोक
थो
ऊँगा
ेगा
सेर
बनाती
सर@@
समक
दात
जायेंगे
निरा@@
रदूषण
रीलंका
आईये
मूल@@
देखे
दिवंगत
गईं
जगदीश
धाञ
वातावरण
रीमन
मुकुन
मने
रमेश
धाव@@
थित@@
माप
वैराग
जगद
भास
हृद@@
पदे
रुप
एस@@
फरवरी
तः@@
बलि@@
परमानन
५
रीरघुनाथजी
मणजी
नमो
भारतम
गोष
राभ
योर
9
कुमा@@
वसति
जना@@
वाच
वञ
बध
आसी@@
षो@@
रेव
माकम
वीक
तमम
नरः
डम
कासयति
रमे@@
मिव
ेषु
युवकाः
आनय
विलोक
विचिन
छाम
तोऽस
गतिः
मातृ@@
तयः
तालापं
चलिष
तुमिच
आँग
चं
ताराष
तिम@@
संचय
चुप
षुद
बोलें
दरवाजे
आच
जीवों
रभावित
रपद
भोज
किससे
खरगोश
पो
गुरुवार
ाना
चोटी
ंस@@
कबूतर
लू
जरा
रदा@@
मोटा
रेखा
कुश
खरीदता
पापों
हथियार
निंदा
उपवास
सोच
विलाप
सुस
छू@@
संदेह
षसों
म-@@
रेरणा
मजबूत
शरद
अनुसंधान
अनुष
मामले
गिनती
कूलों
यवाद
टेशन
कुश@@
विदेशी
अ
पुरानी
अनुग
तुतः
जग
ंक
पैसा
आपस
दादी
रचार
ठित
विहार
यापिका
ाते
लगती
नीम
दूँगा
दूंगा
डो
विशेषज
हर@@
भाग@@
मद@@
करनेवाली
ियों
जीने
यामवर
भाँति
खोल
रेय
वय@@
अल@@
अभि
शीत
तैर
बना@@
हृदि
विराजमान
गुणी
मनाया
चतुष
राजा@@
ऋषि@@
विषम
अखिलेश
रयान
अमित
मिले
गौशाला
मृति@@
यापार
षितः
शू@@
गुल
योग@@
जगति
शे
वाराणसी
गंगा@@
पाप@@
ल-@@
रणे
वार@@
6@@
तुर
9@@
अमेरिकी
भूकंप
जनार
रथमतया
भाति
रियो
षाम
मति@@
समीक
मैच
वायरस
वारि@@
जटा@@
ञानि@@
सहा@@
रसङ
वना@@
मयः
गताः
हितम
यहं
रियाः
वायुः
परश
रतिदिनम
वेषाम
भूमिः
याङ
यजति
विंशतिः
येभ
षितम
हसि
मनि
रितं
इमे
यमेन
एतानि
धावन
भवता
ञो
नाऽ@@
पुनरपि
रयं
चयः
रोऽ@@
भं
पतिष
यदा@@
चिद
थितम
थानस
देशं
शाकं
दरं
नगरस
नामानि
यतो
याऽ@@
यादयः
समारब
चीनस
धानि
धरती
रहों
सरलता
पं@@
मानसिक
सोचा
रादि
वात@@
रोना
पना
शिकारी
चिड
चैत
तं@@
कना
कारा@@
बं@@
खी
करो@@
तिर@@
रखी
आलिंगन
ार
परमाणु
अवर
तरी@@
रिश
मानना
चिंता
ाकर
नायिका
भीड
जनक
बातों
बह
नदियों
मंगल
गला
चिदानन
दोषों
उपभोग
लय
लाए
कैसी
होवे
रवात
मनन
बनाकर
वासी
धारा
संयम
राग@@
आधारित
लोकों
नय
विक@@
दूरी
रथ@@
वोत
रासन
निज
रैलोक
तैल
गुञ
यशस
लें
मुंबई
य-
साग@@
यहम
णचन
पीकर
सबने
डल@@
आपत
पितामह
मदद
यवेद
तरः
योज@@
भुज
परिसर
दूकान
दादीजी
सतीश
परिस
नीरज
दूरवाणी
षिता
बर@@
रध
सुमित
सुरेश
राजधानी
ताड@@
लोकः
शार
युधिष
रमें
योंको
इनकी
षो
धात
ो@@
माधव
रमाण
महेश
संप
.....
रफुल
00
लै@@
थाप
नील@@
होनेपर
सभा@@
उदा@@
अतिवृष
विधि@@
अपा@@
कांस
यका@@
22
वरा@@
षिण@@
रतम
ठतः
तूष
षये
इह
गतम
तयोः
तेषाम
आवाम
मभ
शिरस
बः
कुलम
रकाशः
रीणि
भूतं
छेत
यातः
इतस
शत@@
बलं
अवतरति
दनः
गणे
खादामः
वितीय@@
समीपं
यजेत
गुरवः
ञां
बालकौ
छतः
विषयः
वाऽ@@
यमानः
चितम
विहाय
थां
वदिष
तदानीं
यायं
अपृच
आनेष
बालकं
लोकं
युवकः
नूतनं
आयोज
महिलाः
यमानं
३@@
समित
विविध@@
खों
बहती
मशान
ऊँचा
बोध
बनाई
जांच
सुनना
मालों
खिलाड
वारपाल
नाई
टमी
बूढ
शंख
थैला
जला@@
ंके
धारित
अशुभ
गुरू
वेतन
अभिव
अधी@@
शुरुआत
बदल
अमर
आधे
युवा
अपर
रेज
रेजी
कवर
अंश
ईंधन
संबोधित
पहुँच
विकसित
1@@
सफेद
सचिव
सांस
समा
तौर
ञाता
समझना
री-@@
शपथ
थका
जं
बनाए
लेश@@
कहलाता
अकर
रयोजन
हमने
रहेगा
खल
फु@@
पुराण
लगाने
वाभाविक
रियाँ
रौञ
णों
मयी
लीला@@
रेम@@
वनि@@
ाती
विवरण
निशम
जायेगा
भाषाओं
आवृत
शाश
सूख
षाप
यागकर
महती
एकाकी
रुघ
चतु@@
रोटी
ताड
आख
समझकर
कहो
मुहम
समेत
याल@@
लेंगे
अविद
रमिक
सैनिकः
दरी
रिकेट
टूट
ँ
शाक
रुति
कट@@
भर@@
मल@@
खिन
दल@@
शीत@@
किंतु
कफ@@
बगुले
महाराष
रशासन
भूकम
युव@@
सिंह@@
रोग@@
नदी@@
तको@@
भाजपा
दौर
मातः
ोंका
दशा@@
शन@@
तज
इदम
मुष
थो@@
डकारण
अटलबिहारी
11
विधा@@
मही@@
योक
भाष
तराखंड
भज
वायत
तिका@@
वाश
जै@@
निवा@@
नर@@
नीया
यापा@@
तपो@@
यप@@
ङ@@
कारि@@
कुला@@
रिंशत
मृतः
ञातम
रती@@
अजा
अयम
रीडाङ
चिक
बृहत
रीडति
वहति
रमति
तारं
धौ
कोऽ@@
मेलनं
नपि
रभुः
षान
सेवकः
दिव@@
कीदृशः
भूतानि
दशवादने
मिदं
पला@@
गृही@@
माः
कृति@@
वचः
छं
भरतः
दीपं
शोभते
थापितवान
कृतप
गतवन
योऽपि
ताश
महोदयः
भूतपूर
कृतविश
कियाँ
अकाल
रुता
छी@@
ढो@@
चुका
वीरता
खेद
जमीन
विधान
आध
कुरुक
मुझको
मशीन
पंखा
नेवाली
छाती
ंत
तड
बाज
करी
जात
टै@@
विच
यूटर
सूचक
भरता
गिनता
घूमना
वतंत
अनुमान
नुकसान
रोह
योजन
णित
थिक
फेंक
अहिंसा
बैठने
उठो
पहुंचे
नेह@@
ऋण
षमता
शय@@
हरे
ठे@@
संतोष
वय
बुरे
कपट
15
शाप
रूर
सभ
लिखना
हाय
मोद@@
योति
धूर
सदाचार
भावों
शरी@@
धीरे-धीरे
10@@
हरि
वैसी
गणेश
चलाती
रौ@@
लाओ
जवाब
रोहित
यावर
तिरस
पाकर
तुलसी@@
विभूषित
याण@@
संग@@
रकाश@@
टू@@
फैल
ययन@@
गिरते
भोजन@@
तें
दूत
याँ
ताय
कह@@
यासी
दंड
मर@@
सित
रोते
विजय@@
रमते
पली
मरने
मारकर
यामास
ौ@@
अनुस
यनु@@
वज@@
मुनीश
सुजाता
महिलाएँ
वाह@@
कुहू
गढ
गौतम
मीटर
महि@@
खरीदती
जलि
मतदान
राजीव
वायनाड
राजमार
वाधीनता
लिखे
वसु@@
रूक
सुर@@
जानी
तैल@@
नय@@
सुश
अधिक@@
वाय@@
विका@@
तायां
होनेसे
काश@@
थी@@
दौ@@
सावित
तीं
कारण@@
गृहा@@
गावती
नयन
शयन
लिङ
सुक
मार@@
चातुर
आधुनिक
हमले
संसर
बोध@@
हृदयमें
विना@@
जिनेन
शित
धाय
रुत@@
साकं
तला@@
सुविधा
आशङ
निदेशक
लेख@@
20@@
रेलिया
बला@@
लुब
रीबाबागुरुजी
विशेष@@
योन
धने
रुध
रोद
हृत
मानः
धेन
यभिज
केभ
रामम
मकरः
तकः
शिरः
णुः
बलम
चलनचित
रमि@@
पयति
लि
वचनं
षितं
थितं
वापि
समु@@
षाणां
वेदः
सुखेन
चितं
ञाः
थितवान
तेः
युर
आकाशे
कालं
दातुं
तीरे
विशालः
केनापि
दिरे
नोप@@
पाठ@@
तमे@@
रुतम
पदः
धनः
भगिन
मृतम
सोऽ@@
पुन@@
वमपि
षणाय
पतितम
जानी@@
मरिष
यकः
कथञ
शने
रयो@@
एकां
याणां
लिखितवान
यमपि
एकसाकं
आदिनं
कारयति
गीतानि
भवितुं
जीवने
मयं
नाहं
वमे@@
समाश
तीति
यकन
३०
महं
बैठना
धनी
खिड
तविक
तिरंगा
रंग@@
तेजी
आमन
आगमन
पका
पने
लगने
दाह
बचा
अपवित
मचर
वव
सेना@@
तार@@
गिलास
रवार
जीभ
चोंच
ंड
ंगी
पै@@
बोर
भुजाओं
लेखन
चिम
साहस
सोचते
ईस
जला
आरोप
फार
बंधन
अनुवाद
सूची
जुड
बै@@
देखें
सुखा@@
अलावा
पुलिस
अवतार
तिशाली
उदार
रवाह
रणव
चीनी
संसा@@
थिरता
माने
संदेश
बराबर
आयु@@
रेत
गुस
बम
सपना
खेलने
वतों
अभिप
रुप@@
भयभीत
अभिमान
हरिण
जितना
ण-@@
गौरव
कौए
लंघन
यावन
नौकरी
आऊँगा
भूमिका
मिलन
चिल
आलिङ
बुढ
चित@@
शूर
पहुँचा
गिन
रमर
रितम
जाएँ
सवार
अग@@
लित
रोती
रोधित
यसन
कहती
अपरा@@
चना
थ-@@
रया
शोथ
आव@@
सुनें
मरे
उपर
सावधान
दाक
रजापति
बालकेन
लिखो
रसोई
पिया
रया@@
रीधर
खाकर
रेलगाड
आफ
देवराज
करु@@
भवद
फे@@
शायद
वधू
लगाया
अनुपस
आएँगे
कैलाश
रधानाचार
वांस
भोपाल
सुव
खाएँगे
रीराम@@
भानु
देशभक
भारतीयों
आहुति
विनीता
संसद
रतिवर
राचार
वादन
ंच
मृग@@
लिष
नेसे
वाय
शैत
यायः
योप@@
मना@@
मानि
अने@@
सक@@
षिणी
याया@@
टने
लता@@
सामा
अहमदाबाद
षद
0@@
16
भूस
पहल
रुति@@
तरु@@
दके
नूतन
रभा
ंकी
रित@@
पुरा@@
पुरुष@@
अती@@
एका@@
लेष
अहर
ताम@@
शना
राजीवः
रहा@@
नाश@@
पिक
मिशन
अकादमी
उपराष
थे@@
बुध
मालिन
उदग
यां@@
जाल@@
--
फलस
रीडा@@
हित@@
विराजते
पितृ@@
रिष
रोण
अवाप
रिन
यद@@
पित@@
असु@@
अजा@@
ञानस
इङ
धिर
मानम
यपः
परो
रीड@@
जाः
यनम
वानरः
यूतः
थूलः
षालयति
पृशति
ठाः
तरन
येति
विजयं
अनेक@@
रिषु
यथ
देवं
पाः
भवामि
कारणम
रेषयति
भारः
भूषणम
मातरं
गुरुं
अलम
रभवति
वरूपं
वीकरोतु
एतौ
कृतान
शिरसि
दयः
सोऽपि
पठितव
रूहि
शनात
धनाय
यमाना
चापि
तमेव
धां
जलेन
रथमः
काक
केरले
रयानं
जनपदस
निवेदयति
नीरजः
चनं
योगासनं
भारतीयाः
रमेशः
धायाः
यैर
गुणाः
माद@@
चेति
ऽनु@@
केरलस
१९@@
तराखण
बि
हाड
बहा
कीजिए
बेटे
ढका
बताओ
धोने
चाहने
दं@@
थायी
डु
तुमसे
आय@@
तकी
रिम
तिल
खून
तकालय
चं@@
नासिका
कद
चाक
काटने
बाहरी
तैरता
पीला
गंभीर
पैसे
पादक
कोशिश
देनेवाला
अपहरण
अगले
उतर
समाधि
महिमा
गते
लं@@
इं@@
जनसंख
जागरूकता
तुरन
रमित
थाओं
तेमाल
विवा@@
मता
रोकने
ंका
शंकर
खन
हिमालय
बनता
बृहस
फि@@
पौ@@
खेलना
बुखार
दादा
रहर
भला
परिषद
दाल
टियों
यवसाय
माता-पिता
अपमानित
आकृति
मानती
जाएंगे
दीजिए
रीमती
कराना
आपसे
मठ
भू
ऊँचे
सार@@
भार@@
डों
अरुण
नाभि@@
दरता
जितेन
निवासी
इनको
पीती
बुलाया
गाया
वलम
कारों
आद
शहद
वचा
मिलने
पाक
रहणी
साथ-साथ
कनिष
सवेरे
पूछते
बहुधा
लाहौर
रवीण
यता@@
दिखाया
खाओ
णुमित
पेड़
ठी@@
जगन
गीदड
यजुर
रधार
रिणी
यशः
रयुक
खरीद
आतंकवादी
ंको
निकलते
दुल
दिख
पूछती
गणि@@
राहक
हान
जया
येश
दिता
नीलेश
कृतकार
लोकेश
नौका@@
रोष
संदीप
तले
आयी
विकल
वैष
रिका@@
वाटिका
गां@@
रतिस
कारा
ठिर
कदा@@
षमा@@
दुः@@
कुसु@@
जृम
षेप@@
मदा@@
थूल
विशीर
तण
इज
रबुद
शूल
पाश
फले
सेव@@
पन@@
आयुष
रोफेसर
मीडिया
हिमाचल
नके
पदा@@
रीय@@
देवा
४
८
विधिवत
योगस
मंजुला
याभ
टाटा
चन@@
राणा@@
कण@@
रवक
पहुंच
जापान
पुरम
टेडियम
यूक
कांग
12@@
रिट
रोवर
वजस
यश@@
वामिन
मृत@@
रकृति@@
यास@@
कालि@@
राह@@
गाम
ऋद
विनश
ठो
वाण
विभा@@
जयेत
वाचा
ताया
शतम
रसम
रणानि
ञाय
करम
एकम
जनन
भाषणम
कुरः
वासरः
यजनं
रकम
अधिकः
भवः
काङ
यय@@
आङ
हाः
आविश
बेन
सकः
ैव
मतिः
वैः
कारेण
थापय
यमाने
हरति
दिनम
निह
दुकक
युप@@
वानु@@
देवो
यानाम
यालयात
पिबन
रचलति
णात
बभूव
जनैः
दृढ@@
कालो
धुं
णीं
ठामि
पिब
रमम
बालिकायाः
दुःखं
महे
यकानि
रीणन
यानेन
वीकुर
नूतनानि
तालापः
भारती@@
कारणं
आपणे
पुरे
बालकेभ
यालयतः
रेरयति
वेव
घाटनं
वकारस
भारतीय@@
हृदये
रो.@@
५०
११
रीलङ
२@@
झगड
कछुआ
शराब
आपदा
माधुर
रते
आशंका
विसर
अनुरूप
शारीरिक
जानकारी
धृष
जननियों
ऊँट
पसीना
बैग
आजकल
धोती
बोझ
यायाधीश
चालक
विदूषक
गायिका
चेहरा
बलि
बछड
मगरमच
कीड
मधु
ूर
अम@@
झा@@
रवि
चप
लाल@@
रिकॉर
टिकट
गेंद
सने
नल
गिरता
सवा
सोलह
निधि
चेतना
खराब
विशुद
बेकार
परिणाम
संतान
पादित
अवशेष
अचार
आँसू
बह@@
बीमारी
वरों
दयालु
दुकानदार
वीं
वासन
मेहनत
उठाया
नू@@
तीय
सती
संपत
संबंधी
टिका@@
वसा
वाति
अनुराग
भात
शोर
चलना
पती
बुरा
सफाई
खूब
विख
वेला
सुहासिनी
होली
बदला
शिशु
मीठी
विनीत
आशा@@
एगा
आधा@@
चूहे
घे@@
रतिबिम
चलाते
वेच
बुरी
रोका
कोस
निवारण
अनुकरण
हीरा
पूछने
मुखम
एकाग
कमलके
पके
हिंसक
मवर
नील
कप@@
बहुमूल
वियोग
खाये
विता
ोंको
ओष
किरण@@
जरद
डरते
अवतीर
शिला
मुनियों
कटु
अनि
इनसे
धनों
कुटि@@
कानों
बहिन
जिनमें
धर@@
पकाता
यमराज
नकर
काटता
हनन
पतिव
कज
मूढ
मामी
ड़ा
वला
जिसको
घुस
वाज
ध-@@
वरा
उठ
कोलाहल
मिठाई
खरीदते
वेदा@@
यशाला
अतिथियों
मारक
येगा
रामेश
आवेदन
रवचन
गमनागमनं
गुरुओं
दिनी
रेता
गृहिणी
वेल
षासूत
सुयोग
यालयों
टिप
सुमन
तिपत
वां@@
कुटी
खबर
सवे
मेंसे
योंकी
अण
विर@@
कोप@@
वादि@@
ोंकी
पंच@@
हुईं
निमेष
इम
घाटि@@
भिण
गृहकार
परिचर
निय@@
टीम
अभियान
फाइनल
रांस
खलन
नेके
तिपूर
यायन
करुणा@@
कुमार@@
षके
सेवित
साध@@
नचिकेता
चिता
भली
९
रघुनन
पीताम
रघुश
सूच@@
रसारित
बाबा
रमो@@
मशास
तटरक
18@@
नीं
तने
मिस
सितंबर
डाॅ@@
रतियोगिता
2@@
सामना
दार@@
थेन
राय@@
विरक
१२
नीत
रपा@@
यमे@@
निःश
लोष
असक
वासस
याद@@
पात@@
करि@@
रिताः
यमः
गमः
टेषु
नाव@@
ताभिः
काभ
रामेण
कृषकः
धानं
गुष
भञ
वादश
शुश
वकं
शात
रणाय
जायन
वितीयं
संसारे
सतां
समः
समुपस
रशः
थिनः
मृतं
हतं
कपो@@
कुमारः
पदम
पाठः
पितृव
दोषः
मातुलः
पादयति
भवितुम
यादीनि
वनिः
माश
ञप
रमपि
तपो
मोहनः
उपविशामि
निज@@
कमपि
गां
षिताः
कियद
मरणं
बालः
वेऽपि
तिकम
रिव
तेनैव
तनु@@
तवः
ततस
रवः
तयत
भूमिं
पुरुषाः
चकार
लानां
वागतं
कदाचन
टेः
देवाय
रावणः
मितः
शाकम
यालयम
षणार
ञे
पिबामि
तमा
नौकां
लोकयाने
पुरं
पितः
रृण
धायां
कृताध
दिवंगतः
लोकेशः
थापयन
चै
षामन
योगं
यालयानां
वासं
विमानं
गेषु
एतादृ@@
गुणं
यी@@
नुसारं
विषं
रभाते
रथमे
वासो
रथमस
रीडायाः
४@@
जनपदेषु
२५
नवदिल
फेब
लायां
मेलने
२२
भूमेः
गरीब
झंडा
लियाँ
उठाना
भरना
नदियाँ
विषाद
रभावः
आरोग
किसको
दीवार
फाल
रानी
अभिनेत
नाखून
घा
स-@@
कालीन
केले
दू
लने
तुलसी
बेल
पुच
सीढ
मां@@
विभाजन
खाट
पेंसिल
अभिवादन
ढक
लिन
सेल
निकालता
आवरण
काटना
सफ
हज
संयोग
अथ@@
दिखा@@
देखी
अनिश
आंदोलन
मीद
उप
तुलना
लालच
विध
मौसम
समझते
मांस@@
बेहोश
सूरज
झु@@
ान
भागों
बला
ओम
शांत
सनातन
छुक
ससुर
मोहित
संघ
विधा
संदर
संपन
सांख
24
उपाधि
थाना@@
मिलाकर
धन-@@
बलता
तरा
गुच
वादु
पढ़ते
जयंती
कहा@@
गू@@
अखिल
आभूषणों
अपमान
नग
विरो@@
याचक
नरक
ञता
तुझे
नं@@
कौन-सा
मिली
एयर
उपन
ऑ@@
चंचलता
उठाकर
लीला
तपा@@
कमलों
दिखता
कङ
रोंके
आह@@
जेब
दिशाओं
समानता
संचार
समझने
दारिद
जानो
धावस
केश
खाली
रमशः
घोर
अभिलाषा
कवच
गव
बनाये
राशि
तां@@
विशेषता
इस@@
शृगाल
वलित
सोया
नवीन
भोग@@
ट-@@
तता
तृण@@
चेतन
आका@@
शोभायमान
भग@@
वाम@@
रवास
चुना
ककर
माल
कमण
खोदता
रकाशना
सारस
मुकुट
विन@@
यशास
रणी@@
हार@@
देवेश
सों
देवता@@
रशान
मरामायण
रादुर
वग
नख
चाय
अवरुद
चलाने
हँसती
योगिता
गोपाल
नाचते
राजेश
पुरातन
शु
मोटी
भीमजी
गमय
शिखा
मातरम
यवाक
इतने
पढता
वरदान
मोह@@
योंमें
जनो@@
ओंके
आहा@@
भांति
समत
वङ
शंकराचार
पूजित
यापन
सदा@@
बङ
जते
सै@@
यूब
सतर
भारतवर
मजा
षीय
मैथुन
मकरन
द-@@
घन@@
पुरुषको
नान@@
णको
नमें
भृ@@
गोपाल@@
शुभ@@
वाणिज
दुरा@@
त-
कटि@@
रको@@
अपत
कटु@@
मातु@@
यति@@
ऋष
दुन
अहङ
समुच
,@@
रिटिश
*
आंग
सौख
तथ
दप
दिना@@
वभाव@@
औषध@@
इ
बाहु@@
होंनेन
यानपूर
20
हिं@@
मवि@@
रजत
रौद
12
एन@@
बकम
घूर
भाषण@@
नीति@@
पुरुषोत
पुरी@@
कटा@@
पिता@@
अहल
रीति@@
रभ@@
किं@@
नामके
आपलोग
याच
या-
नाथ@@
वशिष
सपत
काञ
राङ
तदन
रिपुः
वपिति
करणम
मोदकानि
ञायते
उपासते
यत@@
निशं
हृद
भावः
कयोः
धानम
नमा@@
शिशुः
पादः
नगरम
तमन
गुहा
मृद
नतः
खनति
हितः
धिक@@
चदश
अतिथिः
ययं
वानां
संशयः
षयः
धानां
ईक
मूलं
तूनां
एकेन
शतं
णयः
तवर
तितः
भवते
साः
दुत
येद
नाति@@
सूचयति
पादाभ
नमामि
नूनं
रीडायां
हरिः
ठतु
मृतवान
गाढ@@
दरम
तेषा@@
गृहाण
सखे
ततोऽ@@
शोभनम
विमान@@
मुञ
गूढ@@
शृण
रोहितः
षुत
दाः
भूता
आरभ@@
यावद
जातु
देष
ञम
मिच
जिता
रमत
मुच
ैश
पायसं
गमनं
जीवनम
गेण
रविश
रूयात
सीतया
करोत
पाठशालां
ऽहं
पठितुं
गतौ
वचिद
यामेव
भवने
नापि
कैलाशः
सेनायाः
गृहेषु
यूते
दिनद
रयासं
टवन
गायामि
भगिनि
धारयति
णानां
विषयेषु
शकाः
मितानि
भाषायाः
टयं
विनष
थानां
तमासीत
तिमे
गुरुवासरे
दलस
मृते
महोदयस
षेपणं
कणे
षकाणां
१०
खो
खरीदा
अनादर
ढा
भालू
जागते
पीया
दैन
रलय
परलोक
सोते
चने
रमों
घरेलू
फू@@
अवज
डव
विराट
दोनो
बीता
सना
सुनार
भेड
बगुला
पलंग
बुधवार
शनिवार
महीना
रोशनी
वीणा
अभिनेता
गाल
भौ@@
नाभि
कमर
अंगुली
लियों
गदा
चूहा
जंग@@
नारियल
फर
चिम@@
रयोगशाला
ेद
आंतरिक
रियाओं
बलिदान
अनंत
रपत
निरंतर
अनाज
चुरा@@
रशंसनीय
अंक
रल
ताव
अलंकृत
तरीके
अविनाशी
सुसज
गुना
वंद
आगामी
माओं
मौजूद
जिम
उदाहरण
उपक
याता
ऋग
तूर
सींग
माननीय
संपर
साधारण
घोषित
संगोष
आराम
गहरी
राइवर
धांजलि
सौंदर
अंगों
नोट
रीन
चट@@
कां@@
रहम
खिलौना
रब
जवान
कठिनाई
जूता
पीडित
भले
याचना
परामर
तैयारी
सायंकाल
यावान
उपनिषद
किंचित
सुपुत
करवा@@
सांसारिक
यशाली
चुपचाप
महापुरुष
घूम
रमादित
निकलती
इतनी
मिलेंगे
करी@@
रामा@@
लते
शरीर@@
वरे
यपुत
रकाशमान
रोंको
भङ
सुधा@@
भयङ
वाभि@@
रताप
निःसन
विचा@@
धारणा
सतत
बचपन
धनु@@
लेपन
नपूर
रविद
बाणों
यटन
समझ@@
थप
सुनिये
यासे
जं@@
ष-@@
षतक
लग@@
दिशा@@
रचारक
ओष@@
विचारों
ढा@@
गुम
ददा@@
रमणीय
धोता
संशय
लेगा
बेर
वामि@@
खाएगा
रामायण
धीमे
पूजा@@
मुझमें
गणित
अभिषेक
मरा
रसों
शनीय
थैर
रघु@@
रेजों
मदिन
संध
उतना
जलप
दाने
शाह
कूजन
मेन
याधि
धति
सदन
रियंवदा
लिखित
कुले
कोल
वेता
समाज@@
विषय@@
पुरी
रवी@@
मानि@@
गिरने
अनसूया
युगल
चर@@
थिव
वीर@@
भाषा@@
कायां
वीपर
औष@@
रोंका
देवे
माण@@
ऋतु@@
पीडा
ओंको
रोंमें
दाह@@
विजया
जटायु
पथ@@
अनित
सुहृद
योतिर
अज@@
लगाकर
देदीप
शोभन
मुर@@
थु@@
षको
मका
साह@@
वरिष
मयू@@
परमार
उपासक
हादसा
हैं-@@
टूर
हंस@@
समदर
वती@@
जीके
करनेके
वशमें
नेमें
राणि@@
भगवत
चोर@@
संबन
मुगल
देवव
रामकथा
वेदकथा
शुध
धनि@@
परे@@
हिमाचलप
शिनी
जुलाई
जत
याधि@@
भेद@@
दितः
14
पाय@@
बौद
कोणे
वैक
राजनीतिक
सतह
रीका
जलस
ऑफ
आउट
राउंड
केर@@
यावरण@@
आयोज@@
रचलन
वता@@
शुचि@@
कठि@@
ंश@@
मृदु@@
गुहा@@
यस@@
भगवति
सहते
दम@@
णप
जरा@@
पठ@@
विपर
कुली@@
लात
समे@@
रिवर
होरा
राणान
डवत
लोच@@
वलोक
रल@@
ठजी
विद@@
कित@@
पाक@@
वकार
जनपद@@
यमु@@
वादश@@
दानम
शरीरस
ृ@@
जयः
धवः
यवहारः
बुभुक
यामा@@
छिष
दातव
भयम
नृपः
आवयोः
हः
रजः
रोधः
यापकः
धरः
थलम
दुः
पादरक
तिल@@
दीपः
दोग
घाटयति
षिपति
भृज
लिम
नेहः
दिनं
अनुबन
धयः
भवं
आपणिकः
उपयुज
रतं
वसिति
कृतशिक
भाः
यवादः
धुः
सृ@@
ननु
मेलनम
याचते
लुण
थलं
बं
णान
लाभः
रुतं
तपसा
उपविशन
उपविशतु
एकवारं
नीयं
नायां
चालयन
कृच
नीतवान
तराणि
धेः
भूतः
षयिष
दिभिः
षयन
राञ
रविशन
यामहे
नीय@@
शाः
यमानस
तेष
कोटि@@
मुहुर
चरः
पातुम
देवाः
वाच@@
मेण
रयम
मुनिः
तैलं
निरस
षाफलानि
नीयः
दूरवाणीं
समयं
लेषु
खादतु
चरणस
परिसरे
लां
जलिं
सालये
षायाम
यूतं
खादितवान
रमिकाः
आनीतवती
वीथ
डाः
परिमितं
लगति
वादनतः
मातुलस
रेलयानेन
याना@@
कृतभाषायाम
कारस
थमेव
मेलनस
परमं
सरं
जानीमः
शिवस
कथमपि
रञ
नामा@@
किम@@
कुतो
तुमर
विधत
रतिवेदनम
चरणं
दलं
२०
सेप
रतिवेदनमस
विभागस
सूचयन
चीनेन
अवसरे
२०२२
षेपणचक
गुरुर
मछुआरे
योगदान
टेढ
करेंगी
चलें
भावे
चमकती
यानों
जायेगी
छादित
सलाह
धोबी
जुआरी
भैंस
चश
मेज
दरवाजा
बिस
हथेली
फड
दांत
छू
मधुमक
अंग@@
अदरक
अपरि@@
शाखा
सजा
कुं@@
काजल
ताज
ंट
टेबल
कंप
पतला
दूर@@
कोप
कलम
रखे
पोस
शैली
नोक
तैरती
चयन
हाई
लना
ता-@@
बाकी
यारह
अथर
नौ@@
वापसी
अनिवार
गुणवत
रारंभ
ु@@
षसी
आर@@
सीधे
कोश
अनुरक
मुंह
यौ@@
जलाशय
सीखने
धियों
लाना
तुच
खेती
असाध
आं@@
रमाद
इधर-उधर
घाट@@
भेंट
चीत
मारना
बनाना
रुपया
मुण
ड़
पढ़ता
उठती
गणतंत
करूंगी
भासुरक
पंच
गुणवान
राओं
परिग
पूछे
वादी
रुको
सभागार
कती
कुशलता
रोने
धनवान
शासन@@
ञों
रखो
नाप
किरणों
गिरी
सेठ
यकाः
सुलभ
दिग
जों
तिनके
े-बड
विम
गारे
छिपा
माँग
खिला@@
लखनऊ
तीसरी
सदाचारी
छानुसार
दूषित
अजीर
कफजन
आतिथ
देनेवाले
निवेश
गतिशील
वेग@@
थावर
यगर
ञदत
पिच
उठा@@
यारी
नारद
अशक
सते
मालूम
सोचने
णवर
निमंत
पंडित
रतिबंध
रहि@@
वपति
माला@@
कौवे
तान@@
संयमी
तनों
तापूर
पण@@
महेन
-स
करियेगा
रिये
नीरव
रोटियाँ
बजाते
आँगन
षारोपण
केशव
घटी
मातृभाषा
शहीद
आतंकवादियों
आभा
इला
सविता
दोह@@
यावस
थली
अटैची
चलेंगे
सुषमा
ञानवान
देवेन
यजमान
रहेगी
रेलवे
लैंडर
अका@@
चकित
वाहनों
रोगियों
मिल@@
दीदी
मछलियों
जप@@
बालिका@@
शिरसा
कलह
धुओं
बालिकायें
गौतमी
रमात
खे
चंचल
घिरे
यध
तासे
जानेपर
ंने
नेकी
अध@@
निमे@@
षकी
षीणता
ंमें
दरा@@
धातु@@
षीण@@
सीत
नासिका@@
सिल
राघव
है-
बोला-
तपोदत
वेतकेतु
अचिन
वनवास
धूलि@@
इसने
कपि@@
वमन
तुण
संगम
वाथ
वाचाल
पूजनीय
पढ़
१४
१८
होंगी
मित@@
भारत-@@
तरीय
सोशल
19
गिनी
रीकी
तेय
घरमें
वचन@@
दिवा@@
शोक@@
यवहा@@
यादि@@
र-
वेणु@@
यानन
निःस
वैर
रुचि@@
अखण
वाता@@
खार
चण
आस@@
यवक
रीमहादेवजी
हिता
तमो@@
नेताओं
मणिपुर
वितीयः
सशक
सुदृढ
शकों
यराज
शाला@@
यक@@
जलि@@
वेदना
रादि@@
भूम
लैंड
रसि@@
दिसंबर
मिलियन
एल@@
18
शोधकर
शास@@
हिंदू
केरलराज
13
धवन
केरल@@
नवम
मशाने
शुचि
गज@@
रारब
अतिथि@@
विभू@@
नारायण@@
शेष@@
रीलक
कौस
रपर
नख@@
अवता@@
तव@@
पुरो@@
विवे@@
वका@@
शुभा@@
निरुद
गौर@@
2023
अचि@@
शील@@
रजन
नवी@@
मलि@@
भरद
धान@@
परार
भाण
यभि@@
हृ@@
गुर
गवे@@
धीवराः
दिवङ
धवती
यागच
वीत
राणम
वेति
पतितः
डयन
बिभ
रायाः
विभ
तासु
रामाय
हारः
उपनेत
दरः
रविवासरः
मासः
कञ
चालकः
धेनुः
कदली@@
जलबन
संश
चरति
निमज
भुङ
अटति
विताः
अपरं
भूय
यासेन
अलं
वतं
लाघ
ममा@@
आदौ
आरभते
येवं
रियाणि
थेषु
रिणां
संधानं
करस
रकीर
सरति
वयो@@
साधुः
कृतिं
थितिः
दने
हानिः
हेतुः
योगेन
अनुशासनम
कथयति
धनिकः
रथमा
रयोजनम
नानम
दिनेषु
नोऽ@@
शृणोति
विनः
विषा@@
चिरं
गता@@
षिणः
जां
पथि
रेऽ@@
वदामः
दासः
रितवान
पादौ
एवमेव
रीणामि
अये
पठितवान
कारणेन
अयच
याभि@@
ति-
रावणस
विधाय
मभि@@
षौ
तडा@@
वानि
जगाम
विदग
तिक@@
सकल@@
शश
वाचं
दाय
अपक
जातानि
बालकाय
णाय
मातुलानी
कीदृ@@
धेनु@@
लिखितम
रसः
कुशलः
केशाः
थापिता
तथेति
वरो
अवकरपात
अधुनैव
गायामः
रयोः
थापितवती
षारोपणं
विवाहः
छतां
कृतानि
आरप
केशान
देयं
कुराः
षुदण
नववादने
यानचालकः
सुकृतिः
दूरवाण
करवाणि
जनेभ
रकं
रायां
परिभ
पान@@
गणयामि
लयं
कानाम
विजयः
रिकाः
समाजे
सुरेशः
पीतवर
अवदन
नासीत
आगस
रिभिः
टिं
येऽ@@
रिति
ऽयं
येतत
लिखत
रहाः
षणेन
दयन
पुरुषं
नामकं
रमोदिना
कुलपतिः
रेखाङ
युमुपगताः
१६
भूताः
रदेशेषु
यापि@@
षणस
मणेन
यमानेषु
रीयसंस
यतीति
जिल
तरप
१५
विरुध
राख
लौटकर
हृदय@@
चारी
भाइयों
देवगण
वशीभूत
खुला
उपकरण
सूखे
निः@@
सुभद
खरीदना
गधा
उतरता
अंधेरा
गलत
घमण
दशी
चटाई
आल@@
औरत
पकाना
जनी
टना
लाइन
महल
ली-@@
गरुड
कटहल
मूली
लहर
बुला
ंडी
रणाली
काँच
सौर
धूम
हेलमेट
ऊ
संतुलन
बताता
पहनता
उठाता
ों@@
चौदह
देरी
सीट
हाल
पका@@
फैसला
नलिखित
बाधा
उपाध
घृणा
रहीन
ताल
अधिका@@
अमूल
लगाव
यारा
राजनीति
दाग
s@@
मजाक
ोर
अशिक
असाधु
गंध
हम@@
इंटरनेट
पाना
गीला
चांद
तुरंत
ठंड
छाई
खी@@
विजयी
गोपनीय
आसान
दाश
सोम
सुन@@
शिवा
विचलित
सहज
लगाना
अतिशय
तुक
मानने
कहानी
योतिष
ग-@@
या-@@
गिरना
ड़@@
बहिष
डरना
षुक
घना
संधि@@
जगहों
कबड
जानवर
दमय
बढ़कर
वता
कुलीन
पढ़@@
रेणी
निरर
आइये
काफी
सुनिए
रेलस
रहूँगा
मोतियों
विमुख
तजन
फैले
टते
उपमा
फला@@
मरा@@
गुणि@@
पहुँचकर
छुड
जौ
दय
धूल
रेमी
निपुणता
रेशमी
गमन@@
तरण@@
नियमों
निराश
मील
रभाग
सुखद
उतारता
लोभी
पवृक
गुणहीन
उपयुक
अधम
इये
पवन@@
विल
निधन
जि
कलु@@
पराजय
हाथियों
निमन
जवा@@
एक-दूसरे
रोगों
पहनते
अंधकार
ॐ
गिरिजा
बज
पारं
हमको
जाऊँ
दमन
रविन
रयोग@@
समी@@
चलेगा
जाए@@
खेला
खाऊँगा
गिरे
जैन
धरा
दुराचारी
अनि@@
लाऊँगा
लिख@@
हरिश
भीष
-व
रहेंगे
राट
नाट@@
ंगा
संवाद
शुभं
नाग
षणों
वेदी
उपदेश@@
लोकप
जाईये
दिखते
दूँगी
मोरोक
सध
रखती
दूँ
खरीदी
नौसेना
सालय
काउंटर
लिखी
ईं
कानजी
किसलिये
चियाँ
राखी
सुनती
लंबी
गौरी
सुशिक
तमिलनाडु
डॉक
मैले
दीं
नीलम
मलयालम
लवजी
कले@@
लियर
वयं@@
बालिकाएँ
राणत
मतगणना
सुरेन
शिवगङ
आयोग
ररक
सुना@@
लाद
वजनिक
पाठक
जरूरत
होनेवाले
रानन
राजपुत
परि
बैठी
सरा@@
रतिकूल
यपर
कामा@@
अहोरात
रतिपत
ममें
पाव@@
ोंमें
वसंत
विहा@@
जरी@@
यापत
शरीरमें
वलक
रकारसे
ड़ों
मालिनी
रंथों
आरुणि
वनराज
यभिचारिणी
पाणि@@
ययुक
कटि
रती
रजो@@
रियार
यारे
शिविर
गुड़िया
आवा@@
मेहुल
मनोज
पीड़ा
यपाल
सुविधा@@
तपोवन
मंगलाचरण
रैल
1,@@
गौड
-यह
जोशी
नूर
बॉल
अंतरराष
निया
रुव
महा
दुस
नाद@@
किशो@@
करनेसे
यामसुन
माध@@
परिणा@@
लभ@@
निमग
मेघ@@
रीहरि
गमें
यिक
विमर
वंश@@
लाक
माम@@
वेदना@@
दोषा@@
निल@@
रधा@@
यनन
कटाक
जलमग
मंच
गलि@@
योगप
अयि
शतक
वाहा
षका
अधिष
हू@@
रश@@
रुधि@@
शीतोष
हिम@@
याव
वभा@@
मेजर
रां@@
जनवरी
याचिका
परिप
मामलों
देशीय
कथित
रचार-प
-संस
ञान-@@
जगदीप
अफगानिस
28
,000
तिरु@@
उभ@@
रक@@
पब
एम@@
हृदयस
नासा
रसे@@
रूस
थिति@@
ोत
निवे@@
काराय
कृतकृत
विदा@@
विव@@
दीन@@
विभाग@@
कज@@
रूपसे
रीवत
अमन
ठात
षसे
सानु@@
वाल@@
छया
दैव@@
काक@@
ञात@@
अभिज
कौतु@@
मही
णभूमि
थापि@@
जयतु
वातावरण@@
रसर
शुभम
विशे@@
यचित
सरो@@
॰
षणा
ऐक
वेदं
निव@@
धव@@
आच@@
ठितम
टङ
रीतः
णीम
शुण
उपेत
विभाति
भल
चेत@@
वये
ऽन
धनाः
जवम
अनुद
रुवम
रामात
णकारः
शशकः
सुधाखण
कोषः
रृङ
निग@@
केतः
पूरयति
वादयति
दिशति
शोध@@
ताडयति
युतम
षेपः
भिश
शिनः
वादं
तोप@@
पणं
शुचिः
नुते
सारं
आरो@@
हते
तिषु
जितं
ऋते
एकै@@
वतस
रीः
रेयः
रताः
गेन
घाः
जनयन
दोषं
तत@@
सिध
लभः
पातु
थैः
हेतु@@
अपराधः
दह
माणम
रयोगः
रचयति
सायम
अधिका
वदा@@
नीयाः
पुरुषस
वोप@@
वदे@@
मम@@
दिषु
खगाः
लये
इदानीमपि
वीकृतवान
रूयताम
तोऽसि
थले
बलीवर
थानानि
तयित
नैः
चाप@@
डलस
थातुम
दितम
मतम
निधाय
वदसि
दमः
तानाम
निना
राविशत
तितम
पठनीयम
षणः
राप@@
मितम
दृढी@@
भुञ
ललि@@
रोप@@
पैः
भोज@@
रूपम
देशान
दध
शनाय
दूरी@@
दीपकः
पितम
भवतो
पतिर
कामः
पृ@@
लोकान
धारयन
साय
मणस
आलेख
घृतं
भोजने
वारपालः
घृतम
आगता
कोलाहलं
वरूपम
रामलक
बाण@@
पतिम
मलिनं
वीकरिष
इदानी
ञाप@@
षालयामि
रोतुम
कथां
विशेषतः
रदेशः
लोकस
कृताः
गाद
लेखिष
कपोताः
वधनं
अनुभवामि
रेषितवान
दामहे
रोटिकाः
कृतगीतं
महिला@@
हिमा@@
कारितवान
आतंकवादिनः
अवकाशे
धनेन
मितं
रीतवान
समारोहे
धेनवे
वादनं
रवाहयति
भाषां
गुरोः
रयानस
विविधानि
षकस
भारतमातुः
णौ
येशः
वितीयस
वाभ
रवचनं
राजेशः
परिवारस
वयमपि
रफलं
मातापितरौ
तिलकं
दिरस
करणीया
मीरस
नेतुं
मृतवती
जितानि
वीराणां
भाषणस
पाहारं
कीदृशं
गृहाणि
यमाणः
रयच
तोऽहं
रतिनिवर
विति
भवंति
मधुराणि
करूपेण
रोऽपि
दना@@
नराः
तेव
विषयान
यासु
.00
विधौ
भारताय
७@@
५@@
यमेषु
२६
षाद
थिक@@
थितो
विभागेन
गुरुस
वेर
रकाशितम
रतिवेदनं
वाचनं
२०२०
परायाः
मभवत
समार
षाया
नामकस
समझा
बिताते
चट
जूते
पराया
मानी
योति@@
चो
पराई
पहने
चमक
सला
ठहरो
पसीने
चिकने
बासी
मविश
किताब
धृतराष
भीम
मजदूर
सूअर
लगाम
बोतल
आधी
सां@@
अनुरोध
भाद
वितीया
झाड
दाँतों
भिखारी
गायक
गर@@
धड
टिंग
जिद
पूँछ
पंख
कॉ@@
मुखी
केला
आलू
काली
ंदा
तना
योदय
बाँध
लर
छाया@@
माल@@
डोरी
कुर@@
लंबा
रोस
िल
बाँ@@
साबुन
बेचने
कोय@@
इंग
छल@@
पकाने
पेय
बद@@
निच@@
फेंकता
मंड@@
अचल
जलते
झूठे
षणिक
अवधि
पीछा
भागने
रबल
मांग
धीमी
साम@@
थशास
कमाने
आजादी
a@@
बचाने
डिग
गुदा
दबा@@
वाधीन
समाहित
रभुत
गहने
दायक
परियोजना
उपसर
बाला
साँस
संकेत
उपयोगी
षणात
कृतिक
अलौकिक
परोपकार
मारता
रसाद
शुभकामनाएँ
अधिकता
ड़े
विहीन
दिन-रात
जलन
भलाई
शिथिल
चंदन
जटा
किनारा
वाचन
अपना@@
रग@@
फै@@
संहार
इन@@
गेम
गिरती
बनना
तेज@@
गुरुजनों
वरण
वैभव
विरोधी
यज@@
पालने
विधिपूर
उपार
नाचता
ञशाला
दयानन
हँस
कराता
रभात
यरत
जरूर
मिलेगा
०
चोट
याते
दोगे
गिरीश
कबूतरों
कहिए
सुनी
जोत
जीविका
तका
रगति
लाकर
देहे
षीर
नादि
ने-@@
कायर
गु
न-भिन
काण
कित
दिख@@
अरु@@
तरदायित
वमेध
झरने
आराधना
कामनाओं
मनोरंजन
फेंककर
सारथि
लोचन
गयीं
विशा@@
टार
अलंकार
मभूमि
मत@@
सोचता
कामदेव
कारणों
मपत
पलक
वाला@@
लगावे
थके
—
लवण
सोठ
कोवि@@
कुद
दाम
बनाओ
ओजस
बोल@@
समि@@
यनिष
वेष@@
मानकर
रीमद
सुर
अवन
सब@@
पाताल
चाल
सोटी
गरमी
संचालक
सिवाय
रचा
चौथा
जंगम
ँगा
किसमें
वण
पथिक
संभव
मिलाया
दैव
पीटता
पोते
लिखकर
बेचता
मशाला
मोती
हिलते
जागृ@@
विशाल@@
गुरू@@
योनि
मृदङ
अनेकों
पहन
राफेल
छास
हुतात
सादर
येंगे
कारगिल
पढ@@
ूँ
फोट
निकालती
अमरनाथ
याएँ
सूंघता
सुकृति
शम@@
परिवा@@
ऑफिस
जाड
ऊँ
बुलाती
खिलाती
षिति@@
वरी
चलिये
छठे
खरी@@
चीजें
लाइसेंस
दिवंग@@
घूमती
अटेंडेंट
यायालय
पंजाब
छान
जाम
कृषि@@
देखूँगा
सुदर
सरकारी
धानन
सावरकर
दनीय
संधि
हररोज
धीर
दिलीप
धीरेधीरे
सकल
चाद
रप@@
तेजो@@
बिगाड
होनी
थंकर
रोप
चमड
पूज@@
यदु@@
मेष
महादेव
रागद
रोम
चीज
गिनते
आवर
यायका
वीय
किया@@
रगण
तको
षयमें
धिमें
यंग
कुपित
विलक
गंड@@
होजाय
तमें
यथावत
बड़ा
चलि@@
मैने
यपूर
थल@@
चुकी
पृहा
भूषण@@
टु
कहिये
शारदा@@
दास@@
लकर
अट@@
रकाशन
शोभित
मशा@@
रुदन
रर
गद@@
तिमि@@
मु
भागे
घे
मशक
चरा@@
बिलकुल
मुखा@@
-क
डालो
धनञ
रिवादने
गवाक
गोल@@
अरुणाचल
ताल@@
0
कोविड-19
पहुंचने
तापमान
25
नामेंट
धारणकर
ओंसे
धूम@@
अमृ@@
धवर
याके
मूढ@@
जनोंके
माताके
कुसुम@@
कोश@@
चको@@
अशोक@@
गोपि@@
परब
आद@@
बाला@@
छद
शिन
रिभुवन@@
दृ
ढे
दीत
सुखार
शाय
याक
विप@@
७
थापन
अधो@@
रोहि@@
मोल
पुन
जटावल
कमला@@
आपूर
बदलूराम
अधिकृत
दीपिका
ठक
वरभक
राहुल
योगदर
रीविष
नै
चूंकि
सखियाँ
राजर
हला
तूणी@@
शोधन
भये
शाखा@@
शरण@@
विध@@
यकार
अमृतमहोत
15@@
रमाणपत
निक@@
समू@@
अनू@@
राइल
रोश
संयोजक
तहत
लोकसभा
कोझिकोड
निगरानी
चय@@
इंटरनेशनल
2019
किमी
रोल
यल
2022
महाभागा
शिला@@
विनि@@
सफ@@
रिटेन
एप
खाद@@
अरी
मेना
करू@@
साद
लेच
म-
जाति@@
कमलनयन
बते
पादपङ
मादि@@
विभो
णमन
खन@@
तरात
खचक
कूट@@
युत@@
रकान
पेटिका
भूयः
कादम
यमान@@
नाय@@
चैतन
यारण
वागतम
S@@
अदृष
लाङ
गला@@
रुण@@
तभ
रीरामजी
माङ
अभक
तोद
फलप
धप
अपू@@
रानु@@
महद
भूरि
थूल@@
चाशत
वादनम
वजः
लवे
मयम
गमम
जिताः
चिनोति
सृज
तरखण
चास
विभुः
उपदेशः
समाः
रथः
जननी@@
युवाम
रामाः
अनुजः
धकारः
बलः
तलम
लोका@@
मूषकः
काकः
मूलम
गलम
षिणतः
रयति
भते
दशति
दशसहस
अधिकारः
भिस
तरेण
कृ
अवगच
अवतारयति
मदी@@
आगताः
यवत
रीषु
ृ
रियस
रियाणां
ईदृ@@
गैः
धारय
उभयत
उभौ
पादा@@
एतान
सनम
साधनम
सखी@@
सदृशः
पीड@@
धिनः
हात
वकारः
तनात
सिञ
सीतायाः
रभ
थापयित
फुरति
ताऽ@@
राणं
हिते
ञाने
ञास
जलिः
ययनम
अनुजा
आदेशः
गणः
लिः
जनकः
रभातम
वदनम
विकासः
शरीरम
भोजनार
बरमासस
सहयोगं
भासुरकः
विती@@
पापं
देयम
सेवितव
यितव
जनेषु
वदत
शालायां
जगतः
गणयन
सोमवासरे
पणे
रावणं
समीचीनम
शृणोतु
मेलिष
रिकया
कणं
षयामि
भवितव
राऽ@@
इद@@
रदानेन
पादकन
रहृष
युच
काला@@
विभज
रदेश@@
योगे
ञया
शोभ@@
रतीयते
दारु@@
मिंश
बाढम
रातृजाया
रवे@@
धय
नाञ
गुरवे
यानु@@
चिकीर
परी@@
यमानाः
कव@@
विरम
षणीया
तायाम
विवि@@
दष
मुहुः
जित@@
तृतीय@@
पयः
रसी@@
दधि@@
अथा@@
तोऽन
दयं
विनी@@
वानरं
नानार
भोजनस
राचीन@@
नानन
बिभेमि
रतां
दातुम
वीकर
कीदृशी
लितः
षालय
गोदुग
खादतः
राजते
यट@@
विंशति@@
युगे
चमं
शिवः
योपरि
यतेऽ@@
रृणोमि
अखिलेशः
विवरणं
निवासं
वाटिकायां
मिलितवान
मदिनम
गीतस
टवादने
हताः
कासि@@
भारं
विमानस
दूरवाणीम
लजनाः
तादृ@@
मीरे
कृषकाः
खादयति
रचारकः
गोशालायां
षीया
थायां
सेवि@@
कारयानेन
यावरणस
पुरातनानि
तकानां
अनेकाः
कुशली
थूला
चलभा@@
तकोषं
मतं
अभिनयं
तवादने
कालस
विविधानां
चां
वेतनं
वरि@@
बोधि@@
चरेत
भाषासु
तीनां
रिता
पुनस
तिता
तरस
दिशि
कृतेः
सिंहस
कृतभाषायाः
दैवं
यायै
Sस
रैर
Sपि
डॉ.@@
१९
कारणमिति
रियाम
तेर
एतद@@
येकं
चारु@@
खिलं
दितं
साधवः
नुयात
धिकृत
पुंसां
वितम
भवहत
रेतुं
मतदानं
आयोजनं
आगामि@@
नेच
वादनपर
यादिषु
जनप@@
रिकट
विदेशकार
निदेशकः
२१
तमदिनाङ
विभागे
तराष
चरणे
षाक
लण
गानिस
१०@@
आयोजिते
८@@
यमि@@
१३
मुन
वचिदपि
तेति
ऽति@@
चालीस
सोती
मुकाबला
बीत
निकलने
बादलों
गह@@
शाली
ोसी
माली
कारीगर
पेटी
असीमित
मंगलवार
एकादशी
लपक
चूल
यापारी
मिका
घाव
आई@@
घं@@
याल
मेंढक
चींटी
ढोल
छड
नींबू
पराग
किला
झरना
शाल
निशान
दरवाज
झूला
खिलौने
लेट
पतली
गैस
छिड
फसल
बताते
हटा
उधर
पंद
उन@@
अतीत
गतिविधियों
आँ@@
अहं@@
n@@
सीमित
बनने
राणायाम
अपरिहार
वलन
वांछित
मुश
e@@
अशान
बुराई
घबरा@@
हमला
रवासी
दगी
परेशान
यथित
भौतिक
चीजों
आकांक
बाध
आरंभ
ढंग
कानून
तुर@@
जलाने
100
लंबे
रृंखला
संयोजन
बूटी
समता
फिक
दुबला
निहित
वसम
साधक
संत
कंधे
हू
निकालना
गोभी
ञेय
याचार
हठ
आलो@@
शासक
जार
ञासा
रमु@@
देहा@@
खरीदने
जागरूक
काना
डंडा
परो@@
फैला
चाचा
चलाना
सवेरा
धना
नानी
भीख
जितने
हँ@@
ठग
वरुण
बहादुर
महासागर
सरसों
मनाते
लेखक
कुआँ
कुएं
ढ़
वतो@@
देनेवाली
बदले
डाल@@
आजीविका
कृषि
कृमि@@
चुराता
रतों
कालिदास
ी-@@
लगते
कियों
कामों
सहना
अवकाश
सावधानी
पढ़ा
बकरियाँ
कते
फैलाकर
खेलेंगे
डूब
खोलता
नें
जागा
षुब
दूक
ते-@@
फैली
अकेली
यचकित
यथोचित
लीय
जबतक
अवलोकन
ओगे
रणा
शिकार
कपोल
यपात
लाभ@@
णतया
चाँदी
झुकाकर
निकालने
मालती
फसलों
वटवृक
घूमकर
पूछ
विधाता
उछलने
जनि@@
सीजन
शिशिर
काँ@@
नोंको
शालि@@
ढ़@@
असंख
धिका@@
साधित
पिलाना
सुसंस
असुरों
दानव
धारण@@
णादि
परिव
सूखी
नेय
जावे
पापड
अरब
मैला
पीओ
पाला
षिष
कौवा
रपन
शहरों
वानम
बोलनेवाला
दुःखित
यून
ठहर
झंडे
मली@@
जाननेवाला
भोगता
वेदो
दबुद
मनु
अभिन@@
नट
यमण
एकादश
मधुरता
अलं@@
पीपल
जुन@@
अंकित
अनावश
रचि@@
लिखिये
मॉल
पाहार
तीसरा
बिशु
महाराणा
ऑनलाइन
खाईये
नंबर
बिहु
जीवनचरित
सहयात
चशिक
उतरती
रेणा@@
कॉलेज
दाहिने
बीमा
लोकगान
गणे@@
करूँगी
आठवें
डब
वैशाखी
तीखी
युवतियाँ
सूंघती
वामी@@
पोंछती
गौएँ
गाएँगे
रावस
जखौ
माँगता
ठंडे
दीपावली
मला
पंजाबी
पाँचवाँ
पासवर
पिछली
कराती
मामाजी
जमा
कनाडा
टमाटर
मधुमेह
किसानों
जागरण
अवरोध
पू
पहुंचा
कराचार
शानचन
रिंग
वराज
सुष
पहुँचे
गंगाराम
अखिल@@
षिका@@
आकस
तीत
बहू
जता
मंदिरों
इधरउधर
किलोमीटर
पकाकर
कुरु@@
वानरों
लेखिका
निवासियों
भाषी
धूलि
फेंकना
पढते
जायगा
गरव
दिनेश
सहे
रवत
अनुक
साप
करने@@
बलेन
मीकि
तरि@@
आयुः
शरीरको
आदिसे
षुधा
इनमेंसे
पृथिवी@@
इसपर
आश@@
यतन
घृत@@
ओंमें
हेमंत
शिरा
क-
याकुमारी
मनिष
फुल
बोले-
महोदया
गज
नीति-@@
धरा@@
षणभर
थितप
अनिष
विमुक
सुख-@@
चारण@@
टाध
कलियुग
आञ
गुरुगोविन
छिपे
मछलियाँ
नमति
सू
जङ
बुलाकर
जिला
नियम@@
भरकर
परात
शरा@@
रनों
पावन
निःशुल
लगा@@
बिहार
सोमेन
चारो
-तुम
चकः
मरुस
तरों
तितिक
निभा@@
हरित
निलंबित
लागू
एयरपोर
धिमत
वोट
ोतरी
पलि@@
घटित
घटना@@
वोटों
14@@
आखिरी
26
लोको
आदिके
गना@@
दकी
दमें
रूपमें
शोभा@@
माणिक
-सी
जिन@@
बतलाया
ठु@@
आँख@@
भागी
लावण
दावन@@
माता@@
समूह@@
देवकी@@
कुटी@@
दनके
गोत
रूपिणी
सुरा
तृती@@
दोप@@
भिष@@
दधि
यथाविधि
जनो
खस
पलाण
मथ
भिद
निवास@@
जनकनन
पदा
फंसे
मुनिवर
थानीय
शलाका
अंकिता
लाभान
कुप
आकाश@@
यकाल
विदित
सखियों
चारित
ृत
कुष
रवण@@
वाणी@@
रांत
धां@@
आभ
फेकन
अहि@@
राजपथ
बोस
13@@
सएप
-तो
-मैं
सिस
हमास
एशियाई
यूट
रूसी
21
टारगेट
2020
योगिकी
नामिका
23
माह
ई-@@
सितम
धनखड
मुताबिक
महसूस
हालाँकि
वासु@@
गणना@@
निप
ताब
रपति@@
नता@@
छक
यायमूर
आधुनि@@
सतपुड
रीकण
भवतां
मनोरमा
कामधेनु
नियों
बालका
सद@@
ववस
दूसरोंके
भत
शै@@
लिके
थामें
घसूत
एको
रेमपूर
चरणा@@
२९
द-
वंशी
वभू@@
विरह@@
मणश
वेदि@@
युवत
भरण@@
ताहे
वादित
एत@@
थग@@
अरो@@
बहि@@
जीवनस
कलत
ू@@
शुम
विवाह@@
तिन
रातृ@@
योगिराज
याति@@
दोला
गदा@@
बहिरा@@
विदु@@
अकृत
शना@@
मुने
तरक
सुसम
जनक@@
रसं@@
वसुन
वारिंशत
तोल@@
महार
पादत
निधिः
शक@@
अभावः
गमनम
गजः
रामयोः
यावधि
रकारः
बकः
घः
किशोरः
ञी
पालकः
रूः
लयः
रासा@@
टकम
देहली
चिका
खनित
कुला
दधा@@
सीव
शेते
विंशति
मकृत
चलः
यजत
रुवं
नुद
अपरे
रतिः
हता
निं
थितान
दीनि
अह
ञानेन
रुह
यातं
आदिष
वृतः
माणः
विधिः
ऋण@@
एतेषां
धीः
समूहः
शोणि@@
हिता@@
सकृत
समागताः
रेष@@
समुप@@
यतमं
वशः
धये
मृता
मृतिः
षुषा
अधस
यापयति
अवलोक@@
खलः
गीतम
चौरः
कास@@
षयत
परिचारिका
रीतिः
मातामही
रुच
तोषः
निवसामि
दुःखेन
रमुच
रवं
पितरौ
रमप
धिस
कदाचि@@
तिश
मेकं
तमपि
कोकि@@
दूरस
वदेत
रसक
वतम
तावदेव
ठां
दिवा
गुणः
हीनः
देत
कथयामि
छावः
टवती
षाल@@
लेखा@@
यायालये
तदानीमेव
दरे
जनसम
यूतम
तदत
सादरं
मुखात
सहैव
रियवाक
वचने
विपु@@
जीवितम
तोद@@
पपात
सुतः
तारस
समालम
माय
रावृ@@
वसि@@
केण
निधौ
षसि
चोप@@
ञानविज
कैर
राधि@@
परद
कुरुते
ञातुम
यनिर
देशा@@
जात@@
युवाच
यथः
चयित
बकस
तीह
तलं
सोत
रोवाच
षमः
साश
कृप@@
समाचरेत
एहि
टया
षकैः
अकथयत
यतते
यादीनां
मुनयः
मुखस
तदी@@
तनस
चतस
वीपे
ऽग
दिशः
मिथः
हतो
परमो
राच
मानय
धुना
दशरथः
दयां
कृन
ओदनं
तृतीयं
मधुरा
यासि
मधुरम
वसामि
शयिष
इदानीमेव
डितम
घाटितम
नीतं
खादित
रहीष
दहति
आपणम
गणस
कथय
पाठम
भानुः
नेतुम
शौचं
खादसि
टिकां
वेण
तकस
रतिश
याञ
माच
पुनाति
मुदा
रहणे
तृतीये
सुरे@@
वित@@
मरामायण@@
ठानि
येयं
लीम
समापने
परिचयं
चायं
शाकानि
महिलानां
संचालनं
अभवम
उपधानं
इतोsपि
रुतवान
गुरुकुले
थनां
सालयं
शाटिकां
यसम
कलहं
शानां
हासयति
कनीं
वणः
जगदीशः
कृषिक
तटे
साधनानि
सूचि@@
जनौ
भवनं
रतीकः
युतं
यागमिष
गतस
घटः
दोषाः
वेषणे
कृताभ
रशंसां
लाजति
षाल
अधिकम
थापयिष
दिराणि
षणकेन
वीकरोमि
लभन
कृतगीतानि
घटं
रमण@@
ययनार
संजयः
धयन
नेतारः
रुचिः
शनिवासरे
बालिके
चरणौ
करणे
रुतः
रियमा@@
रकरणे
ऽर
लितं
तदि@@
तादृशं
रूढ@@
रिल
लिखि@@
यमप
याऽऽ@@
मिह
दौ
कुरुत
धिकं
महोदयेन
सित@@
मव@@
समो
षायै
चीन@@
रताम
तादृशी
रखण
पितुर
मधिकृत
गमना@@
निव
कति@@
सनं
केशा
नुत
पादे
वाराणस
वालि@@
विकासाय
मेहुलः
ताङ
यपालः
गलं
विदेशं
लीस
तमान@@
तुतम
सामाजिकमाध
गतवर
मासीत
२४
०@@
नीताः
शुभारम
विधानसभानिर
घटनेयं
षेच
वशी@@
मनाम
नमोऽस
रतिवेदने
रूते
रमान
यमर
ैक@@
सफलं
तयो@@
पतितं
बहुषु
पाठिताः
अनया
मेति
याऽर
तिप
नाभ
कृतभाषा@@
यती@@
वाधीनतायाः
वितीये
खं
रभृतिः
विहितम
कपर
षेपण@@
२०१९
तमानस
डलं
अधिकतया
५७
संदृष
खाणां
भगवानुवाच
जलता
बहता
पचास
पति-पत
हीनता
बाधित
जीतने
नने
पहुँचने
विचार@@
नीला
मनोरथ
गहन
ढूँढ
गौर
तौलिया
हिक
भयता
ढकना
हिरन
डिब
अंधा
बहरा
नाचने
कें
पहिया
पिं@@
गुलाब
बरा
बैंगन
लौकी
खीरा
बगीचा
रेगिस
छल
मुखिया
शौ@@
जें
अलमारी
सिंहासन
फी
तेल@@
कुदाल
सीधी
रिज
घटा@@
देशी@@
पीन
ऊन
चप@@
लेक
सूटकेस
पेस
घटा
लगाता
चमकता
गना
तिमा@@
कीस
छब
ताईस
नशील
देखभाल
चमत
आवास
परिणामों
खतरनाक
गंदा
आपसी
लापता
नेक
लहरों
लोहा
रॉक
मोड
आलसी
सहाय
में@@
नामित
चिं@@
विदाई
हथियारों
सूखा
सुनाया
उठाने
परिकल
उपचार
तुल@@
चमकदार
जक
संबंधित
दाढ
वयक
संपादक
यागी
रना
संयोज@@
कॉन
बग
खू@@
निशा@@
सहनशीलता
संघ@@
अनुभव@@
सीना
घोष
पिन
सेनाओं
थानभ
छूने
जागने
धाओं
नमकीन
हजामत
कमजोर
किरण
अंगूठी
अपरिचित
आकाशवाणी
आसमान
कने
गहना
आदरणीय
नयी
ना-@@
अशिष
पागल
उपहास
खर@@
एकबार
नरम
धोना
खोदना
छुरी
जाप
बढ@@
तौ@@
यासा
जुर
धनिया
पढ़ना
बदलाव
रसाधन
विदा
भेजना
काली@@
विनोद
बधाई
विचारे
अस@@
फुटबॉल
वीडियो
आंख
वियों
हितकर
अनुगमन
बालू
परायण
ओहो
उतनी
परिचित
बैठ@@
े-@@
बढ़@@
चलेगी
खास
जरी
नीतिशास
लघुपतनक
नीले
आसपास
बैठिये
सहोदर
टाचार
कहें
विशेषकर
खोदने
तट@@
भलीभाँति
ठों
परिच@@
ापे
दूंगी
आभूषण@@
दिसे
खेल@@
कंस
निदेव
ापा
निकाला
भाभी
बन@@
बैठाकर
नीरोग
संभावना
विषयक
गवा@@
रधारा
ममता
शरत
कुबेर
यागता
कसौटी
सातों
सहारे
मानसरोवर
शीलं
ललाट
हरी
रसित
मनी@@
मलिन
अनुकम
युवराज
हंसों
बिताने
प-@@
हटाकर
भुजा
परिवारजनों
धवों
ऑक
विडम
वनों
मदिरा
थोडा
बित
विरचित
रागी
तिमा
पाठा
फलो
पेया
रसो
गृधः
सुगम
करे@@
हाँ@@
शकट
साधनों
सोम@@
युलोक
रदीप
तिसे
एश
दोहन
अधि
णकी
आहु@@
उदित
भावात
नवजात
भोगने
दुम
चुल
निकला
खींचता
गिरेगा
धोया
मट
लोगे
ूँगा
काँपना
बैठेगा
अतुल
घटिका
कुएँ
शिथिलता
एक-एक
पूछ@@
सहने
डण
बिठाकर
जवानी
जाऊंगा
एकी@@
षोभ
रोड
जालन
चिमी
बैठो
ढेर
माष
खोदते
तैरते
ढूंढ
माचरण
नागरिक
वका
षणीय
सामवेद
लाये
यदेव
बचे
रधान@@
रख@@
विलास
विधान@@
नायि@@
काओं
रीभगवान
अनादि
लिखूँ
लिखूँगा
वशक
येय
अनावृष
तावली
ईये
बताए
तानन
लालबहादुर
कौनसा
धितम
टल
हँसी
रेजिमेन
ऑर
िये
फॉर
कुलदीप
गुरुकु@@
गोंडवाना
महाराजा
रांग
चेक
रेट
डरती
ऊँगी
पोती
बटु@@
खाई
जाइये
धनिक
पहना
तलती
पारस
माहात
बजा
युम
यानमग
ञानप
यांग
भेजती
विभु
ईं@@
शिवकुमार
धास
माताओं
शव
सरिता
लेखं
सारिका
पाती
लंका
मके
सुमधुर
यनमस
पज
रोन
रीश
इसी@@
रौढ
शिरो@@
ढी@@
वारा@@
वरुणा
अँ@@
सुनाता
मदा
यों@@
पहिले
भारवाह@@
गें
पियेंगे
कषाय
भोगना
पग
आयेगा
किसी@@
धोकर
राकेश
उपरोक
वितर
बारबार
रकृत
उदासीन
बडा
रामीण
वट
याधर
ऊंचाई
ताँबे
शाब
वंशी@@
तरि
कहलाते
वेदज
भिज
यमें
पच@@
अमि@@
जिनसे
रचा@@
ताहै
धमें
गुणोंसे
आतु@@
थानमें
तिको
तादि
कपाट@@
दिनमें
योंसे
रमसे
लगाये
शूकर
टके
हुमा
लिता
खता
पापकर
ञोपवीत
ओं@@
यजीव
लाश
देही
निहोत
यथो@@
बड़े
नका
कौन-कौन
कौन-से
कौन-सी
धौ@@
मुं@@
अटल
यशो@@
नाशवान
यरूप
हेमन
टू
मुद@@
तलि@@
माव@@
गुणवती
मय@@
पदोन
कालिन
यसिद
६०
यालय@@
पेश
40
बुध@@
पांचवें
COVID-19
सेंटर
दोल@@
यपुस
जश
इलाकों
एव@@
मानव@@
-ये
पचा@@
अंकुश
मादि
यमुना@@
जीकी
मुरा@@
दानव@@
अर@@
लह@@
पुञ
रियनिग
आदिकी
संकीर
पतित
मुखारविन
धारा@@
बारम
संसार@@
यनि@@
णके
देवकीनन
मुकु@@
छासे
बिम
नचित
युगल@@
गुरुभ
दिखायी
रून
सिकता
रोगो
कूट
योनि@@
कुलस
कोद
यवा@@
ओज
मुनिश
दशास
किष
माकर
योनियों
गुरुद
नाराज
थै@@
भावपूर
योगेश
बो
वपत
वंस
रणि@@
यागत
पार@@
दूसरे@@
सरात
आन@@
संघट@@
मातृभूमि
रहणं
भारतीया
सुभाषचन
ईशा
लीं
हिं
दायित
मियों
साँ@@
लामिक
टूबर
रीय-@@
देशक
ञापन
एर
टायम
फहराया
सेवानिवृत
विभागाध
पांडे
गदर
भीषण
गुजरा@@
एजेंसी
षम@@
600
राहत
जेंटीना
लिश
एशिया
लिकार
समयानुसार
टिस
मधुसूदन
दय@@
यवसा@@
वयन
रा-@@
रावि@@
लिस
राघ@@
मरु@@
किलो
वटुः
गणतन
डिता
लोभ@@
दी-@@
परोक
असन
यथेष
गृध
यथायोग
चूडा@@
पाँचों
यवती
कुट@@
रीके
सन@@
कृपा@@
हृषीकेश
शिख@@
रीवा
बाबा@@
भजता
वासि@@
यन@@
देवि
भान
रातः@@
नोंसे
नरस
ल-
वसं@@
पयो@@
निमि@@
आभा@@
रमुख@@
तनी
गोपी@@
रीहरिक
शनै@@
भोगों
नरवर
अनुसृत
जूषा
हां
गुरो
आहू@@
निर@@
लोह@@
कूष
नासा@@
समुदा@@
तामणि@@
रतया
काशे
नोर
यदृच
टाङ
वध@@
रवृद
रघूत
णव@@
नीता
लार
रयस
दुःखा@@
वमसि
रोगा@@
मणा@@
शि
यग@@
डेषु
चतुश
यापयन
चयम
अधीतवती
यसने
वसुधैव
दूरम
थापितम
चरत
मनांसि
तका@@
मेघाः
यमाण@@
अचिरेण
ठानम
विसृष
धीयते
डान
निकटे
दुःखम
आदरः
रै
रयो
माले
यूयम
अमुत
पुरु@@
परह
रतिवेशी
नापितः
मृगः
वृषभः
पीठिका
चषकः
अधु@@
कटः
करवस
लकः
वणिक
टकः
थिः
हृदयम
खः
दंष
कपोतः
उलू@@
णना@@
वृश
कटी
टरः
पीठम
युतकम
सोपानम
फलकम
वामतः
समवस
षरम
चतुरङ
औषधम
षकम
बाष
थालिका
धरति
राति
चेतसः
णोः
अददत
अदर
षिणं
रोहः
नियमः
अनश
तमां
थानि
वृतं
ययौ
अमृतं
बरं
ठते
थातुं
ञातं
अवा@@
सदृ@@
मोहः
षयं
आकुल
आपः
आपन
आसाद
सेवते
वहस
लेखः
संवादं
संशुद
काराः
ञार
ञि@@
सदृशं
सदृशी
वयः
रसान
वतो
वाराणि
वभावेन
वभूतेषु
विकं
विकः
साधूनां
पतिं
घोष@@
तुति@@
थितौ
नायु@@
हेतुना
ञातुं
ञे@@
शयः
अनुभवति
दयति
आतपः
पणम
आदिनम
उपायः
डलम
कोलाहलः
राहकः
चुः
ननान
वाप@@
नूनम
पाकः
भागः
मरणम
यजमानः
विच@@
सपाद
साकम
इतोऽपि
तदहं
तारम
मयस
लोऽ@@
पदानि
मवाप
रायेण
कारो
विनयः
विनीतः
अनृ@@
यमनु@@
निहन
तयेत
मेध
रकाशयेत
धावामि
पठसि
रीडसि
छथः
सेवकाः
अपठत
ेभ
कथितम
लिखतु
लुत
रेयान
थानेन
षित@@
कतः
एताः
मृगाः
वेदम
अपरः
नत@@
वहम
वाष
ददर
शृगा@@
यासि@@
जलोपप
निवार
वकम
पलायितः
वधा@@
यवेदयत
शेषु
भवनानि
उदरे
गुणेन
नुबन
रमणी@@
वेषणं
किरी@@
सचि@@
भवेन
मृतस
सततम
विसृज
सलि@@
धारः
यधि@@
लैः
वसरे
चिरात
आरात
तपति
रीवः
षराणि
जनानाम
लघ
षेषु
अलभत
गृहीतः
हत@@
दिनः
सिंहो
पशवः
धुर
आयाति
गुरुकुलस
अकारणमेव
महासत
तृणानि
योऽयं
राद@@
रदे@@
पयसा
कृतेन
चना@@
रियन
यासम
तिरेव
रतस
विपदः
मनसः
गुणान
कारकः
भूतस
ओदनम
तति
मेघा@@
हसामि
पालनं
मधुरः
शोभनं
सेवनम
चलामि
कथयिष
निवत
पालयति
शयित
रवीमि
तैलस
तनुः
षिणां
षिः
खादितुं
उपदेशं
तदनु
शृ@@
पथं
महोद@@
आलप
दिवसः
पीडितः
रातर
ददासि
रमणाय
रीडिष
तदानीम
सकलं
कूपं
शंस
पितरं
यजामि
मणौ
विभागः
टकं
डेते
मुः
भवम
कालेन
चयं
गतिम
दराणि
पाययति
शनस
यायामं
सफलः
आगामिनि
रोदिमि
कृतवर
समाजस
वीरः
अमरनाथ@@
मोदते
नीतवती
चालनं
रेलयानं
अवकरं
रेषितम
रोटिकां
टिकायां
यतोहि
अरोचत
षमां
कारयिष
मयूराः
पाट@@
धेनवः
बहव
चवादने
रकः
लिखितं
कारणाद
सेतोः
उभयतः
विशाला
नाटकं
तिकायां
करणाय
वेदस
रोगः
शीतल@@
यभाषणं
रदेशीयः
योगा@@
पुरुषाणां
मकराः
वाग@@
पशुः
रोतारः
गतिं
सदनं
संदीपः
सभागारे
पठामः
गुरुकुलं
शानि
षकौ
एता
षिकाः
यधः
उदरं
बालकैः
महिलाभिः
लताः
वाहनानि
रायते
मतः
विषयं
तकालयात
इयम
पूजायाम
तेऽस
जागर
दानी@@
रही@@
मृगं
रणेन
शिवं
नैर
थाम
ऽध
पनि@@
मनुवर
मांसं
दोऽ@@
दीनां
रथि@@
एतेषु
षीरोदनम
भिरेव
सामाजिक@@
भवे@@
तुरङ
पदप
तैस
धरं
यापनं
योऽस
सभायां
विमा@@
देवताः
पीयूष@@
तेना@@
एतदर
चेतः
नदन
षितस
गप
रहीतुं
कृतो
दां
पयो
कदाचिद
विचरन
पली@@
ययोः
मलं
पादयन
भेष
वदेशे
गलाचरणं
इदानीन
भिव
पतिस
दिने@@
रवासरे
सरादारभ
तिमस
अधिकाः
नरो
विजातीनां
नाऽऽ@@
जाह
येतानि
देहं
३६
पादाम
तवैव
हरेर
नुग
चाऽऽ@@
चाप
हरिं
जेन
भूतले
दुद
बदलूरामस
मानां
घटनायाः
बहवो
यकाणां
षकेभ
अदास
वीरौ
रिणौ
चाऽ@@
नाऽस
यभागे
आधुनिक@@
नारीणां
ईजिप
केरलेषु
करणं
ओक
टोबर
रमणपथं
टिवर
१७
किता
परिसमाप
२३
रशासनेन
अणु@@
६@@
२७
िक
आयोजि@@
रियसंस
दिवसी@@
रकरणानि
२८
यापक@@
९@@
यायालयस
मागान
बुधवासरे
रमेषु
नूतनप
संघटनस
टनस
तदैव
धनानि
धवाः
कामं
यागो
बालो
पवन
उदारता
चुराने
अतुलनीय
लती
चमकीला
दीनता
गणों
लेन-देन
पहुँचता
ोस
विशेषण
लुप
दूब
पकौड
लौटा
जनपद
वगुण
तमो
अभिलषित
सबमें
किन@@
हँसना
वादक
कमरा
आषाढ
पौष
रतिपद
वादशी
अमावस
णपक
माचिस
बॉक
ॉर
चाभी
ादान
पगड
दुपट
मरी@@
वाहक
पिस
लंगड
विधवा
सिपाही
समझदार
ओंठ
दांतों
पांव
दिमाग
बू
ा-@@
गिलहरी
ऊंट
चीता
बंदर
साही
तोता
घोंसला
अजगर
वेब
छर
रूद
गाजर
वीट
अंकुर
डं@@
झुंड
बरगद
झील
पैंट
वट@@
रंगोली
चादर
गुद@@
मोमबत
सीधा
माइक
अला@@
गोली
नहाने
डम@@
टोकरी
फन
आमंत
थता
नहाता
चुरा
विभाजित
लाम
घू@@
छूता
झुक
बांध
चौबीस
चीस
अंगूठा
चतम
गैर
मिकता
शाही
आधिपत
o@@
r@@
रणी
दिखाने
अथाह
नशे
रोधी
छाओं
पंत
लायक
डालती
मौका
i@@
गिरावट
चता
वितरण
समझाने
राकृतिक
डूबे
उल@@
होश
भरने
योहार
भेजने
असर
वजों
मनी
नीन
रूम
तृण
निषेध
यापी
बाजों
अनुसं@@
बहादुरी
खूबसूरत
लापरवाह
सुझाव
सुई
कता@@
शां@@
निजी
भूखा
मिसाइल
आकृष
दवाई
जली
कांपना
अफ@@
सोचना
शप
निकलना
नौकरानी
अधिकतर
बिलाव
वैदिक@@
मांगना
चटनी
यथाक
बालों
खतरा
योगाभ
खेलती
यमा
भावेन
पारंगत
अहंकारी
कृतघ
चरों
ऋक
रंश
कभी-कभी
रायश
पिशाच
चेहरे
ञानरूपी
कीट
रजाओं
लालसा
झड
डूब@@
आदरणीया
आइए
तजार
पहुँचते
बोलूँ
मौके
लूँ
टकर
डरे
भूतल
राईवर
फुट@@
उपनयन
खींचकर
कमाया
फाड
माँगा
अभीष
डाँ@@
तोते
चाँदनी
ठहरकर
समास
रपञ
विवेचन
रभु@@
तबतक
रीराधिका@@
बलपूर
बँधा
रोककर
शुक@@
वीकृतम
जीना
कुमारों
उपपद
समझाया
गुरुदक
मुनिजन
चौथी
युध
घात
कूदते
ठग@@
खिलते
वारों
अपशब
चावलों
लीटर
टूटी
अपने-अपने
पक@@
बाँधकर
रोह@@
बलशाली
वाण@@
गधे
गाण
याचल
गोला
पुरुषो
हुयी
बाप
टती
कंठस
अपराधी
सूना
डप
दैवतम
रचुर
कारे
यदर
रावक
तालु
ढाक
गुणे
वातजन
वशूल
अनुलोमन
रहणी@@
मयुक
रहनेवाले
थकान
हिम
रचर
सुखमय
भूषित
बहा@@
रभाव@@
हुवा
यि
संसिद
समुचित
पुरोहित
चराचर
रहूँ
रशं@@
पाँव
जलेबी
बोलूँगा
ेवर
बां@@
पहनती
मातर
ख़@@
बनती
पालते
पाव
णिक
मरता
ऊंगा
मंद
धिवाला
रधारी
सुदैव
खम
रगड
परिहर
खाओगे
पूड
किवाड
ोगे
या-क
वनाथ
ठंडा
देशी
तारा@@
बरतन
धनदास
ढांपना
छोड़@@
डता
दता
रधर
सका
नते
निरोध
आगम
देखिए
जाइए
केंकड
रहनेवाला
सुरा@@
वैवस
अंगा@@
वजम
भावना@@
दानवों
गुणसम
नेपथ
चौथे
ाए
साहपूर
वीपों
पनम
अवत@@
ललित
रगल
खंड
अंजना
हील
पिलाता
यूस
चबा
भुजं
जियाँ
अमृतसर
आगामि
बोलिये
मीरी
गै@@
मज@@
हिमा
मरक
भुगतान
आयुषी
आलोक
इटली
रसगुल
उतरते
रंथ
उपमन
डालता
आएगी
वायुप
बजाता
उठाती
कचरा
लौटे
दुविधा
विजेता
लेंगी
कौरव@@
गुजराती
गुणजी
चाणक
चोक
डै@@
यंजन
हाउस
लट@@
सूरीनाम
बोलीं
दीपा
दीपेन
दीपेश
ेदान
भेजते
देवनागरी
देहरादून
सता
जने@@
बता@@
नगरों
नागालैंड
यशिक
नृशंस
पंकज
राहकों
बिता@@
राँची
चौपाटी
पँखा
यभाषण
ँगी
सी.
शरबत
सातवीं
राजतरंगिणी
रेलमार
रेवेन
लाला
कछुए
जयपुर
लगाती
आयकर
हीलचेयर
राथमिक
यसभा
तुएं
लॉ@@
विगत
सेवाभावी
वामि
शिवभक
दिखाकर
ञाने@@
बालताल
डैम
रेती
साग
सुचेता
बंगाल
सेंटिनल
वागतकक
रामभक
मेला
एगी
करिए
लाऊँ
घटनाग
षिकोत
पुणे
बालिकाओं
अनुपम
सुशील
नरसो
नीरजा
राजेन
मेधावी
किले
खनन
वाटः
लालन
उसी@@
I
बालको
फा
मोच@@
कृश
वासा
धीनां
धुएँ
जायें
खुलवा@@
लौकिक
देनी
पास@@
पहि@@
डना
शिशु@@
जंघा
भंडार
थापक
तुन
टपूर
सुसह
राते
नीरोगः
रमाण@@
बोले@@
रकारके
निपात
तृषा
रकारकी
पिपीलिका
मनमें
वोक
अपने@@
संहिता
समझे
विचरते
माकी
भेदन
णका
डिका
रों@@
जठ@@
निकालकर
झि@@
शहत
विशाखापत
रबंध
लोत
मालि@@
कौटिल
से-@@
उमा
अलग-अलग
रतिपादित
गुरुवर
धियाँ
अरुचि
यथाशक
औौर
जलबिन
भेजी
इलेक
अनागतविधाता
मवान
उपास@@
केव@@
72
खिले
कटे
कर-@@
तःकरण
आा@@
सुशीलता
छिप
मैं@@
माक
ताजमहल
तोरई
भै@@
मृदु
गीले
ठता
हय
सोमाभाई
पड़@@
झे@@
नजर
.......
रोहन
गुरुप
रतिरोध
उपायों
फोट@@
षाओं
अशो@@
°
ावा
2,@@
रमुग
29
अनुमो@@
दवाओं
मू-कश
सीटें
गिरफ
बनकर
सकें
48
वंदना
बिता
णमें
तटपर
तिकी
गणेश@@
तोंकी
धृति
लोकमें
रीसे
जानकी@@
हनुमानजी
वनमें
षःस
मेघके
नीलवर
कोष@@
ओंकी
राधा@@
वादन@@
कारु@@
खली@@
मनको
युग@@
लाद@@
एके
शरणागत
मुमुक
जितात
संसारके
आलम
ञानात
गाह@@
कालचक
कु
देवताओ@@
एरण
बृहद
मेधा@@
पयस
यूष
दुख@@
अनुवासन
रवन
रकोप
शमन
बढा@@
अपथ
पचे
लोम@@
रबा@@
विका
लगीं
लोच
मूक
असुर
उछा@@
तवृत
80
बिहारी
नवरात
आठम
सेंट
गौरवपूर
मैरी
डिया
जबलपुर
होम
यटक
यमित
कृतमय
राची
पिल
77
रथा
नातकोत
धिमती
तिरत
राजलक
सौंप
रवृक
विकारों
मंगल@@
शांतिकर
वाहा@@
समान@@
दका
मास@@
लिंग
नेका
कच@@
कृश@@
विं@@
फो@@
रामचरण
संतुलित
जलसे
तविद
पोत
199@@
रशेखर
रोपदी
१८५७
सिवा
पढ़ाते
अहिंसा@@
नारायणस
56
शिवकर
बापूजी
तलपदे
64
वेदविद
भारतरत
टेक
-वह
ड़ी
-अन
तांत
चलकर
ोप@@
मग@@
शालिनी
विजया-
रतिभागी
नवंबर
रतिबद
आपातकालीन
मचा@@
रिजर
दलों
यवेक
मशहूर
पुझा
17
अशोक
हमलों
संगठनों
44
अभूतपूर
आधिकारिक
एसोसिएशन
मंजूरी
हराकर
शेन
मोरक
अमेरिका@@
पंजीकरण
अरि@@
रिपाठी
सेमिनार
रचार@@
ऐच
मेघालय
ययनों
रिपुरा
धिकारी
तर-@@
एच
विनाशकारी
सकारात
रिफ
सुनिश
1.@@
कुलाधि@@
भूपेन
बीजेपी
कोरिया
पेरियार
47
महामारी
यीं
मक@@
जटि@@
यूबर
विजयन
जहा@@
यूरोप
भारतीय-@@
57
सलीम
तेजिन
णमूर
भण
सीमा@@
भूः
भुवः
आढ
लीलावती
राही
दूती
निरव@@
यापर
उदर@@
धकार@@
वेदो@@
वेदव
जनोंका
मुकुट@@
विवाद@@
परमब
गोपा@@
यमात
कुठा@@
कोच@@
रेत@@
वलि@@
राध@@
चरितं
बाबागुरुजी
मनुस
परशुराम
अकार
तरोत
पूरन
मती
तुशास
परमिन
पटुता
गुणस
बोद
उपलक
डेविड
रेश
अली
आराष
तमिल
राया
घाट
सिता
बति
लवित
आसु@@
कोट@@
अमर@@
रुम
नकार
मदान
याणक
कुरुजाङ
थानसे
णिका
यागि@@
दशरथ@@
टादश
धिको
दुराचा@@
समीपस
षक@@
आवास@@
निपा@@
पूर@@
गजेन
मातृवत
मदन@@
ववत
अकस
योजना@@
टाक
सुहृ@@
होम@@
नवाब
सृत
षसा@@
अलक
शुभलक
दमूल@@
अभिषे@@
विजा@@
ममृत
अरिन
नुकू@@
वसंस
सुभाषितम
विधीयते
धार@@
यमानम
दये
अपसर
पापभाग
विहसति
टवर
रविप
निमील
राजसु
कारम
नदति
णैः
दुहाम
जाना@@
बलात
परत
टिकाम
विनोद@@
रसादं
उपास
यातयामम
अमेध
शौचम
राजः
कासु
आरोह@@
रयणम
याधः
तुवायः
निवासः
अमितः
रावण@@
धौतवस
खञ
षुकः
बुकम
णिः
रागः
महानौका
जारः
मयूरः
आलु@@
गृञ
लवः
दलम
नारिकेल@@
मेघः
रवेष
मणिः
कृशः
राची@@
नूतनम
शकम
रचक
यपत
चोरयति
रामति
डयते
रहरति
वेतः
चवादनम
गानि
अधिकारि@@
अधीत
नासन
हङ
विण
अनुत
लेपनं
अनृत
योतिः
यायेन
यनं
यिनः
यसनं
अयुक
जनाय
अविज
रिण
असंशयं
सितः
असौ
कुलि@@
आचर
आचरति
मकं
आधिक
आरु@@
वृता
आसा@@
ऋषयः
एतावत
विधः
विधाः
शरणं
रभृ@@
संसारः
घातः
यसं@@
भवे
सना@@
देहः
शनः
धिना
समाधि@@
नोषि
समुन
सामा@@
सोढुं
थानान
नुषा
नेहेन
पृशन
लीलया
हनिष
हरेः
हेतवः
मये
मयो
शति
कलहः
पठनम
भागिनेयः
शरणम
हयः
रापयति
मेल@@
वातावरणं
रवेः
मावकाशे
आनयतु
योऽसि
गुरूणां
गरीयसी
देहि@@
दुःखानि
यामपि
निषे@@
धिगच
चरि@@
ौषधं
तदनु@@
रतिभाति
नरके
नाशयन
रजाः
यजा@@
आनी@@
रणीयम
शयत
उचितम
किचित
वयात
दिनत
अपघातः
भुतम
विरामः
षिक@@
यपरि@@
रियताम
रचयन
युगपत
मानवाः
साधि@@
नानाय
नायकः
आनेतुम
धराम
भृशं
रहृत
तकर@@
सोदर
मानिता
रूणि
वयत
गमे
यसनेषु
सयन
साव@@
भृङ
पूरयित
वेदोप@@
रतीकारः
ऽप
निवेदितम
थानाम
षीर@@
रणात
भुशुण
थिरी@@
नानु@@
माज
रवेश@@
विमुच
लानाम
भेषजम
रणिपत
विहिता
ंसि
भूर
खेलन
उपसृत
बहुप
रुतवन
यूष@@
षामि
आतप@@
तेयम
समागतः
सताम
परिवेष
ठेन
बुधैः
णार
रकाशं
मया@@
धैः
रूपा@@
आचरन
तथाप
भूतम
याजहार
वासिनः
मव
वेषयामि
रयित
विहस
रयतते
साट
तमानः
रुवे
नाङ
समेषां
ञापयतु
अवगतम
बुज@@
रूयतां
षमस
षणा@@
रबल@@
तमिव
नेभ
मारं
तलायाः
आनीता
वामिनः
दिवसस
तथै@@
यमिव
वगृहं
वचो
तमाने
कराः
विपश
पशुभिः
योगश
विनाशाय
पदां
तृभ
पृथिवीं
षतु
योम
रथमम
नामि@@
ञातः
देवेषु
तीः
कुशलम
देशात
दानेन
समीपम
गोधू@@
कुरं
वेदानाम
अपि@@
थापयामि
पठि@@
नगरात
मरसि
रृणु
पतितानि
रोडः
खादितुम
नीतः
याच@@
छताम
सादरम
विवेकः
पाठकः
मासि
बलिः
नृपतिः
पतिता
षयसि
आनयसि
वीकुरु
षयित
ठसि
पिबसि
भानोः
भुः
ञापयति
वभावः
भाषायाम
शालायाः
छां
पूजां
तथ@@
फीतः
करौ
दतः
रामश
कालात
अतिष
दीपाः
थतः
वश@@
रयोगे
चैवं
निह@@
विनिर
जननम
तै
णुर
षरूपेण
तयामि
सुकरं
अतिथयः
आदरं
काशीं
नीरवः
चण@@
लिखानि
वाचनस
मारितवन
कोशे
नकं
ञानिकैः
करणीयं
साहं
षीयः
णीयम
समाचारं
यानपेटिकाम
टिकाः
मितवान
बालकानां
धकः
किशोरस
चलतां
वदानि
गोवत
षकं
तिकायाः
णिमा@@
गोपालः
धेनुं
गवां
आनीतानि
रवातस
पाठयामि
आपणात
अहमेव
पठितवती
तृतीयस
षाय
मोदन
थलानि
तिरो@@
थयामहे
एकमेव
आनेतुं
रेषयन
देवरः
रेलसेवकः
शनैःशनैः
नूतने
धनेभ
निवेद@@
रापयितुं
चलभाषं
पुरातनं
पुर@@
तरामि
वयामि
नानगृहे
रिकायां
पीतवान
लवणं
लिखितवती
पुरातनः
पठतु
युवकस
शिवाभगिनी
रहान
चमसेन
तदपि
निचुल
चकि@@
कोटिशः
आनयन
रायै
विमानानि
विविधेषु
रीडकाः
वैदिकं
रूणां
युतकं
वगृहे
नमेव
रिकायाः
मतानि
रेलयानात
सैनिकान
अधिकानि
राभि@@
रीधरस
नदीं
शिशवः
पादेन
नाशं
पठितवन
परिज
धारणे
वाचने
निहिता
तलां
दाप@@
तमाः
लिनः
सभां
तुला@@
बहून
यायि@@
ससम
थमा@@
पिपासा@@
यमध
रये@@
तोन
योजयेत
यथास
विवादं
महीयते
धेनो
युं
जीवितं
तमप
सहयोगेन
रजायते
गतिर
टाश
कृतोऽ@@
भवा@@
मिक@@
नादि@@
मून
नानाम
केषां
कोशस
गावत
साधनं
कृतसप
मवत
शीलस
एकोऽपि
कापि
घोरं
तुषु
सुता@@
मादाय
टास
थितस
याधिर
गमनेन
टां
मीति
धेनु
लयस
गुडं
तलिकां
तलिकायाः
भावं
पुरुषा
लताभ
विदेश@@
चेद
आगतं
कृतभारत
पुतुप
तरमेव
४०
राशि@@
षणानि
रेऽस
पाकेन
भारतसर
गीत@@
ताहा@@
कनं
आवे@@
रकाशि@@
यराष
वचषकस
रनिर
सपदि
साहसं
तावन
थोऽपि
पुरः
तेयं
विश@@
लोचनं
वधू@@
पदारविन
यदन
रीगुरवे
महति
विहितः
तिथ
ोऽपि
वाऽऽ@@
४१
रुते
यमुत
भोजना@@
सीतां
सरलम
बहुविधं
टमे
रमाणं
षिपतु
कृतमयं
पशूनां
भवेयुः
सवस
गणयामः
गानां
मालिङ
षितौ
रीवस
धमिति
मुपा@@
च-
तोः
पूतं
दूरतः
थासु
टाटा@@
नतिं
पराजि@@
तमासस
थये
कथयन
दिति
डिसम
यमानेन
आयो@@
रलये
गृहीतं
तमानाः
गृहमन
णानन
धिता
यसर
दौत
यरूपेण
मृतानां
इतःपर
ओस
टण
कायिकक
दासस
नामक@@
रपतिना
राहुलगान
रकाशिते
निति
रकर@@
अधिकारिणा
रीलालबहादुरशास
ययनानि
सराभ
दृढीकृतम
समारोहस
रोफ
यायुक
तमिति
नीतिपीठेन
विधे@@
रिणं
५६
अभिमुखी@@
उपयोक
तंबर
रतिशतं
कोमण
रजतानि
रैरपि
शीलेन
पुनरा@@
किमु
वचि@@
२०२४
२०२३
भरतो
भरतं
धनधान
कोमलता
कुटिलता
आसानी
रंगों
तिगत
कठिनता
सजाया
ऊँची
चिकना
घने
ताली
वकाल
असमय
उदास
यागने
डूबी
बोया
खंड@@
लट
रुचिकर
धयुक
तेजित
उठना
धोखा
उतरना
चुनना
धोखेबाज
शीशा
ताला
तमी
नवमी
मारी
गले@@
थिनी
सारथी
टाइ@@
पुजारी
पायलट
घुँघराले
निचले
होंठ
उंगली
एड
छाता
नेवला
बकरा
वड
गौरैया
कन@@
बिच
मटर
लहसुन
इलायची
ती-@@
कली
पारि@@
सुगंधित
नीबू
तरकस
चूड
तंभ
गोशाला
सेट
रेडियो
तरं@@
लौ
पकने
विनो@@
चाकू
खांसी
फैलाना
पौधे
वितरित
चुट@@
खींचना
जलना
रसो@@
तेरह
नब
बदनामी
लाइट
चिंतन
तविकता
सेंडैंटल
तटस
विफल
e
नियमित
वांछनीय
दैनिक
जरूरी
झूठा
वेषण
असाधारण
गलती
वेषी
परिधान
मसमर
गरीबी
अभिमानी
t@@
l@@
d@@
दयी
st@@
काबू
वाकांक
आतंक@@
तीफा
आयात
घायु
अभिभूत
वंशज
रवाई
आंखें
ऊंचा
यकारी
मेदारी
तालिका
खींच
मकान
रूट
उपहार
तरां
एकल
हाथी@@
औद
000
तारों
वजह
वली
आंखों
सुनवाई
संपादकीय
सारांश
संरचना
शनि@@
सहमति
मकर
निकटता
बहाल
नुसार
समतल
समवर
यानी
वना
तियां
सराहना
ंत@@
छुआ
नीचा
इरा@@
दियों
नज
षमाशील
माँगने
फूल@@
दोलन
घटनाओं
मेघमाला
नना
इलाज
रावास
तराजू
पालि@@
ननद
विनय@@
नाविक
बुझा@@
नाचना
चिट
पूछना
भांजा
गोलाकार
मांगने
लगना
रोकना
रुकावट
लाव
सूप
साला
रंश@@
मुसीबत
पढ़ती
योगशिक
घमने
पसंदीदा
योहारों
वशीर
-सम
दासी
विनाशक
पहुं@@
बोलनी
विनाश@@
धिहीन
निकृष
सोच-विचार
सेवकों
करों
कवियों
सता@@
लड़के
ऊंचे
किसे
टेण
काले@@
बैठिए
सकेगा
बोलिए
दीखते
शुभकामना
ठावान
बताई
फँस
निकली
चलिए
झो@@
भी-@@
विकम
गोदावरी
डाली
गरजते
भौंकते
सिनेमा
दोबारा
पाएगा
काटती
चुनकर
निसर
मारती
बैलों
ताई
पीछे-पीछे
मारते
दोषी
भीक
अँधेरा
लगन
नियत
किरीट
नूपुर
तसे
कोने
रीनन
रुके
धनका
मौसी
कोख
फी@@
छाछ
नामकरण
मीय
शेषम
वाभा@@
बेचते
बावड
धनराशि
आचार@@
आवेश
चिरकाल
भवाः
शोका@@
बलिष
वनवासी
ढे@@
ताने
अभिला@@
विह
छिपाता
पुतली
आशय
घुड
अवलम
मुखकमल
उठी
तचित
आय
खीं@@
रपुष
उठे
धनवानों
सहयोगी
पालन-पोषण
बिताना
उतार
हँसकर
पहना@@
रोकते
अटारी
सोए
घावों
जहरी@@
गिराया
पीये
डियों
शारदा
डीव
उपाख
कलाओं
किरणें
थकी
सको@@
नैमिषारण
बली
मगर
कंगन
पुट
आदत
कशा
तकौमुदी
पोथी
रमञ
युवावस
कुलक
तियुक
तेलमालिश
काँटा
चांदी
णमय
बुलाते
काटा
अवयव
नेहन
वेदन
निका
नाल
अतिस
मलाई
अवगा@@
दनादि
मेद
गूलर
बताने
यमय
चाह@@
जागो
तेजोमय
अहिंसक
ं-@@
कुटिल
पहिये
होऊँ
परया
साधुओं
रियाएँ
वसु
ऋष@@
रवाहित
होओ
पुरूष
फित
समाधान
जलती
गलोक
हुसैन
राई
पूछकर
विदुषी
रोगे
दीया
ऊनी
उबटन
गाढ
चाई
ठहरता
ठहरा
नामों
फट
दाना
जलाती
भारद
लयुद
भीम@@
हटा@@
निवासस
ठहरते
हिंसा@@
उतरकर
सुने
वातन
बाग़
दवा@@
यकाम
कामवासना
भं@@
बैठोगे
तनु
शिवजी
पीटते
दौड़ता
कुशल@@
सेनापति
खरीदकर
मपुत
जॉर
जाननेवाले
सलाहकार
सिकुड
ढीला
पकाते
देवशर
बहुतों
पैतृक
अनुप@@
काटकर
पाँचवें
अभिल@@
भावि
ञक
राणो
रोष@@
शंका
तावना
अंशों
सकेंगे
भों
अपार
रंगमंच
होगे
इतिवृत
संविधान
कथावस
वाधीन@@
मारीच
भुजाएँ
छिलका
पिलाती
आतता@@
पाएँगे
अंजार
असह
वागत@@
जलाराम
भाभीजी
चाहा
बनाएगा
शिबिर
मोटे
आलिमचन
वेदपाठ
मयुद
वाई
थाल
वनियाँ
दती
बिटर
दीवाल
संशोधन
काँटे
नहा@@
हँसाता
लिपि
गीली
खरीदिये
गाय@@
आहिर
गाँवों
गुरुनानक
गुरुपूर
मंगलकामनाएँ
गोबर
सुगंध
चेम
सबर
जयदीप
जयपाल
मंजिल
भगतसिंह
अंडमान
गाए
दीपककुमार
फेन
बैठती
मीनाक
नागरिकों
नामांकन
रुका
नासिक
सुमधुरं
यमुक
बाँधती
पतञ
लौटा@@
आला@@
मालविका
लापन
जुहू
दादि@@
A@@
जाऊँगी
बाएँ
बचा@@
उदय@@
आंध
ेगी
विराम
किशोर@@
पकाती
सीख
रकला
तिवाचन
अँगीठी
हल@@
यातना
रापत
धाभ
तुका@@
एकसाथ
रणपत
रमिकों
वाव@@
रतिनिधि
पदवी
काशीविश
रदाय
सुधीर
सुलेखा
सुशी@@
सूरत
वदेशी
हिमदास
दिका
धुजन
बिया
पुं
महिलायें
शीला
अंगी@@
रामवासी
लोकतन
राजतन
नेहपूर
पारितोषिक
सहा
डवों
उपवे@@
महाकाल
जायेगें
देखे@@
मनुते
शिखरं
तरेषु
किसल@@
विवाहिता
मांगलिक
पतियों
परिहार
किनके
22वें
पढा@@
आशं@@
साधना
थमें
दुःखसे
धमन
लालची
सुत
खाज
तीखे
शिवाजी
संशोधित
पोषक
गाँधी
मानों
कथाम
रुधिर
ऊपर@@
रगो@@
रयोजन@@
वीका
रकारका
औषधा@@
रहणसे
होताहै
साशास
डित@@
वेदका
शारी@@
रकस
थानात
नामसे
करनेमें
अमृतके
अगाडी
पाय
राल
सुपेद
वेदात
रोपण
मैथुन@@
विकार@@
मेद@@
नोंका
कांति
दरद
तिवर
वायुकी
कृशता
शरीरका
भारीपन
अंगो@@
योंने
संधा@@
टिकर
बृंहण
बुद@@
रीक
रतट
अजीज
यभट
सकी
गुंजायमान
संदूक
घनी
पिघल
ाई-झगड
विवश
राजहंस
पितामह@@
ञानयज
समचित
तामस
महाभाष
पढ़ने
निल
दुओं
भरो
मवती
राचीनकाल
पाणिनि
गुरुत
वाकर
वचा@@
महारानी
कँ@@
मदन
लूंगा
रायण
नाशः
याकर
घप
पितृ
जीतकर
षिणा@@
फेंकने
मरते
सोये
मंगलमय
ढके
अतिशीघ
तूफान
करूं
राजसभा
चाहियें
पध
कांटे
डालकर
हरड
शर@@
भाल
कारय
गुणकारी
ननंद
साड़ी
खड़े
वेदपाठी
रीग@@
खड़ा
दिलाया
गुली
हुँ
रभाषा
रुपी
गेहूं
जलकर
छोड़
विवेकी
नकुल
गूँ@@
ञानियों
बड़बड़ा
होटल
केमिकल
टीवी
सबनें
हँसे
ंडा
शतावरी
ऐस
रुर
परिजन
पुटुपल
17@@
हॉल
कमांडर
विवेदी
युटिकल
.30
तापमान@@
लानिस
मौतें
फुटेज
निकले
उपमुख
समानी
वप@@
हिंदी
लद
जितनी
बचने
यौवन
एकाक
छप
संभोग
रने
रुपूर
धिसे
थको
तमाल@@
दनको
लगाते
दाँ@@
दनी@@
विजश
नेपर
आचरण@@
संसारको
विहित
जानेसे
शंकर@@
जनोंकी
मनरूपी
लोचन@@
जानकीजी
डिले
षय@@
रोमांच
करुण
कौतुक
पुट@@
चरणकमलो@@
गोकुल@@
गोवर
केतन
कमलो@@
दसे
विलास@@
देवताओंके
मीपते
धीश
दह@@
टिसे
हैं-
तापत
णभक
गुरुदेवको
विवेक@@
विलीन
याकरण@@
णुके
पूछा-
अणिमा
णूर
मणी
दोषो
नपा@@
अपस
पीवे
होत
चकर
गोमूत
षणो
रेखा@@
योगों
शिग
शूल@@
भिषक
पृश
गुणो
धियो
विड
कमललोचन
समझो
नमय
लभा
सजल
आरूढ
आभ@@
परोपकार@@
महादेवजी
हमलोग
वादि
शबरी
बताइए
यमूक
मदोन
अभिषिक
दुभि
कीट@@
दपूर
हैदराबाद
वाजपेयी
निका@@
गवी
इंदौर
वासियों
उरी
कॉम
ऐतिहासिक
टेशनों
कपिल
बु
वेदप
मातुल
विजि@@
कहूँ
रभूषण
वाधीनतासंग
नुरागी
जिया
टीका@@
रीप
अभिराम
शला@@
अरविन
देवे@@
भकर
सरोज
विनयेन
यकशिपु
धिके
हीसे
होतेहैं
जाय@@
नेस
थानके
यंग@@
शका
ॉ@@
धनक
विविक
रचु@@
तिमें
उपकरणों
बों
गीध
लक@@
यभिचार
देशो
खेलों
यानचन
ञाचक
जलीय
रचलित
युदण
अपव
आषा@@
राहि@@
जोसेफ
कलाम
ईए
यवश
कृत-प
वटु
गोशाला@@
यवन
चेतावनी
डॉलर
सीन
उपचुनाव
चांटी
90
रकांत
अलाप
36
धामी
डाॅश
.एस@@
में-@@
रशंसित
हराया
नट@@
दाखिल
सग
थितियों
पदकों
खालिस
फीट
छूट
वैमानि@@
राजील
रोनाल
रतियोगिताओं
थानी@@
तुला
महाभाग
शुरूआत
बजाय
किता@@
एमवी
तेश
160
पी.एस@@
हफ
याएं
नतीजे
तेलुगु
परमिट
षाशास
200
कैबिनेट
य-संस
च-@@
शकुंतला
रकारों
सिट
लिथियम
रूपक
भावनात
अमुना
सीओवीआईडी
ई.
डिन
ल-संस
चीन-@@
रांसिस
विधेयक
फोर
पोर
टेलीफोन
पेनाल
500
डेय@@
कुरियाक
इमरान
गेट
रदू@@
परता
खतरे
जॉ@@
जिक
41
रॉन
एनडी@@
ओमिक
33
वानुमान
देशद
संभाषण
जयिनी
यवनों
जामुन
अहा
तमसो
कोत
नेप
अरुन
उपहसन
केसरी
कृतविद
सहायतां
रूपवती
मधुरभाषी
कुपुत
उठाते
शूरवीर
कुरूपता
करुणा
अनी@@
वैशिष
ना-
तरीकों
गंगाजी
बनिये
विरह
पातिव
दोंके
अंश@@
समयमें
सखा
कादि@@
यादा@@
कामी
रियोंके
दासो@@
६८
वेणी
नरक@@
कमलको
वेङ
शेषजी
शरीरवाले
वामिनी
मको
रमणि@@
भुजङ
याको
धनसे
वनको
सतीत
करनेकी
नीचो@@
ञाना@@
विपरीत@@
णाक
किसीको
बको
चिता@@
दूध@@
यसनी
परमपुरुष
कामना@@
कूल@@
जानकी
चरम
ररूप
जनप
पुराण@@
नयन@@
दायिनी
णाश
यामी
टापूर
घी@@
देहेन
रागात
पुल@@
वरान
वरूप@@
तपती
पीठस
लेखन@@
नैष
विही@@
गामी
टतया
धू
बजे@@
षप
रोंकी
वलिष
कठो@@
अरुणाचलप
दले
खनि@@
विजोत
ययस
महाबाहो
असिद
सका@@
वॉट
मानसम
अल-@@
औरंगजेब
जलाश@@
षिण-@@
गैसा
वु@@
संभा@@
अशास
पुनीत
आम@@
रोच
देहरादू@@
परिचा@@
याचिकाकर
हौरा
बाय
कैंसर
का-@@
सफल@@
भगवदज
पहुंचकर
अपराह
सेक
रामन
शशाङ
डली
लोचना
सव@@
अभिमान@@
रीध@@
जके
मधुप
आविर
हास@@
भाले
रुह@@
वीणा@@
निशुम
णुने
तिथि@@
तपती@@
रसू@@
शाव@@
रघुनाथजी
रीभरतजी
वक@@
पुनः@@
शैलपुत
वदेशी@@
विरा@@
यदु
निखिल
एफ
समारो@@
आकार@@
मुनिगण
माभि@@
पाणिग
तमक
रिके@@
याचे
तकाल@@
निपात@@
रामगीता
निषिद
तामात
परशु@@
रामजी
विराध
नुष
घोर@@
पाषा@@
केके@@
धचन
पादपद
रतिवसति
कृष@@
भवताम
धद
कणम
रभावात
रथिता
वबन
मुपेत
समवायः
षीयन
खिल@@
भूषणानि
धृतिः
तुङ
दैवम
समाना
वैकल
अवेक
नभः
पूरयन
ठान@@
बहुश
उध
परसम
अली@@
चाभि@@
नेहम
अजल
हुता@@
वृतम
षीयते
शेषः
रोञ
करप
दृशम
वसनम
मिदम
देहिनाम
मविनिग
वचनम
महे@@
युधि
गवः
मालाभ
जननीभ
युवाभ
रामौ
घाटनम
रजकः
सिकः
दभ
एड@@
महिषः
कोचः
आपणः
ऋणम
पणः
जिका
धरात
लोकम
षिन
पिकः
भानु@@
जवनिका
उपधानम
शाटिका
मानवः
पकः
केशः
कतं
शकटः
अजः
जालम
मीनः
बीज@@
कुसुमम
तृणम
कूपः
सुरङ
भरणम
विभेदः
दकम
तरणम
यजनम
थवर
मशी@@
भाजनम
गार@@
पानं
रसारयति
पूजयति
थगयति
रवति
विकसति
उदेति
पादोन
षोडश
कोटिः
अंतरंग
अंशु@@
अकीर
कृतात
रदीपः
घं
ठानं
ठाय
चेतस
अनु
धीनि
सुखः
वेषणम
अपहृ@@
अपी@@
यहन
यासात
नयोः
अवधी@@
अवसन
अवसरः
वांसः
तिना
विनि
मूढः
थिरं
आचारः
आतङ
मकः
मैव
तिकं
आधारः
आरूढ@@
इतर
नतिः
मिषन
उपैति
उभयोः
उभे
वमुख
ऋषिः
एति
एवं@@
रहेण
सचिवः
सतः
पमस
समानाः
समारोहः
सवि@@
सहितं
सागरः
कृती
लेशः
सुखस
सुखानि
सुखिनः
चारः
सुदुष
जानु@@
सेतु@@
सेवया
सौमित
पुः
मृतिभ
हनु@@
तिनि
हेतोः
षिपामि
अधिपतिः
भकः
पाहारः
यवः
आगमनम
आमल@@
आसनम
हरणम
पालः
उपरिष
ऋतुः
कशः
कीदृश
तीरम
धाव
निवेदनम
पानीयम
पायसम
रवासः
रसीदति
भवनम
रमणम
मदः
महिषी
षसः
लवणम
वाहनम
छेदः
यालः
टमकक
धिका
लेखकः
जगदिदं
जपति
भेतव
बाधते
रसायनम
राजद
गौरवम
बीजं
यफलं
गतमा@@
यमद
यवहारे
राजानः
दुकेन
कुरुथ
पठतः
यपानं
मुनिं
नृपं
पीतम
शितम
मरणीयः
तकोषे
चिताः
षितवान
दव
विषयस
पतितवान
रिचक
रिक@@
रमाणम
जतः
विहगाः
वैरम
पिपी@@
खेलिष
चिरम
अगणयत
मौक
तनू@@
चाक@@
षिपन
नामधेयम
निरनुक
सयति
दाभ
इतर@@
विकत
रसृ@@
निहि@@
अभिवाद
वाचि
परु@@
विदार
भविता
मृदुः
रचो@@
याधा@@
किमिति
ःस
ैस
केलि@@
याताः
रिय-@@
शुकाः
भासते
ययने
पठने
माप@@
दीयमानं
ववर
वेषात
गुणज
सुः
शयितुम
कुसुमा@@
नोम
रकृतिः
रदेशाः
विनिश
नामधे@@
अनपत
वाचा@@
पनी@@
जिजीवि@@
सिते
पुनश
षच
रणीया
भूतानां
तमश
वीत@@
चिराय
अवोचत
पेत
खलि@@
रमृ@@
रोधेन
वीरस
विदधीत
विमृश
सदसि
परमा@@
तटा@@
आयव
निरोधः
जुगुप
सलिलम
बाधि@@
याचि@@
षेद
षीणः
गुणैः
डलमण
रवहन
भूयो
वरितं
केशवः
मादृ@@
ञाति@@
भूषितः
छलनध
वाचः
रणान
यपा@@
रददाति
कूप
पठितम
शार@@
धेषु
ऽन@@
परावृत
मदि@@
रवाह@@
युगलम
ऽसौ
ेऽ@@
भवनस
समागमः
लोचनम
अभिवाद@@
यौवने
महतां
नितान
वितं
दुप@@
लोद
यामल@@
फलाम
पशून
विवेश
कृषी@@
कामो
दूतः
पणी@@
अद@@
मीः
विव
तेजः
धिताय
जयते
रधानं
ोऽ@@
योगिनः
नेति
रणमामि
नदीनां
अधा@@
बृं@@
दधातु
दानीं
तपसः
असीत
वाचम
वाजि@@
मृष
पतयः
णामि
बालके
महिष
पटं
अय
मलिनम
मसीपात
भोजनाय
डलि@@
रोतुं
कूपे
पचामि
वहसि
रेतुम
रसादः
लेखि@@
उपवेक
शयामि
सपाद@@
ताडयिष
घाटय
नीचैः
ञापितम
षणीयम
पेयम
रवीणः
रचारं
लोकयति
देवाभ
तकेषु
शृणु@@
वैव
जनै
रवेशः
वृणीष
अवदम
नाथः
युपा@@
शितवान
लेखनीयः
रकाशम
पराङ
चारयति
घोषयन
रथे
रथं
पठनाय
बुधः
कुमारस
लिखसि
आतपे
दानाय
रविः
जिष
वकीयां
रातरं
रियवादी
यजसि
जलमपि
अटन
टनम
लोप@@
पिताः
कव
बालाः
यते@@
मिदानीं
वसुधां
याकरणं
किमध
गणितं
अहृष
राजत
हीयते
तातः
रुरोद
रतिनिवृत
महाभागः
रभः
यधर
दुःखि@@
महो@@
वशास
करोम
तिना@@
शेषाः
भाषितम
लोचनः
यवसितम
रैश
नराणाम
वाऽपि
थानकं
यविद
वीरसैनिकाः
यरताः
तुषा@@
रमयं
उपयोगः
कारागा@@
पीतवती
घां
पाकशाला@@
संजाता
महाभागाः
सभायाः
नववर
यतनं
रतापस
भागस
णोत
पाकं
कृतदिनम
दिनात
भयभीताः
धहोरा
परिचयः
आवेदनपत
शुभकामनाः
नीरवस
रेरितवान
चालितवान
मतुलः
धारयिष
आदेशं
कृतपुस
कमेव
तविंशतिः
रेलयानम
एतादृशं
उपधाने
सतीशः
लिखितानि
पाययामि
पितवन
यानात
यानपेटिकाः
डिताः
यानपेटिकां
यदले
कोपि
रृ@@
दीपगोल@@
गानं
गुरुकुल@@
गुजरातस
मारयति
यवहरति
गृहाङ
चलतु
चालकस
लिकां
बहुविधानि
ञातवान
जयपालः
पीठिकायां
राल@@
शनीयानि
षिणे
दीपेशः
आपणि@@
देवनागर
नगरेषु
रपरश
नीलेशः
कूटाक
रिकं
बालिकां
रीयं
शिशुं
एकविंशतिः
बईनगरे
याधिः
विवरणम
रेषयामि
अभवताम
खादा@@
गृहतः
भारतीयान
रोगेण
पितवान
षितुं
आहुतिं
रणार
रिभ
अवरो@@
रणाल
मीयते
खगानां
उपयोगं
वरितमेव
अनवधानेन
बालकान
भानवे
भारतीयः
मननः
रुचिं
संघस
राममेव
बालिकायै
पितवती
यानानां
घटनाः
चलावः
उपविशामः
परिवारजनाः
शीतलं
ठेत
षिकः
ताले
मेलितवान
वविधानि
आहूतवन
कृतक
सैनिकानां
मुदिताः
बहूनां
कृतमेव
भारतदेशे
कारयानं
शासनम
यावरणम
रेषयिष
सिंहं
अतिशैत
गमनसमये
साधा@@
शयतु
रचलिष
विशेषः
लतायाः
रपरह
बालिकानां
दिराणां
मुधा
गीयते
सुखकरी
देवेभ
रयिष
अखादत
देहलीं
चषकेन
भाषते
रीडायाम
पोष
पठेत
यालयाः
सिंहेन
नीयते
छथ
विचारान
गरवः
धीमताम
वमि@@
यमत
विल@@
धृत@@
याणाम
षीः
मभिः
तदु@@
मसु
मतिमान
शुचिर
मादा@@
देषु
जननं
देहस
नामन
वये@@
पाट
तैश
विविधा
याया
वथा@@
योगदानं
गामिनी
कौश@@
णका@@
गृहमागत
धोऽपि
हीना
तितं
युस
पेयं
षणमपि
जातं
तीम
डितो
कोऽप
रकुर
लोकेऽस
रकारेण
सैव
यबन
काद
याभरणं
धीत
इमानि
पादि@@
लच
पाठितः
भोपाले
तिलकः
रभावेण
गजाः
रहितः
शाहः
तनोति
रिपु
कितम
कानि@@
रणश
एतदा@@
वशात
चनम
चिज
हेत
नियोजयेत
विम@@
शश@@
रजेत
थितिम
मयूरा
रिर
वादस
गभी@@
मकस
यमू@@
ताद
समाह@@
यूनं
षोऽपि
जनसंसर
अयमेव
नितरां
विदेशेषु
रधानम
sस
वेशः
साहा@@
अनभ
चयेत
शोको
शिथि@@
दूरा@@
लतयोः
दैवतं
एकादश@@
वशे
रकट@@
मातृष
धतया
घाटनकार
सरानन
वैदिकमङ
रभावेन
समभवत
रतिरोध@@
रणिताः
१२@@
धिकारिभिः
बहुभिः
मनुभवन
देशाः
रमेऽस
संयोजकः
अनुभूयते
आभारतं
नवशिक
मरणानि
रतिवेदितानि
कितानि
नायाः
तवि@@
यचक
८०
थगि@@
विधानसभा@@
दलः
रचारणं
वचषकपादकन
घुष
पतिताः
तुकामा
विभवो
मुनीनां
तादृशः
घृष
कलौ
विनयं
वभि@@
तमु@@
कारार
तकाः
यागतो
रणाः
शनेन
वदङ
पाङ
४२
रनि@@
यामं
लिका@@
नामुप@@
लाय
सूनु@@
वपुः
वासि
गाश
मानस@@
गग@@
चाश
अतस
रुन
भूता@@
थितेः
यमाणस
रूपस
तरीय@@
किमे@@
चिद@@
पिबेत
गुरुणा
रिकार
थवा
तमानं
टायां
पूजयित
नाराय@@
वानिति
योऽहं
चिच
तयोर
मायया
शिरो
रीवो
नामाभिधानं
अनेकान
भरतस
थानीयं
विसहस
मधुना
कीं
रमिकः
फलकं
धनात
यापीठस
थिते
वीरान
सैनिकेभ
चलत
यौषधं
यसङ
गलू@@
शकान
आयोजिता
अधिकारिणः
शमनं
शुन@@
एवा@@
मुपैति
जनै@@
युति@@
रयाणां
रीतिं
धासु
लिखिता
वीकृताः
बलस
देशा
तरभारते
नेतृ@@
दुकं
शिबिरं
अवगन
तड़ा@@
योगो
यानम@@
रमणस
डोलर
हमासस
यामस
कानडा@@
बोम
रचाल
यमानाय
उपनिर
९०
षिणाफ
एरणाकुलं
याजवार
मनुसृत
समीपकाले
५४
चिते
रीकृत
कृतमिति
संघेन
भूखण
कायि@@
दारभ
वयेन
चशिखरसम
रतियोगि@@
वसूचना
वैराणु@@
विहि@@
धिते
रकाशितं
१६०
वेलायां
देभ
विषयमिदं
वीकृतवन
नासायाः
रुवरिमासस
२००
इदंप
विषयमधिकृत
समायोजिता
समप
शोधच
५१
यीकृत
रुवरि
दुकताड@@
सरीये
७७
वाहिन
रीशङ
धित@@
७५
अंशतया
रतिवेद@@
आतुरालये
काराष
दलाः
धिषणावृत
चाब
दलेन
गीकारः
षद@@
४७
रकृतेः
भाषमाणः
भीकर@@
यमिदं
रवणं
यमिति
३३
४८
बूफलानि
थौ
रीरामः
वसनं
टाब
सवाहिरिः
रुवाणि
हीनं
विजः
रायो
कथमे@@
नायं
केचिद
धुभिः
भजे
याहं
विधिना
चैनं
शैले
निशि
मुनिभिर
सानुजः
सहितो
राघवः
संकोच
नतापूर
अठारह
कमरों
डेढ़
भूतों
बड़@@
काँपती
फहरा@@
घोंसले
चोरों
खजाना
वाधिक
एकमत
चकवा
सगे
पहुँचती
पोंछ
चाहना
छिपी
लगाई
रसोईघर
निराशा
खोलो
धूलिधूसरित
रजो
जूठा
केतु
तमौ@@
चाटना
साई
जुलाहा
कद@@
निकम
भागता
गुन
दशमी
रयोदशी
षिणायन
रुमाल
उपचा@@
सँ@@
रसोइया
कोह@@
जाँ@@
सूजन
पीतल
पालकी
तख
टोप
मकड
तली
टी-@@
जू
सुपारी
खला
सूरज@@
कांटा
मशरूम
पौधों
बाड
सुरंग
पग@@
कोड
निकर
बाली
मेंट
तारक
लैं@@
डिस
नड
ंडर
अखबार
िन
भाज@@
कुकर
फाल@@
पाइप
निगल
ोड
नाटकों
बोता
पैमाने
निदान
ऊंची
छला@@
खियों
चराता
फोड
गुर@@
इयों
पौने
बजकर
नीस
साठ
आंशिक
मनसे
अटूट
अचूक
अजात
छिक
पुनरावृत
अजन
सुपर
अधार
खिंचाव
विचलन
c@@
भाड
अनुबंध
अनुयायियों
नानुसार
परास
अजेय
बाधाओं
गायब
तेदारों
घिरा
लंबाई
नफरत
कमाई
षासन
असंभव
हंसी
ञानता
u@@
कामु@@
निडर
आब@@
विफलता
अहिं@@
अजान
शूटिंग
मसंयम
आरती
सकर
आराध
आलोचना
ंघ@@
नेटवर
लेनी
आसुरी
महारत
रवा
बेड
संतों
कूद
अतिप
खोला
उपयोगिता
तरबूज
ताकत
बें@@
योगिक
ंज
जियों
शनि
नागार
शरणार
शाखाओं
गहरे
संपादन
हवाओं
रीज
सशस
हालांकि
खुशबू
तिकेय
फिसल
मौजूदा
मैक
नहाना
बहने
सहिष
कों@@
अनुशासन
ज़@@
बेचैन
दानी
हलचल
कहावत
जीजा
रचंड
सुकता
कुमुदिनी
दौलत
धब
यशोगान
कंजूस
चयपूर
गहरा
याला
तैरना
घान
इनाम
लौटना
सवाल
कुली
भौं@@
ड़ना
संयमित
बचाव
फायदा
मथना
लुटेरा
ज़
असल
बहना
बाजा
चमकने
छु
गाड़ी
रमश
काया
टह@@
ठंडी
झुण
सोचे
इंगित
फौज
ठहरना
वेटर
खिचड
कसरत
लेके
गणपति
ष-
राजानं
कहलाती
देहधारियों
समागम
संगत
दानवीर
संकटों
वशीकरण
रूखे
बंधे
रितों
छिपाकर
कमजोरी
उजागर
छिपकर
मचारियों
सुख-दुःख
कृमि
तपश
निकालते
गौओं
पियो
अदालत
रुकिये
तकलीफ
नागराज
बँ@@
मिलूँगा
पधारे
मी-@@
काय@@
किंवदन
तुंगबल
सुंदरता
बसें
नाती
ढोते
संकुचित
तंग
कृपणता
रियाशील
सीढ़ी
कठिनाइयों
बेटों
धमकाती
पादिका
आदतों
विशेषरूप
हुओं
चौराहे
उखाड
उबालती
पाये
कालिक
जलों
अनिन
युवतियों
भली-भाँति
घन
रमोद
तिहीन
डरो
साकार
पंखों
नीचों
बौ@@
खोरी
रूरता
विकी
होऊँगा
किङ
किणी
अनुकू@@
मेखला
धारणा@@
संयम@@
जीको
बताती
वंशीध
बलिहारी
वेषसे
राजाके
लत
कागज
तकनी@@
पलायन
धोते
याणप
वाने
मापने
गहराई
माँगते
राजभवन
मूँछ
बोलकर
बहार
षरों
वेदादि
चातक
नियमा@@
आरण
चमकते
सुमेरु
हटी
काकपक
छोटा-सा
चलम
चिरा@@
असफलता
बनो
विचारकर
लाखों
वरुण@@
बनं
सलों
गगन
ढाई
ढ़ी
बजाओ
टूटकर
बेचकर
तालाबों
गुलाम
कौर
अभिमन
रलाप
भटका
सोचो
खिल
बाईं
काटे
परिणत
कमलपत
तुषार
डालने
नृसिंह
छेदने
शिरोमणि
वनप
भूमण
फैक
उठते
मिनी
बायें
बाँधी
जमींदारों
रौढमनोरमा
रोके
लौटाने
आँखे
कमलिनी
राहित
रात-दिन
फटने
सताए
भेदः
इसमे
फोटक
कीम
शरोग
मुलहठी
माख
मासरस
दुःखदायी
करणीय
आदान-प
अमृतत
रखनेवाले
महापराक
महापुरुषों
साथी
नेवालों
मेढ
डाकू
सहृद@@
पाच
कहूँगा
धिकी
जब-जब
पूजी
रथों
उषा
कीय
औषधी
रचिन
मानवा@@
वियुक
थवान
बढ़ता
यामन
वोपरि
राणात
नाप@@
तुमअब
भैंसा
डरा
जलाकर
रूँगा
भूमित
बोलेगा
नाह
-पुत
मददगार
रेरक
कराओ
जीवात
हैरान
मदत
दिखाएगा
सकाशात
बिक
परिमाण
धपञ
दवात
तसवीर
बुआ
गरजता
आंगन
टुक@@
भूलता
हरा@@
देवरानी
तब-@@
मनचाहा
मांग@@
धनंजय
मृतक
वासुदेव
सचमुच
आघात
बले
टूटना
फँ@@
लीजिए
महाशय
फलता
षण-@@
उतरा
जगा
चरणः
लूला
आओगे
घोड़े
पमाला
पढूँगा
सहवास
शौच
ठहरे@@
बैठूंगा
ून
खानेवाला
कढ
मातृ
षुओं
मसूर
पीटने
ऊं
ीर
कहूंगा
निरुपद
देखेंगे
थाश
गरज@@
जमुहाई
यती
शोभता
नाता
मांगता
पादों
कुड@@
खुले
तन-@@
लोकसेवा
योतिषी
गुज
उपो@@
बैठाया
एंगे
घुसकर
यगृह
भरतमुनि
रोधादि
जातियों
लोकवृत
रृंगा@@
यसंज
रकटी@@
राहा@@
कैशिकी
सराओं
कंठ
पदों
विरूपाक
घेरे
डाले
महाबली
ओंकार
इतिहा@@
कादि
उदात
दिनरात
गाध
कुमुद
दायमान
अखरोट
सुभाष
अंततोगत
धविश
उतारकर
करतार@@
नागपुर
किराया
शिप
अमिता
मूँग
अशोकवाटिका
गाएँ
कौनसी
मकरसंक
विजयादशमी
वाँ
आजीवन
डितों
आईं
निकाले
बाले
इंजिन
जानकार
राधाबाई
गुरुग
यपान
मुड
खगोल@@
हलुआ
रपात
बुलाओ
पालता
ईंटें
आऊँगी
ओंनाद
शहनाई
रुकता
ककड
ओबामा
साइड
उठ@@
हण
फाइल
कांची
राजकोट
कुमायूँ
कौनसे
खेतों
सीसा
गागोदर
दुहता
तलव@@
गृहप
वीरपुर
चूं
ँग
जवाला@@
ऋषिकेश
हृ
डीएवी
यूनिवर
सिटी
पिये
कीपर
बचाते
महाद
निकोबार
दुह
रें
टेंट
वीप@@
नगरपालिका
गोर
नवलशङ
पहुँचाने
कुकृत
औषधियों
अजमेर
यानसत
पाठशालाओं
लहरें
केयूर
लटका
भूनती
जाँच
ए.
यमिक
डिंग
छुए
मुझपर
यातायात
वीरगति
एलोपैथिक
धावक
षामंत
तवा
माणकार
थकता
लापरवाही
धीमा
जले@@
यापीठ
सवारी
अनंतनाग
जँभाई
नवे
पॉ@@
चती
अंधेरे
सांताक
सोई
लोना@@
वैभवशाली
पवर
झाँ@@
कूटर
षयानन
हरीन
विनायक
झरोखे
उतारते
घूमे
सेतु
पारम
विरेचन
वैशाली
लिपि@@
मलता
शशांक
रीहरिकोटा
रेया
संदिग
वोल
देमातरम
ऋतुओं
सूचना@@
रुपए
संवाददाता
महायज
सौहार
सिंधी
मेट
दरवन
णुसहस
सुरवर
भन
सैं@@
लेह
मठाधीश
दिनचर
घाटी
हवामहल
हंसदत
घुसे
सुरेखा
होलिका
300
समाजसेविका
चारिणी
शोधकार
दिखाओ
षिकायें
राहिका
भारतवासी
संहारक
देवकी
शकु@@
परसो
बायीं
मसि
खातिर
निषाद
दूरभाष
रमाकान
वैसेवैसे
अँगू@@
रायें
सभासद
केल
सुकोमल
विचारते
अंगु@@
वाना
रकाशते
वोर
तनुते
झुके
ईष
यमनस
शमी
गायें
रसिक
पीछेपीछे
रसव
ओट
पहचानने
खिलाते
सुअर
पेर
जोडना
बडी
फणा
रहनेवाली
घोडा
पूंछ
आधीन
मंड
मालिश
भेजे
कुराकर
पालित
कारणसे
टांग
सेवी
यतंत
आरोहण
आगंतुक
शारीरक
शरीरके
हैं@@
षका@@
बहू@@
षादि@@
विपाक
थानोंमें
मुरली@@
यहांसे
सठ
रसायन@@
जरु@@
कारके
दोनोंका
तंद
मुखसे
कराये
वयंभू
गंधर
यथोक
जलका
पुरीष
मंदा@@
वचामें
तोंमें
डापन
अंगोंका
वायुका
रंस
रामि@@
तपित
रोगो@@
मानसे
संगि@@
अवकाश@@
संचित
ययो@@
कंड
रावी
गोह
लेपकरे
नवा@@
संधान@@
डने
दिखाती
कुछ-कुछ
यभार
गोवा
तटों
लाँघ
अहह
झण
ञानिकी
ए-@@
खासी
मापन
दुहने
लूँगा
नीतिग
थोड़ा
सुनि@@
दसों
अपे@@
वटी
रदूषित
चौं@@
समाविष
नाते
धिमानों
अनोखी
भागा
खं@@
महाप
विभीषिका
बेचारे
आकाशमार
भौरे
मवश
ाद
योगी@@
मफल
अदम
ययोग
पढ़ो
तुझ
वला@@
लाह
वख
सवा@@
पारी
वारका
सावन
संयन
दैवी
आकाशपिण
रचयिता
दलपत@@
संवाद@@
पूजते
ॅ@@
वासना
निकलकर
णोद
फण
यमशील
रेमवश
तामग
वेदाध
मानीय
बरसा
ंडे@@
मदमस
चिर
नदाता
थरा
देश-@@
कठ@@
नशी@@
साज
झूंठ
तून
वशुर
ननन
पाले
बटेर
सोंठ
सुशीला
सीं@@
ढाल
ोक
रयाग
यहा
बेला
रातरा@@
तागोभी
सेम
दूरन
कॉफ़ी
रासनादिक
नेहा
णतः
हमेंशा
पटु
योगाय
ॠषि
जब-@@
गाँ@@
वानो
बलवती
ठर
नडियाद
संतराम
समाजसेवा
साढ़े
बोपल
वदेश
घोटक
मनसुख
शिवके
उगाता
ञकुण
एकवादने
वादशवादने
मेढक
ड़ि@@
परोप@@
गुरुजन
वियाँ
कोन@@
सुकर
घरको
बढ़
सहि@@
मजा@@
बडे
तेदार
कुच
रेमियों
की-@@
राधिकरण
नारीशक
तारूढ
चिंताजनक
रांग@@
अपनाने
अंकों
घटनास
मॉडल
ाकू
सारगर
एस.के.
-1
होराग
पोपुली
वितरण@@
बीमारियों
यूजीलैंड
दशक
फबारी
आबादी
जीतीं
टिन
डाय@@
रगान
जानवरों
समय-समय
दमूल
जुआ
रसंग
खले
सग@@
राहु
हने
कोंके
रवीभूत
दको
उ
रिके
पोंसे
जस@@
केतक@@
भागमें
छटा@@
घूम@@
शरीरकी
ँका
करना-@@
मसे
योपासन
दोषसे
देवताओंका
आँखके
यौवन@@
रियोंको
अपनेको
पर-@@
टीके
राणियोंको
नीके
जलमें
ऋत
भगवती
वीको
भवसाग@@
तामें
रजीके
मिथि@@
जानेके
फूर
देवको
नीलकमल
जनके
गोपियोंके
दवर
चरणोंकी
सेवन@@
गोम@@
मीको
उपनिष@@
बारंबार
देवगण@@
दोंको
ं-
कराकर
पूतना@@
भुतकर
वारका@@
यादव
रमाके
अगोचर
दरूप
मोंमें
चरणोंमें
निरपेक
सामीप
सारूप
कैवल
णुभगवान
साधुजन
अंधे
लायी
तवीर
शौनक
पाख
अवसाद
आजाद
संसक
कहनेपर
बाँधे
खैर
षपण@@
रवती
व-
टसाध
रजौ
अरिष
कुलत
मरिच
मासा@@
धिया
भेष@@
पैत
यवि@@
भेदो
विलो@@
नागकेशर
निपर
यकृत
णक
चव
मधू@@
अविचल
धनुषबाण
ताग
जगदा@@
विमो@@
हिनी
पुलस
रमेय
रिलोकी
जलपूर
ववि@@
रकूट
बोलेहे
कामिनी
हमलोगों
अबला
रीव@@
धापुरी
महाकाय
उसपर
•
पतङ
मातापिता
1998
योगपति
मंडल
षगढ
रयाण@@
मानद
अवकाशविज
सामाजिकसंस
ञासु
दामोदर
रांस@@
एडक
इण
योरन
कुलकर
अलगोजा
राजनीतिज
बिट
लेस
चपल
णाद
थिरुनेल
दारिका
गाष
कुम@@
रानंद
धींगरा
महानगर
महेंद
अकबर
बचाया
रूठ
रबारी
विधायक
विजयवाड
वातानुकू@@
अकाउंट
निवासव
भागुर
परोपकारी
तके@@
बैसाखी
दोराबजी
शंकित
डाइ@@
रहालय
विधियों
कृतशास
सियों
बका@@
विवेकानन
हृदया
भेजता
थयात
वनज
जाये@@
वेश@@
जटाओं
वृषभ
तूणीर
विषैले
संयोग@@
हमा@@
अभिकर
तोंका
आदिका
बंध
राजाको
नाडी
लेप@@
मांसकी
देरसे
रपद@@
परिहा@@
छादि@@
अतिव
होट
ंद@@
थक@@
झटका
सुरखी
धकर
आजा@@
लीके
धसे
लोंके
बई@@
हिंद
महँगाई
ताला@@
नहा
भोगते
मोत
कारित
यानचंद
हॉकी
वायुसेना
थव
विरजानन
रामभद
इंडिया
जमशेद@@
लौह@@
णकार
ऋषिगण
ईस@@
डेय
खुदीराम
बांग
वियतनाम
पाए
86
तुलक
सुब
रेमलता
तमिळ@@
वाट
पढ़ाए
नारायणन
-हाँ
-आज
छील
महमूद
इतिहास@@
सजी@@
शिता
युदय
याऊँ
विकि@@
अगरतल
दीमा@@
झर-@@
महामुनि
बहाने
कलं@@
अपयश
छवि
बाबर
टोल
अनुयायी
विजेताओं
जूझ
रायली
भूमिगत
गाजा
संधियों
छबि@@
र-निर
माण-@@
रिए
रभात@@
नेहरू
नाइ@@
40@@
उमादेवी
नारशाला
यीय
हीरो
वीजा
नाकुलम
रीनगर
टेलीविजन
इला@@
मेंएस@@
अनंतपुरी
पहुंची
दिर@@
वाचक
चलक
खबरें
202@@
वंदे
रतियोगिताएं
पौडी
27
इलाके
साइ@@
16@@
चैंपियन
कटिक
इजराइल
काउं@@
कोव
लॉजी
बेस
शिशुओं
इंतजार
कृत-संस
भाषाविद
हैएस@@
बरी
दायर
झटके
धुएं
सौंपा
आर.@@
गंदे
गांवों
अमृतम
षाध
25@@
राड
सीटों
चपेट
रो-@@
अलग-@@
रोफेसर@@
तिवा@@
मेडिकल
विभागों
एनडीए
चार-@@
59
सबी@@
पैलेस
गेंद@@
र-शिक
शिवनकुट
कशे@@
अवशेषों
अमेरिका-@@
रेशन
0,000
ोल
गांधी@@
75@@
भरत@@
यांकन
फैलने
-19
टीमें
भुवनेश
जाएंगी
सतीर
सदास
कूली
श-संस
मतभेद
सेवाएं
42
.4
सुविधाएं
आण@@
मेसी
पटेल
यांग@@
नीदरलैंड
पीय
साइबे@@
संबं@@
माधवन
25000
आल
सहाय@@
मुरली
2005
अवस@@
हरियाणा
रीनहाउस
लैग
विकेट
सिग
एएसआरओ
वैराण@@
यावसायिक
डला@@
यापक-@@
आबे
षेपित
मालवाहक
उपनाम
वेस
रोजर
46
जिद-@@
गा-@@
जज
टरों
रतिशत
इटुकी
नवास
यूटी
वाहि@@
थली@@
माधवोद
यभाग
जुल@@
यापारियों
विधर
इडुकि
सेवक@@
वती-
रूचि
योतक
वावलम
रमाबाई
ई०
डोंगरे
सवाहिरी
लोकयात
रेयस
आदर-सत
रजस
बंधनों
आदरपूर
वधा
मिठास
आदर-सम
दयालु@@
सारभूत
रु-तुल
वैरी
बतला@@
पूजने
कपट@@
हलाहल
सहृ@@
मोप@@
जिस-जिस
नोंके
मनोरथ@@
माका
महासाग@@
योंद
महादेव@@
चरणो@@
याणमय
वाणीके
दयाके
वामन@@
पादु@@
योगीश
रजोगुण
भावसे
असू@@
जिन-@@
एकमें
विषाद@@
नारायणके
दासानु@@
ररूपी
यामल
माधव@@
रविम
हरिका
पाञ
धनहीन@@
बतलाते
हरिस
गुलि@@
संसारसे
गोप
म-जन
कमलमें
बलिको
निधान
सानन
वनाथ@@
कलिन
ओंका
रियतम
कृषिकर
विषयमें
ता-
पृह@@
गौरव@@
हठात
विरले
दूस@@
मशान@@
पासे
ॠ@@
रकला@@
ततत
वके
असा@@
रोच@@
यूके
केशी
निखिल@@
धका@@
रमूर
सीतापते
तुभ@@
भंग@@
नामस
कूप@@
लोकपाल
निधे
पुरुषोंका
पदपर
सरोव@@
धरणि@@
र-तत
संगम@@
चराचर@@
तृतीय
केत
शनै
चैर
चिरका@@
मष
याष
कतिपय
रौढमनोरमा@@
तारसे
शैव
यट
कवित
नरव@@
शती
रीमत
रियंवदे
अनसूये
रावत
वनेचर
देय
टिकी
भया
नासि@@
तराय@@
थूलता
मांड
बढकर
पीस
सहायिका
योतिषशास
लेखनीय
भारतरूप
टहासपूर
चक@@
बनते
अवाच
संभ
अनिच
भजते
रिगुण@@
रुवीय
54
बेगुर
थान-@@
मपात
वीकरणं
ला-@@
मीरबाकी
हरिकोटा
2024
कटन
अहमद
पहलुओं
R@@
जनधन
थॉ@@
14.08.@@
षोत
झा
तिवारी
नवप
28@@
नागरि@@
विट
एजुकेशन
रम-@@
पंचा@@
हरिया@@
मनिर
जुकम
सहरावत
ठप
धान-@@
सोसायटी
नेता@@
अभिलेख@@
शेख
भीरता
कोम@@
मांसक
मयूर
वीके
विराज@@
मृगतृष
आज@@
अनव@@
भोगा
वियोग@@
अभी@@
टं@@
षालित
थं@@
दुरात
पुरुषश
संनिहित
दाध
अमात
षाय@@
मधुपर
रीसीताजी
सजलनेत
दाकि@@
योगमाया
लोट
ईन
राजीवलोचन
ऐन
पबुद
षव
बहुविकल
यांत
निशस
यसंस
कृत-विश
रशासनिक
विजयकृष
रिपु@@
मविद
नाभिला@@
कुब
भवन@@
षेक
केवलज
संव@@
तनया
मसर
रवो
देवद
देवदूत
जन-@@
उमे@@
धरन
यापुरी
रथा@@
पैं@@
कांक
जयि@@
तिकरण
राऊ
यर@@
रगदा@@
परिष@@
पताका
अनुचर
लाप
सुदुर
सृजन
आभास
सहर
मुनिजनों
षानु@@
तिसम
हव
पायस
करुण@@
दिते
यपराक
धाश
गौतम@@
झिल
डग
षणभङ
कदली
शुभे
पाषाणखण
तपते
वायुश
तपसि
असद
रयोगेषु
रहेषु
छपः
रदम
विपन
सीदति
हेण
सनातनः
औदार
झटिति
विनतानना
संलपन
रेषय
चेतसाम
नगुप
भोगकरी
नालङ
समलङ
कामदु@@
अदीनाः
छध
कुवल@@
विषः
याधिष
तिसा@@
शयानम
धाति
णव
करपत
मुखेन
सृजत
याशु
तमिस
गूढा
समायोज
रीयते
ोद
टकि@@
दारकेण
मालाम
युषितम
पूजनम
अधिकरणम
अभयं
धनुः
एतां
आवाभ
युवयोः
रामान
रामाभ
कदाप
आदानम
रोहणम
लेपनम
मालाकारः
मकारः
खद
यामि@@
कूपी
अंशः
चटका
सोमवासरः
रवासरः
करदीपः
अवकरिका
तरुणी
अनुवैद
भटः
गोपालकः
सीमन
बाहुः
सालयः
चाम@@
वितानम
जुः
मेषः
शुनकः
शशः
शुकः
हंसः
गरु@@
दाडि@@
कोशातकी
लकम
डुः
पाटलपुष
जपा@@
योदयः
सारः
सेतुः
सरोवरः
पादस
वनिवर
रीडनकम
पिञ
रमुद
सरल@@
दंशः
कलनम
जागरण@@
दुकम
गारः
अनिल@@
षालनयन
रोणी
यानपेटिका
षौ@@
भूमिम
लुनाति
रीणीते
बोधयति
वलति
यायति
हरितः
नवतिः
कुशलं
चलं
यासन
थवत
अतिरिच
भुतं
चेताः
यभा@@
हं@@
अनाश
अनुपश
मातुं
अपरिग
षिभिः
अभविष
अभा@@
जातस
अभिरक
अमित@@
अय@@
जुनः
अलो@@
गमं
अशे@@
नासि
टधा
आः
आकाशं
योपासनं
आत@@
योगात
माऽ@@
जालं
यमाणं
वनात
आया@@
आरुह
लेखनं
आवासः
आवेगः
शितं
आशु
तमनाः
इत@@
इतिहासः
दृक
चराः
रियग
इमौ
ईशावास
ठया
रपातः
उदी@@
देशतः
यताः
ेत
उपदेक
जितैः
उपलभ
उपाश
एतन
एतेन
ओङ
जसा
शनिः
नागा@@
शीलम
णकं
यासस
संयु@@
संश@@
संहरते
सकला@@
पदाम
रहितं
समबुद
समाधाय
समासेन
यमे
वेगः
वभूतानि
रावर
विकाः
साधयेत
सुता
सुधां
सुहृदः
ञानाय
यगृहे
तुवन
थाव@@
थितिं
वपन
हविषा
तपाद@@
हितकाम
षणप
षुर
ञातव
दीपि@@
ञेन
ञानव@@
ञेयः
अनुस@@
अपुत
अवकाशः
तापः
एतादृश
ः-@@
कलङ
कविः
काचः
कुशलिन
खग
चषक
चुर
तरुण
दंश
धृ
नयनम
नाविकः
पनसम
परिणामः
परिशील@@
पुरोहितः
रवाहः
बिडालः
भोगः
मरीचम
याचकः
रोहति
लेखनम
वियोगः
विषादः
वसुरः
समीचीन
रीडनम
रीडामि
भवानपि
शीतकाले
रुचिकरं
रीडामः
परिपाल@@
रावयति
यजीवाः
नाशयति
रातर@@
रयु@@
किंचि@@
वसेत
सेत
रमनु@@
रसूते
शैल@@
शरीरेण
धयेत
थिनो
रधाना
गरी@@
विदः
नयं
यैश
लोभात
मतां
रुं
सभायाम
साधयति
ञोऽ@@
रयोजनं
वदर
रकाशयति
षपा@@
षिणो
रावः
वससि
केचित
चोरयिष
मरत
कोलाह@@
सेवसे
रमदितव
षणी@@
थापकः
रागारे
समीचीना
कथमस
धयति
मौनमेव
मारयतु
एतावान
रालयः
अनुजायाः
सुलभ@@
चिटिकां
याकं
पथे
धकं
चिटिका
धनविषये
रणितः
लोकयानेन
ततश
तेनाऽ@@
यूताः
हरितवर
कदलीफलानि
गणकयन
गायावः
ततम
रवाहयन
यटनस
यथेच
विहरन
युगपदेव
णमुखे
धरित
षुधा@@
मलम
शीतलम
हिमवन
वितरन
जगाद
कानने
रतिवचनम
निवेशः
उपनयनोपदेशेन
डवा@@
वायसः
अकारण@@
सुधियः
माकृष
अनृतम
जलधौ
अगाध@@
वरितम
आदिश
निहितम
खलनम
जनयति
पथम
पुरन
नोष
पिपा@@
चरितानि
जनात
रभवत
कैकेय
षितुम
लोभः
वादम
लिताः
यभ
षिणाम
आगम@@
रसवा
धकारे
रकाशे
कोऽत
तयोरे@@
नोऽपि
मुल
मानम@@
लोभेन
विधात
साधितम
तनयः
शतधा
यूनः
कियन
कतिपय@@
दवः
सूचितम
भूतेषु
पारुष
वानस
यजस
पौरु@@
णिकः
रीयः
शीति
रवचनम
रहणम
तुलस
योज
भम
नौमि
मुहु@@
रवस
विशेषो
रभवन
तमन@@
रपु@@
पुरतो
हिंस
मातृस
वधार
उपकरण@@
याचन
तवे@@
यवसायिनाम
सृजेत
रौक
पीयते
मगतम
यपदेशः
निवसतः
बरः
भिलाषः
मेत
तोऽप
टितम
मिति@@
तचेतसाम
यमाः
समाम
अनेजत
आतिथे@@
गमेन
अवेहि
रतिपादि@@
सुलभं
विनयम
निवासि@@
रपरि@@
लोकेषु
षयेत
गतम@@
याणा@@
पलायते
निषी@@
युदये
जहाति
णू@@
तलिका
रकटि@@
पालिः
आदाय
रयाति
अधित
उपत
देशेन
यया@@
यदपि
लीनाम
बिते
खगेभ
परिवे@@
हाणि
तानु@@
परोपकाराय
यतो@@
रविवेश
तदृष
षेपं
रथां
सुखमास
रला@@
पेण
पादयोः
हृतम
ठाने
यचिन
विभव@@
शिशुम
ठिते
गुहायाम
हरेत
निवेदयामास
टहा@@
रासम
वसिमि
विलपन
रीस
महाबलः
जघान
समुदीषति
भूयोऽपि
अधीतम
वैरि@@
विपुल@@
लायते
चसहस
टाशीतिसहस
शेषा
वामहस
छुः
कशा@@
रधानः
ताऽपि
विहङ
मेषु
भूमिध@@
यावच
पाठयन
युप
शष
तिभा@@
बाहुल
णयन
दुक@@
रास@@
मानाः
यासान
रायोप@@
घम
दृप
येतव
थितवन
यविषये
वादिनः
सितं
रब@@
फोटाः
बुना
नारी@@
पुमान
संसारस
ऋतस
रभम
लीयते
येम
आकूतिः
रतिग
षणवर
समितिः
विभु@@
नमश
हिंसीः
पशू@@
महि
रमिष
रात@@
राति@@
कृण
केत@@
पराय@@
यशे@@
राणा
विगुणः
परधर
योऽन
राणाः
तमी@@
महतः
तभा@@
बृह@@
बृ@@
ळ@@
महित
पेष
जघन
वृहत
णवे
षरन
नभ
धेहि
अजायत
धुम
जनेन
पयत
रायस
परिण@@
मते
नू
कामा
जुहु@@
जनिता
देवानाम
रमागच
देवात
दशरथस
तामि
नामधेया
आरोहामि
करपट
पालनम
रवणम
णाभ
नासिकया
रीडां
शोभनः
ददौ
कुपितः
पामि
वालयिष
पाठशाला@@
वाचनम
खगः
वृष@@
थातव
सवितः
उपविशसि
याह@@
पालयिष
वेदा
पालस
रिप
थापयितुं
धीतं
गृहमा@@
अटि@@
तारकान
धेनोः
नीतम
गृहीतम
यातृ
पीतं
लेखनीं
बितम
मुनिना
णयोः
छेयम
रतिवदेत
यब
षास
रदास
मोऽपि
षितव
कोऽन
वंशः
रीडित
वथ
तथा-
मोदकम
रथस
चौरं
समाजः
तवं
षालनम
पतत
रयानेन
रुतिः
शीतं
यिता
नवनी@@
लेखितुं
अनृतं
जागरितुम
सदाचारः
रयानम
गीतायां
पावक
खेला@@
जीवामि
वष
यजतः
डतः
रोदने
तायते
गाहते
सभामध
सानां
भरति
गवेष@@
जागरिष
नाध
रासिष
सोमं
जानात
रीणीतः
रामयामि
मापयन
निदर
रदीयताम
पुरुषव
भरतर
वृते
दोलायते
षरक
चतुरः
नियो@@
वजं
रूत
चमे
सानाम
हिण
भावस
वजाः
णम@@
षिता@@
कुलः
षाफलं
घटस
वीकरणीयम
कासयामि
देशेषु
थालिकां
षालयतु
टिकायाः
काचित
यूना
कदलीफलं
आसनानि
अरुणः
असम@@
वादयन
गायाव
एकसमानः
निमी@@
आगा@@
तयतु
जलारामस
नूतना
महाराणाप
महापणं
मौनं
नवं
पुलिसरक
आतंकवादि@@
शिबिराणि
आदिवासिनः
यजतु
चलभाषक
उरूकस
आहूतवान
पाठितवान
आलू@@
रीता
वानः
अवकरम
यानेषु
अनेकवारं
बोधितवान
विशालां
शालां
दोलनं
अपतत
अनुकरणं
नौसेना@@
ताह@@
थीनि
दशमकक
वासप
ठौ
अखादयत
देयानि
वेदिकायां
वितीयां
लोकगानं
ओंनादं
औषधस
संधानम
टक@@
यागतवान
भुजनगरे
कारगिलयुद
शीशांसति
समापयामि
षाकाले
चटकाः
नौकायाम
युवतयः
कुलदीपः
रेषयतु
केरलीयाः
छानि
सरलं
पिधायति
पारंगता
रीडनकानि
रीडनकं
गानद
गोमाता
रामेषु
भोजनवेदिकायां
गुरुनान@@
गलकामनाः
पानि
गोशालां
राहकाः
रोपयन
गृहाणां
वाचन@@
वचनानि
आरोहन
परिहासं
जयदीपः
शीतलेन
कूपीं
तृतीयः
पृशत
तेजसः
दमान@@
वारस
गीतवन
अददात
डिप
दुहित
विशतं
तमानि
यानसमये
दीपगोलके
नूतनस
नगरपालिकायाः
पिधा@@
धमेव
यशालायाः
पणीपुस
पाठयितुं
कोशं
करणी@@
मिलितवती
वतोपरि
तैलमर
चशतं
विगत@@
शाटिकातः
गोपायति
केयू@@
अनुमतिं
शिशोः
उपवेष
वशा@@
मातुलानि
तितवान
बय
बिड
सैंयावं
लौहस
नादः
षाफलम
इतिहासं
मेलितुम
दुःखितः
निवेदयामि
रविशामि
धारयामि
चरणयोः
मानसरोवरं
फेनकं
षालितवान
तभावेन
निवेदनं
वायनाडस
चलभाषम
रमाङ
चलभाषेण
मारयित
यापकाः
नौयात
वीरगतिं
उट@@
वविभागस
जागरणं
वताः
खादितवन
अवतरितवान
रातुः
योजयन
वकीये
बूलं
कोटातः
गीताश
पितामहस
षपर
वितुं
सुशोभनं
ां
सूचनां
भजनानि
रीयस
णलोलकं
गावः
गीतवती
सैनि@@
विदेशीयाः
सावरकरः
विविधाः
लेखनस
विभे@@
रागं
आयुधानि
पीठं
गारं
दानि
वासु
वानराः
योगम
ञानिकानां
समाचारान
रतटे
एकलक
साहेन
भाषाणां
अभियन
दरवने
वेजनाः
सेवकानां
वामिशिवकुमारः
गामठस
मठाधीशः
तुनः
राणायामं
हिमादासः
णपदकं
रावासे
निवस@@
यूनी@@
थूलं
कुशलिनी
ममापि
पठनं
रावयतु
देहल
तकालयं
रचारकार
यावश
गणेशस
जनकस
गिरीशः
षिके
सहोदरः
ञानार
किलो@@
पालयन
सागरे
षीरं
जातो
कराय
रोधस
वणि@@
यमाणम
यमाणा
टश
खाः
पाके
रदने
शैथिल
रीण@@
बोधने
छादने
तनू
विर
हाद
तातकाश
याभ@@
थितेन
परिणी@@
दुपाण
राकेशः
खादि@@
तमात
पठन@@
नूतनः
जयत
अपाकरोति
नेदं
वचनात
खिद
पृ
समम
जु
रिच
दिह
रतिपन
भूयस
गीर
मातङ
विचचार
हतस
वातात
विधातुं
गणाः
चितव
जनानि
यात@@
राऽऽ@@
भगवं@@
ऽष
नयः
वातपित
लिकाप
रभृतय
गश
केवल@@
धश
शोऽ@@
पयेत
लभे@@
भयस
पितरो
धेर
णुस
दिशेत
होरात
एवमे@@
षणान
धारणं
वयोनिवर
धनद
दोऽस
षयो
मानेन
ववृत
कपालि@@
पालिर
वली@@
दव@@
पुराणानि
र-प
याकुमा@@
तयो
शृगालस
सोपानं
पीडि@@
लघुपात
हंसौ
अवद@@
डानि
नैकेन
कमलं
यथाकथञ
दशवर
यरच@@
दोषा
सोऽवदत
तोऽयं
भावो
वमति@@
यासो
धीरो
नाशु
राणिनां
माभि
यावरणं
रसायनं
देशम
नमकरोत
सुधि@@
महावृक
राणिन
नीतिं
षणेनैव
यमासीत
तांस
दुःखे@@
तकल
मफल@@
ययुः
षिते
सवं
येनैव
दारा
ाः
तेऽपि
काको
चिदु@@
ञानकेन
विकासं
पाणिनेः
वेदाः
तिलकस
रचितवान
येयवाक
सेवायाः
लभं
मासि@@
रयात
बालकम
तेनोक
रणष
ररूपेण
विपदि
रुतौ
हिताय
किमत
ऽसि
रभव@@
शशि@@
गतो
चासीत
दकः
शशी
पदाः
मुखः
अतिद
धिताः
विसप
निघर
वदी@@
ञापितः
यादृ@@
वेला@@
तेनेव
षयितुं
युल
यमाणे
धरो
तुमशक
नोद
निपपात
वीथि@@
धूस@@
वनी@@
ऽनन
वाऽस
मासं
धावन@@
षधं
सोऽस
षाऽ@@
चवर
केनचित
कए@@
देवद@@
नखा
कादश@@
राजी@@
गसमुद
फलान
SS@@
तञ
इदानी@@
समीप@@
किमस
बरा@@
केन@@
यतीतानि
बालिकाश
हसिष
अजगन
ननांदृ
यूनता
योगसनं
मलिनानि
भाषिणी
कारयन
खादनीयम
अधिकां
काचस
यदा-कदा
येतद
विदुषां
रयोजनमेव
गृहि@@
धीराः
मनुप
कौशलं
णावत
कृत-सम
दनानि
वायां
मृता@@
ऽहम
पतेः
फलयोः
फलाभ
गुरो@@
लतासु
णयं
देवयोः
रमामि
रामतः
भगि@@
षाकार
कोचं
चरिष
अवसरेऽस
विचाराः
दुकस
ञानीय@@
किरीट@@
रिमबुद
मचारिणः
लिय@@
येकस
डयि@@
यापनस
रान@@
रतायाः
१७@@
चमस
ययपत
यापन@@
काणां
६६
यालयछात
भाजपाद@@
दशमहाविद
भितं
आयोजिताः
सघोषप
रीडकः
विधानसभामण
वितीयदिनाङ
मीट
तैलेन
तमित
करेण
गणनानुसारं
योम@@
६७
यूसिलान
भीकराक
१८@@
यमानानि
शनी@@
रिरूपेण
मकरोत
एषु
इदानींतन@@
वचतुर
गुजरातराज
टमदिनाङ
रीडापरम
आहताः
गुरुवायूर
समायोजि@@
भूचल@@
निया@@
आतुरालयं
मासी@@
षिणध
पूजनं
तुकामः
यजी@@
भासुरकस
णुं
यादपि
धनमिच
योश
शकटं
रीभ
वेतौ
भवार
गुणै@@
नोच
तासि
नेऽ@@
मथ@@
हेतुं
पदपङ
एतच
पापा@@
ययम
ेऽपि
वशं
युना
परदारेषु
लभम
तिकर@@
सीद
मीं
लभतां
३२
विषये@@
कारुण
रये
पतितो
सुतं
तरश
तनया@@
नञ
लय@@
दरी@@
राहि
दैर
ेष
घोरे
दा-
हारि@@
वाहं
काद@@
बाधया
रागे@@
कृताञ
पसं@@
शिशि@@
मिद@@
ताडयत
दति@@
समुपा@@
षती
युद@@
शासि
कथितं
तसङ
धनुरादाय
शिरास
राजीवलोचनः
मरणे
दिरा@@
मुनिभिः
सुरव@@
गुरोर
रवीद
मनोहरः
मेऽद
गोचरम
विपिनं
मणं
वरूपेण
भिषे@@
तदद
विशेषेण
षश
भूरि@@
संसृ@@
टनवतितमे
रिमण
अतिथीनां
मधुरां
मुगल@@
राजभवने
युतस
टकस
दोषान
पाठितवती
तटं
अनुचितं
वातानुकूलिते
समाचारम
आनयानि
ऐतिहासिकं
जीवितुं
तचर@@
कासयन
पाशं
पाहारम
तमाना
दिनेभ
दुःखस
देवराजस
पितस
अक@@
सूचितं
रेलयाने
पारितोषिकानि
धनार
मीनाः
रितवन
शावकाः
नुरागिणः
लाभं
घटनायाम
अनुमतिः
गाङ
दैस
हिमांशु@@
शतकं
ययनाय
छाव
परिवेषयतु
बाढं
साफल
चितानि
देवी@@
डनं
धीमतां
एवमुक
मधुरैर
गणैर
तवाक
आसूत
नराणां
संशोध@@
मानसाः
रयाः
ताऽऽ@@
कारयेत
यमेवं
तशुक
लायाः
कृतयः
यामु@@
चोत
चेद@@
दिशायां
रीडास
राचीनं
ठवत
याऽस
टिर
चमः
थाया
यपथः
रहारेण
रिरङ
वाधी@@
गतमासे
शीशांसित
करणार
माणे
यितु@@
रु-@@
भारतात
पितानां
राममन
नयतन
रपतिभवने
धापरम
भेऽस
संघटनेन
यसमस
णार@@
परिमित@@
युगलं
रणिताश
मोदिना
कनिर
रकाशिता
रिपाठि@@
भारतप
रतिनिधि@@
वकीय@@
यवहारं
४४
तनंतिट
जापानस
२०@@
रशासनं
निरदिशत
रूपी@@
धिकारि@@
विधिनिर
पतकानि
डसंस
रसाराय
कुलगा@@
मिते
वयनाट
आतुराल@@
४५
तावस
१३@@
२००@@
रेणापि
कुजवासरे
टाति@@
जीकरणं
णल
ओफ
लजि
कृतमस
कादारभ
रमुखा
योजनं
चनेन
तालिबा@@
षकप
रामप
रमुखः
विविधान
नटेशः
१२६
चमासस
इति@@
करणस
रकरण@@
रिसंवत
सराणि
विधानसभायां
पानस
ञाताः
यातिथिः
भागतया
याकाश@@
२०१३
५९
लेशं
महाभागया
शाकुन
रैने
रेलि@@
शिवन
२३@@
नयने
गवेषण@@
रपतेः
थानत
पादनाय
पतिना
फोटनेन
रसरति
सहितः
रथमकक
माणप
शमन@@
निमिषे
विधेयकं
रोयेष
शपथवाचनं
भारतराष
ओलिम
नेतर
विमाननिलये
५००
सतीष
रतिरोद
नीव
पराज@@
वयमा@@
हरितगृहवातकानां
तिपथ@@
चारिणः
संसूचितम
दिताः
अभिमानार
विविधैः
तॄ@@
यायालयेन
महानौकायाः
.५
यजीविवैज
जीवनाय
कोविडस
रथमा@@
भिषग
इटुक
मोस
तमिदं
भवतीति
कैके@@
यादिभिः
पतकैः
समारोह@@
कायिकस
रजतं
कृतभाषां
विमानपत
सेवका
नानृतं
भूविच
णपतकानि
लाभे
यैक@@
कलहो
षणच
परहस
याधितस
तेजो
दुरतिक
कामान
भृतः
रपूतं
यमेतत
भावा
रमुत
विवरं
यवहारेण
णोक
धतां
ोऽस
दासदा@@
देति
रेर
दृग
निखि@@
मणिप
योऽर
गुरौ
साधवो
निधि@@
मुनिर
भजामि
रामनाम
तनुं
तनक
रजे@@
सवो
नपक
तमब
तूहलं
बाबागुरुः
यहो
लोके@@
मणम
तुंग@@
भगवा@@
रूपमधिकं
गतिशी@@
धरेयं
घटि@@
भारतजनताऽहम
नियतं
रामा
-सत
गजे
पितं
आकाशबाणः
नववत
रमणेन
वावधाने
धजन
ठवर
विभ@@
शैख
नृप@@
धनै@@
छृणुध
इवा@@
राघवं
रीरामहृदयं
योध
असज
लटकते
उपाधियों
ङक
बेसहारा
ताड़ना
जैसों
ंगा@@
चारा
सूँड
फोड़
बलों
बाँटने
रसायन
उगने
नगाड
हिलती
डगम@@
तित@@
मुलायम
रवाक
पलटा@@
सभाओं
खोजता
लंका@@
खोजने
संतप
बनवा
डकार
पहुँचना
सघन
धिशाली
तोप
बेचा
तूफ़ान
दड
पहचानकर
हलवाहा
फटा
ठहरने
रसरहित
वाचिक
अनुभूति
चाँद
काशि@@
तुझ@@
गरजना
चढ@@
खोलना
भूनना
पीसना
लोहार
चमार
घूस
जुगनू
छावनी
पहरेदार
ॉक
बोधक
तृतीया
चमी
तरायण
पाधानी
टोपी
उपचारिका
वकील
महावत
मृदंग
बौना
दूल
बेचनेवाला
कलाकार
रवाहे
बिदाई
माथा
ठुड
उँग@@
अँगूठा
ऊँ@@
मुट
फेफड
पायल
कंघा
झोपड
रिशूल
चौरी
बैलगाड
खुर
राफ
गैंडा
तेंदुआ
वैन
अंडा
गिद
विंग
केंचु@@
खट@@
घोंघा
हेल
पपीता
सेब
शकरकंद
करेला
लौंग
मूंगफली
पौधा
चमेली
गुल@@
खजूर
बांस
बेंत
वालामुखी
रधनुष
बूत
पाउडर
ंसी
अँगूठी
माथे
नानघर
चालय
काज
टाइल
दरवा@@
चूना
वनि-@@
हथकड
चिराग
मशाल
आपातकाल
हसि@@
राइव
परिपत
बगल
बिंदु
शासित
याही
याही@@
गोंद
पतंग
लाभा@@
लेड
सिगरेट
गाँठ
धागा
कोना
कैं@@
मूसल
आँ
कचरे
करछुल
ाही
टूथ@@
छींक
हटाना
वाइप
सैर
कूदना
रॉस
लियां
े-टुकड
कटौती
मैश
परतों
शों
शादी
ंडल
केसर
चौथाई
तेईस
ठाईस
रियता
`@@
अगला
अंगूठे
वरित
बेहद
अतिशयोक
वभौमिक
वैत
भंग
अधिनियम
बेहतर
मीदवार
धांत
मामला
झूठी
er@@
f@@
an@@
एलपीजी
अपनाना
दराज
अवैध
जूनियर
नींव
असहाय
वसर
शानदार
रबलता
बकवास
चखा
एकजुट
रीढ
32
भेदभाव
बांधना
खदेड
अवशोषण
एएस
d
ईमानदार
अदृश
अनगिनत
गोधूलि
सपे@@
रूपों
घुटनों
अमीर
आतंक
चमकी@@
अदिति
खतरों
आयन
शुरुआती
पुलि@@
छठी
भँवर
लौटने
घेर
आवेग
पुकार
महानता
नुज
यौहार
पीढ
मेहनती
सुधार
लाभदायक
एह@@
ओवर@@
शनिक
जांघ@@
उम@@
शाद
ंघ
जेक
यावहारिक
धांतों
शांतिपूर
सिरदर
फीस
लोमड
साजिश
रबंधक
एकजुटता
धुल
कंड@@
महरूम
समूहों
हौ@@
दोहराया
फलदायक
णीय
लोकतंत
गिक
धारक
एकदम
खरा
जलाशयों
रजातियों
तैक
रयासों
सहदेव
पंखुड
गवाह
पिले@@
सांत
यवादी
थीसिस
धागे
जिंग
रतिपादन
दायी
चापलूसी
नातक
रतीकात
मोच
वसा@@
घबराहट
राइ@@
इमारत
जहर
लिखावट
रूण
दाई
अपरोक
मोहर
असफल
पहुँचाना
मालपुआ
कमाना
मकथा
दिनभर
लोको@@
सेहत
यजनक
बुलाना
पुकारना
खुदाई
कड@@
चाबुक
कसैला
काशी@@
चांद@@
गूंथना
चालाक
चुराना
तीखा
तिनका
भूति
जलधारा
तब@@
ज़ार
दिखावा
बहाव
रकरण
देवालय
मिलाना
मरना
सफर
बुनना
सांड
ढोने
सजावट
निकटस
पकी
पहुँचाता
अभिभावक
जागती
शिका
नियाँ
वानी
योगिजन
र-छात
चुकाने
बांधा
नेर
सीखना
बूझकर
धिभ
गुणगान
डरपोक
साहसी
-सुख
पराये
सूंघते
चहचहा@@
कियां
लिखीं
बचाओ
चाहि@@
सुखकर
रेजरी
कारखाने
रुकने
विवाहित
ब-@@
करीब
लगेंगे
उठाओ
होल
रखें
आटोरिक
उठने
चूहों
कंकण
उछल-कूद
जोतते
थालियाँ
चरती
थानकम
जलरूपी
नौकाओं
बालु@@
टोक
कोसों
रतियोगिताएँ
रहूँगी
तपाये
काँटों
तैरकर
गिना
नहाकर
डसती
चिढ
धुं@@
बाजी
बनावट
रेमभाव
रचण
तबाही
जोतने
अकारण
अंदाजा
मनीषी
डालूँगा
ज़ोर
भोगो
खेल-खेल
नासमझ
जिनको
हटना
बगुलों
नालों
मकाल
बरसा@@
जरियों
वाभिमानी
तपे
भिगो
विचारशील
सहनशील
अधीनता
आसने
मसम
बोधन
रोको
वैभव@@
भरण-पोषण
काटी
दीवा@@
षणाद
काषाय
करवा
आमोद@@
ययुग
पराधी@@
तारयति
फैलाती
नीतिज
काते
नीचा@@
षमात
रवच@@
सौत
चुगल@@
रूखा
राजसी
तामसी
रविधि
शेखर
नोंकी
आयुधों
कणा@@
मुसकानयुक
वनके
वरदायक
भीतरी
नीची
नीलकमलके
दनकी
निषू@@
विरोध@@
रखर
चुगली
कुआं
हाथ-पैर
एकाएक
बहेलिया
तन-मनन
चुनती
मरूपी
अमृतम@@
मशील
इकाई
जागृत
दुःखपूर
सूँघ@@
कराए
निंदनीय
काँपता
तपी
साबरमती
तःपुर
कुराते
डाँटता
दिखलाता
डूबा
ठगा
रणियों
रायशः
तकर
यापकता
अमरता
ञ-@@
ंठ
औचित
कौतूहल
मृगों
अनासक
हानि@@
कसकर
बाँधा
वारपा@@
आरोपित
ठगे
धोये
जलने
अधिपति
षिशाव@@
बी-@@
सूँ@@
शिखरों
बँधी
आँधी
हिलने
अभाव@@
दुह@@
पहुंचाने
तरंगों
सरोवरों
वादयुक
पाठि@@
कोटर
भागते
ा-सा
तरकश
बनिया
भोगे
धु-बान
उछल
अनाथ
रे-@@
षिराज
देवके
शंखके
मगध
णपरम
दूनहृदया
उतरी
मेघों
यथापूर
थियाँ
रसा
कुह@@
लिखा@@
अधरोष
आँसुओं
दो-तीन
मॉस
आखेट
घटे
वाणियों
गिरे@@
लोह
रिपे@@
सचित
तैय
अपामार
षारों
यमक
भून
कचनार
तीतर
कमलनाल
काथ
मूलादि
गेहूँ
नेहो
संभाषण@@
मतत
याणकारक
सल@@
चकवी
यलक
सकुशल
गोधन
ी-बड
दुःखों
ववेद
रतवान
बाक
रकृष
माप-@@
दभीति
धुनि
यशालिनी
भूमी
होवें
भूमिपर
तपन
रदार
दिशाएं
धनादि
तिरछा
शादि
मनवाला
जिस@@
पेटवाला
रतीति
आधार@@
रेणि@@
वायव
बलप
रतिपक
उसीसे
वपुर
कुतरता
नरेश
विभी@@
घुमाता
बीच@@
सुहा@@
हितकारक
बनानेवाला
शठ
चलूँगा
कहोगे
यासलाई
बोलोगे
भाप
मेहरबानी
गंगाजल
पीसी
पां@@
अजीब
नोगे
नूँगा
खेलो
घूमो
राई@@
यापने
ओ३म
खरीद@@
कीमती
अढ
दुकानें
उपदेशक
रखूँगा
पीट
ठहरती
घूमे@@
सितारे
भूला
बहिरा
निं@@
होनेवाला
चुन
डरने
डुबकी
कांपता
टूटते
थकते
मिटाने
बांधने
कुतूहल
ढूंढ@@
गिरकर
कंजूसी
गूँगा
भागकर
लाएगा
बनाऊँगा
बता
ठह@@
तुमक
दामाद
सुलह
खेलेगा
जानेवाला
गानेवाला
रचता
अंजन
णुदत
देवप
रसेन
मारनेवाले
डाक
हवनकुण
मीन
हु
डायरी
शिवालय
रेषित
आनंदित
कुओं
चबाना
जोश
मूठ
लकड़ी
रमना
मथता
ड़ते
घोड़ा
डालते
हिनहि@@
मारेगा
रोये
विपाद
मापता
फैलाता
ढूं@@
हंसकर
रतिबन
बांटकर
यकारक
बांटा
खासकर
निःसंशय
काफ
लोटा
भेजो
टूटा
उजाला
पातक
धिम
चेता
लोकपालों
सुनाने
मोपदेश
रहपूर
ंकार
रूपकों
साधनभूत
वरू@@
देव-@@
तरत
ाये
तुते
सुरान
भूमिमें
महाबलशाली
अधीश
शभ
अविनीत
सुखादि
सदाचा@@
रदान@@
रयोक
नुसा@@
छूटे
अविच
वकीया
थाएँ
यौवनावस
अपनेअपने
अवतरित
मणियों
नभिन
षादि
ूँगी
चियों
चकारी
कृतवार
हिल
संचालित
रूँगी
जूस
रूठी
रीनाथ
खोली
आईयेगा
बालगीत
चिकनी
बोलेंगे
सोचिये
परोपकारिणी
मजयन
रांति
वपुस
ताजा
आदिवासी
घूमी
धीन
भु
पढाई
लुओं
लके
गूँजता
आसनसोल
आसाम
जियो
इशारों
नानाजी
षणमंत
भौंकता
रिटर
आतंकी
शासनकाल
चलाया
बनेगा
रुकेगा
वाशिंग
हॉ@@
दसवीं
डेबिट
खिलाया
रीरामस
कागजात
ऋषिदेव
राजगुरु
जाउँगी
हींग
डेढ
यवतमाल
एकदूसरे
एडवाइज
रंगा@@
कचौड
कँटी@@
कंडक
पहुँचूँगा
कभीकभी
जसवंत
पांशु
रभाकर
बधिर
खरीदे
कांची@@
बरसात
ियाएँ
पतवार
दिखती
कोलवाड
गंगाधर
गटर
एँगी
लानी
गाँधीधाम
गांधीनगर
संकरा
गूँजती
एंटीबायोटिक
नानीजी
गणराज
जकार
एशियन
चुटकुला
जाट
कंट
नहाते
भाषणसन
डाकघर
माताजी
तवे
सेंकती
सेविका@@
कोलकाता
तोरण
बिताता
राइफल
सुखदेव
बकरियों
उबाला
नहलाया
नवें
नापित
नाली
निकालो
सुनेंगे
वतीय
उछलती
रविक
यख
पुनरावलोकन
तकनीकी
यूज
लिट
खाएगी
आदिपुर
आशु@@
भतीजा
खादी
छोडू@@
दफ
जलियांवाला
पिऊँगा
नानगृह
धोए
उस@@
यवाद@@
मेर
करवाती
योगे@@
राजपूत
परिवहन
खाँस
पोषित
वसूल
लाठी
लाजपतराय
चबा@@
निवासिनी
कोटा
उं@@
चीते
बिठा@@
सुशोभन
वारता
भरती
बनीं
केस
झुमका
सहजन
बहुविध
बजा@@
शहीदों
गिराए
ढींगरा
कानूनी
ञाकारी
माणाधीन
जलपात
लटक
विदेशमन
नाड
रखूँ
टॉ@@
विदेशमंत
निःसंदेह
बजाने
षिकाएँ
पूल
शोभना
रृंगार
दोहराते
दुराचार
वजारोहण
ँआ
चींटियाँ
समाचारों
दूषण
चलानी
सातवें
सायकिल
इंजीनियर
सिंगापुर
सरीसृप
रॉयल
रनाम
याशी
चिंग
सवाँ
याचिन
हबाय
सुभाषित
जलाते
जीवनदर
बुनते
कोहड
कोलं@@
षयान
हरिओम
राथमिक@@
विजयनगर
आवे
जीरा
सामयिक
नशा
ठो@@
दायीं
कोकिल
गृहेभ
टालिकाओं
वाचनालय
चाटु@@
कारिता
लतायें
वाता
षपूर
कैस
पांडव
पुरोचन
राकर
तरु
वामन
वसुधा
यकश
कानपुर
गीं
वरतन
जलाना
दोषयुक
यातुम
हरता
तस@@
पुरः@@
वनदेवता
लटके
रोचन
मथुरा
बच@@
बुझ@@
करायेंगे
नाचती
जीया
करोगें
लौटता
धरोहर
रोओ
दाहिनी
ऊंगी
बिं@@
यवहारों
भेजकर
खुल
रगट
छिपाना
बीं@@
ठगना
मौर
यवंशी
चां@@
बछ@@
पांच@@
चानना
चलित
ऋषभदेव
होशियार
आदिको
णज
नजदीक
रगुप
लाप@@
ञिक
छंद
षाऋतु
नेश
पलाश
ंगु
समुह
मणक
टकारी
हालत
लाहट
कलिंग
परदेश
काफि@@
सुखदुःखा@@
भागना
चलाओ
लघुता
लथपथ
अपात
गुफाओं
पारे
सिखा
आकाशीय
राजे@@
समारम
भमें
वेदोत
ऐसे@@
वेदके
आरं@@
भके
जोड@@
इसभांति
वीरुध
सूख@@
जायँ
जरायुज
आदिक
कसे
सुखदायक
धके
इसप
सितस
तरतंत
छाड
अगदतंत
वंतरि
शूरवीरता
यकि@@
काममें
होजा@@
पढे
बास
धोक
उदररोग
गुग
थोड़े
वलकी
रहै
षाकर
पितर
आकाशमें
तेहैं
मोंकी
लकी
भीतर@@
कालविभाग
अपान@@
करताहै
पूरण
दयुक
लेद
षणोंवाला
बढानेवाले
थियोंमें
फुर@@
बलकी
बढा
बढने
जसे
उसीके
युको
होजाता
किसीसे
रभावसे
जलको
तोल
बाहरकी
नसें
संधित
अवमं@@
बुल
सुगं@@
रसोत
कांजी
षीरकाकोली
मुलहटी
पीसकर
डजाय
संधान
घड़ी
अंगूठि@@
झूले
यटकों
कलश
इंदर
कपड़े
वविख
नगा@@
ड़ती
टिगोचर
सहायता@@
राएँ
गजधर
गाओ
भौरों
नाखूनों
घातक
चिंता@@
है-ऐसा
नेवले
चका@@
लताएँ
सें
टकारा
…
तानें
संता@@
सुरभि
रकृतिमाता
छोड़कर
इमारतें
शायी
चुका@@
ऋणी
तीपुत
ययज
चयात
मरुद
शनों
अमानित
समदृष
पभ
पढ़ा@@
यायी
जाब
यायशास
कुमारभट
कहाता
नावें
पाताल@@
तूरी
घनिष
दसवें
दसिंह
रामीणों
गूढ
सुलभा
धाता
सीमाओं
देगी
तुझसे
मतों
मता@@
धनारीश
रकाशक
लवा@@
सहकर
सूंघकर
रेमरूपी
परक
शीतलता
चोटियों
घाड
वीकृति
पहनना
कौत
फेंका
हवि
तष
खोजते
राणरक
शंका@@
ड-@@
चारे
दुला@@
दीनतापूर
धूसरित
भीगा
शद
विकता
जलदी
ऋए
चाइ@@
चरा
बीते
जाश
कासश
उगा
वेदमन
नमुख
पहल@@
यूरो@@
पशुओ
धरे
रीछ
जलजन
छीन
गिल
तलाब
समेट
ीचे
रड
नेज
नीलमणि
कोतवाल
यायकारी
दाय@@
कचहरी
मेले
शच
लेखिनी
लाब
ँह
दानों
हमे
कुसुम
चुकन
परवल
पुदीना
शिमलामिर
शलजम
सरसो
रियाई
चाची
दरभंगा
कॉफे
ँके
सेगा
घूमा
घटनाएँ
पहे@@
सोपान
पढती
याका
मसू@@
योगदिन
मासन
ठासन
गासन
आहा
रसता
खाएँगी
गलियों
जहाँ-@@
विला@@
पढ़ाता
अनपढ
कारिणी
तैरे@@
तैरने
फेसबुक
बताइये
जमा@@
तुरंग
गें@@
उगाया
खरीदेगा
मिनिट
विवादने
यवंश@@
पूजता
हरियाली
लगेगा
मानार
तेरापंथ
कही@@
दीवाली
कॉलोनी
डरेगा
फ़िल
भारस
पढ़ाती
रभुता
होँठ
उँगली
खाल
आभार
सौंफ
खारा
कक@@
कुंद@@
षपः
पादम
करवाया
राभाई
धिन
ठिक
पिते
राजनाथ
खातों
आइसलैंड
हैंएस@@
विमलेश
ेश
रशांत
मानवाधिकार
-कन
निखा@@
छोटे-छोटे
य-व
रारंभिक
66
चीं
रवाना
फैलती
दिरों
वायरल
.के.
60
राजक
पहलों
बुजुर
पोखरा
1880
यूनियन
सुविधाओं
4,000
यूयॉर
तटीय
हया
जोर-शोर
षाएं
गुरुवयूर
20वें
षक-@@
मा-@@
जरे
रतिबिंब
भासुर@@
महासमुद
तीनो
पड़ता
मीठी-मीठी
मान-सम
विजाति
धन-धान
आटे
रंगने
दैवयोग
विवेकपूर
सुपात
राणिमात
ञानमय
महापापी
लाजा
गोपियाँ
हींके
रजाङ
लोकोंका
आमो@@
बालगोपाल@@
कमलसे
गुंजार
रीवृन
दावन
तियोंको
रेमा@@
भरके
सको
यानमें
योगियोंके
चँ@@
शरीरपर
कमनीय
समूहसे
घनी@@
कुङ
चरणोंको
मरकर
रियोंका
षेपसे
ऋषियोंने
विजोंको
यायसे
पराधीन
अमृतको
बालक@@
हसे
कुलमें
दोनोंमें
रलय@@
अजर
तीनोंमें
खको
तवमें
रसको
पुरुषोंके
महामत
भृगु
गौरवर
वतीके
हाथोंमें
हरिप
रियसखी
रामके
चरणकमलोंमें
नामसंकीर
कमलोंसे
तोंके
रसना
जीका
कपीश
सीतापति
हृदयको
करुणारस@@
चिरकालतक
रीरामभक
बाद@@
गोपबाला@@
रासमण
रीब
देववृन
हैया
छसे
दावनमें
जमें
रीगोविन
चाणू@@
सिरपर
ति-@@
पुंजसे
भासित
दावनके
दविन
मानन
सुखको
दसन
गौओंके
गोपोंके
कमलदल@@
णवाले
रणत@@
मीकी
अभय
नखों
लीद
लोंमें
भटकते
तभीतक
रतिपालक
साष
मकी
सायं@@
यशोदा
बोली@@
दनादि@@
विरहसे
के-@@
वको
शरणमें
लको
चिदानंद
दूधके
मनके
रीको
घरके
संतो@@
यमराजके
दूरसे
रयसे
रजसे
तोंने
पहचा@@
तदुप@@
रेमका
भावका
शलाका@@
शरीरों
अगुरु@@
ये-@@
दब
तिनापुर
आकलन
अवसान
आठों
कथाओं
वेताल
रोधाग
षपणक
रतापूर
तिभाव
थना@@
बांधकर
कुरूप
अहित
अतत
कराके
बढाने
महाम@@
चिरस
रसाय@@
उरःक
दारू@@
कास-@@
ठि
रकोपक
बतलाने
आमाशय
मूग
जागल
अगरु
भेदों
वमना@@
छेदन
-कर
रोगियो
राणियो
लीहोदर
दकोदर
निपातोदर
निरूह
अतिसार
ती-
विबन
सरला
श-रोग
छूटने
जैसे-
बण
दोन
अशों
दोद@@
जिसमे
लियो
मोठ
कुड
लोव
यावशू@@
कटेरी
चुक
शशक
यवागू
समभाव
योकि
धातुओं
झ
बिजो@@
रचत
चिदाभास
महारण
चिदात
अगणित
असीम
विरत
रीरघुनाथ
रनील@@
मोहिनी
कुशलप
आयेंगे
भामिनी
नियमादि
गोपाङ
महामते
मायावी
राजपद
वीरवर
पटक
मतङ
पापो
गजराज
महाभागे
अनघ
अनात
कोन
सबकुछ
6,@@
पोखरण
रसारण
ईसाई
होमवर
यांमार
1851
रतिकार
कुशलतापूर
माँगो
थानी
खरीदनी
ऽ
चावड
भूभाग
जाले
जासूस
काकोला
बानी
गणवेश
मपरायणः
सुधर
परिचयपत
इंजीनिय@@
दुपहिया
नलिन
फेंकिये
थलों
दीपों
आवलि
धोनी
धीरज
दृढनिश
छापूर
योपैथी
एजेंट
आठवीं
इसीलिये
छुपा
सजाते
भोजनाल@@
लेंस
शिवम
रखिये
शिविरों
शोभायात
रामचंद
एँगे
पृह
पटा@@
लोकहित
निवेदिता
आयीं
बाबाजी
ियां
एनए
हिमांशुगौड
सुधाकर
मनोरञ
माधुरी
एम.@@
रदेशों
लगाओ
महाभारत
सुनीता
कपिलदेव
बिलम
मनोकामना
ञकर
समझती
करोगी
पाटलिपुत
जीवनयापन
हला@@
अधोमुख
अनुभूत
कियाजाय
शोष
कायचिकित
भूतविद
मूषिका
डसे
गका
वारंवार
होनेवाली
करनेपर
पापी@@
सांग
चरबी
परिचारक
रणसे
मनकी
खोलकर
ेसे
षाके
खोटे
वहा@@
बँधे
विरे@@
टाकी
मेदकी
संचा@@
ठिन
फिरना
भाशय
घटकर
बलके
फैलनेवाला
यानसे
टसंज
नपान
आदिमें
हाथसे
धानी
कडा
वगंधा
णपा@@
जखम
रायद
मृतिग
भाषाएँ
वायुयान
नोवरुणः
षधि
बाहुबल
मुसलमान
पाख@@
खू
ंगना
कहनी
पुम
हुत
वानप
धपोत
उतारा
यपथ
सुभाषचंद
कोरोना
डच
मकार
नंदन
जागकर
सेनानियों
आबालवृद
वाधीनता@@
तानम
नेपाल
खिलजी
06
मलिक
तरपूर
दमहासागर
षाबन
रेड
नायडू
सेनानी
उंगलियाँ
पीड़ा@@
झू
धन-सम
अजित
दिखाएँ
नेट
सदुपयोग
-वहाँ
गजनवी
लजी
झूल
बसचालक
पढ़िये
जबरदस
125
कड़@@
योग-ध
अनूप
आहार-@@
छंदों
छो
दाख
कोहिमा
थोडी
कृतभ
झर
फल-@@
न-प
देश-विदेश
येता
रचनाएँ
कवयित
टरमाइंड
लश
नियल
बिडेन
सरकार-@@
टेट
यायिक
नोबेल
यूब-@@
-माध
अभिभावकों
धान-संस
जातीय
भुशु@@
दुर@@
चितता
आवंटित
यायाधीशों
पारंपरिक
बदलने
किलोग
शनशास
मेदा@@
नंद
-त
यौन
कॉलेजों
मीरात
दौरे
रिंसिपल
हालिया
पहुंचा@@
जताया
शुभकामनाएं
गठन
2018
परं@@
यानमाला
सख@@
जी.एस-@@
यूनेस
45
वनडे
अरा@@
फात
वसुदेव@@
रचनाओं
अंटार
समागत
एयरलाइन
सेंटीमीटर
P@@
एलि@@
बाग@@
रीय-संस
वेदांत
डी.एस@@
तालिबान
रदेश-@@
75
चुने
पति-@@
वेदियों
दावा
रिमूर
पिनाराई
परिदृश
इरि@@
कुटा
संजीव
रसंस
संयंत
एच@@
.ए@@
गिरिधर
अरबी
करियर
बहुमत
गत-@@
मोहन@@
सिंह-@@
सियस
कमि@@
वांडे
अमो@@
हिरणी
रें@@
मोट
एसएलवी
तुकला
.के.@@
रेलियाई
99
106
ओब
मेजबानी
सोलहवें
डीजल
79
जयराम
गोले
एकड
इंत
दीपनि
रीनिवास
अवगत
खुलासा
अदा@@
राजभाषा
अमृतोद
आगंतुकों
जवानों
मेडल
कोहली
साब
हवाईअड
मांड@@
रिभुवन
6,000
ओडिशा
बहुभाषी
कॉटलैंड
येशुदास
महासंघ
जोशी@@
ले-@@
पिघलने
आवागमन
हटाने
पारित
बहस
यानो
पहुंचाया
पीटी
फिजिकल
ओलंपिक
युवाओं
68
182
जापानी
टीमों
रतिनि@@
मंडलों
48@@
चाद@@
रोमां@@
महामा@@
सुल@@
डिवीजन
यिल
टुकरा
परिपक
बालि@@
पहनने
पावर
चैंपियंस
हूँ@@
नेयास
रोशन
गैसों
अपो@@
रोहण
97
जुन-@@
तोय@@
लाहौ@@
कृतियों
दागी
कि.@@
विकिरण
हिमस
लेषक
रुहान
अरिमा
विधियाँ
नलि@@
चौड
नवनिर
34
.5
एलिजाबे@@
भागी@@
खबरों
टेनिस
उबर
ओमीक
ञानवापी-@@
है-यह
किया-@@
काबुल
वनी
आमतौर
ंगम
यागा@@
वारिक
विमानवाहक
मोहम
रीलंका@@
रोइंग
रीदा@@
याधु@@
43
तानी
55
मनोभ
रमंडल
चैंपियनशिप
यसेन
शेट
पोल
अबु@@
चौदहवें
कॉमनवेल
किग
अंशू
राहु@@
हाकिसली
वतमाला
धवगढ
दकर
काशीनाथ
अश@@
जनश
गीतों
मीरा
अशिव
भूतगण
दारी
रूढ
विपि@@
रियाएं
रपुर
रियंका
सूचि
फंसकर
यसनों
पहुंचाता
परिभाषा
फलवती
मबल
पचा
जागता
भाई-बन
काठ
डार
सदुप@@
आपमें
गरिमा
कांच
संसाररूपी
जंघा@@
अतृप
वाले@@
हितोप@@
यु-@@
थ-
काच
णुशर
लल@@
नांच
बिग@@
-ना@@
यागशीलता
एक-@@
वीणाकर
सी-@@
लवग
कापुरुष
इए
लालायित
शिर@@
हींकी
चेतन@@
परमपद
अकिञ
शरणा@@
पापोंको
लगानेवाले
शेषत
होनेके
लोगो@@
रयी
वजा
वितान
ञापन@@
विधि-@@
भवदी@@
दीनबन
करनेयोग
सागरसे
नामका
नाममात
दासका
लोकको
६९
रमानाथ
वरदाता
चरण-@@
लोगोंको
षीरसा@@
कटेश
तनमें
कलिमल@@
महाभारत@@
हीका
षण-
मीजी
तुभमणिसे
मुखमें
हाहाकार@@
देहलीपर
रेमसे
रजराज@@
दीनता@@
रियतमा
धूलिसे
गोपी
सनन
नीचे@@
तमणि@@
शुभकर
काशीमें
ताण
यमुने
रीया
तपसे
नोपार
देशमें
वंशके
निठुर
लोंकी
राजपत
माताएँ
सोच-विचारकर
तिनके@@
पर-
यने
नीच@@
मौनी
संसारका
याधिग
साधन@@
हाथमें
पुरुषोंकी
संतजन
पलताके
ँसे
संजीवन@@
देवीकी
परलोक@@
ञानके
ममत
रमादी
वारपर
रियावान
पाखण
गिरि
फेंके
त-प
रंगे
देवत
रोहिणी
उमा@@
युसे
घनान
महावाक
वमंग@@
याणमयी
शरणागतवत
बीचमें
धनुष@@
जटाजूट
संसारसाग@@
कनक@@
जटायु@@
-समूह@@
मायामय
अतु@@
सुमे@@
यकुल@@
रघुनाथ@@
हनुमान@@
थदृष
नेको
मिलेगी
विकराल
कामि@@
लोकनाथ@@
लेपन@@
मंग@@
चंचल@@
आँखोंसे
पूजन@@
यसन@@
ठके
घनश
तवस
सिंहा
सखि@@
वेणु
वदन@@
रौपदी@@
आदिपुरुष
खदिर
वचिन
उपभोग@@
षणभंगुर
वरसे
रपाणि@@
धोंसे
कलियुगमें
दूतो
रीहरिका
केशव@@
वमेधा@@
दरस
नगु@@
वपाप@@
निषद
निबोधत
ञानाग
नचिकेत
सरा
जो-जो
हरिराम
चिरन
शालिग
मनोरमा@@
ञानशाकुन
पृथूदक
अमावास
भावन
याकरणशास
गाजी
आनं@@
तशास
ममार
वेदसम
वेदशास
लतिका
देशानुसार
परिणामी
नृपा@@
रचना@@
यचिकित
अनुलो@@
अनभिज
कको
ँच
कोई@@
कालका
तवक
वातवर
-न
कानको
धुत
रसायनशास
76
सवों
अधिकारों
कहा-@@
वा-@@
2001
लावा
विभव
हंसो
संभव@@
सकूं
यायामी
सूदन
माने@@
अतन
विवस
नवद
कुरुनन
मदाश
षगांठ
बैंगलोर-@@
एयरलाइंस
लैब
ताइवान
हिरासत
मालवीय
शिवि@@
बीबीसी
जन-जन
2023@@
कोमा@@
अजय
530
रमां@@
अवी@@
सकों
ैबर
परवाह
भाषण-@@
जगदानन
मलेशिया
अपनाई
वी-@@
कृत-एक@@
सरदार
समो@@
लोवाकिया
मानकों
2011
लीपर
जर@@
रतिनिधियों
ठाकुर
नॉ@@
पुर-@@
लवे@@
हैदराबाद-@@
AS@@
निपा
कोशि@@
थिति-@@
लां@@
हिमाल@@
रवासि@@
रदाता
हिरे
तीसगढ
री-राष
कीव
मरीजों
रह-@@
2012
ंडो@@
पुति@@
हसीना
लादेन
भेद-@@
पिशुन
याधिपति
रिलोक@@
रहनेपर
सरोवरका
सभी@@
अमृत-@@
यशोदानन
यदुपते
ताको
यानाभ
तेजसे
वनमाला
वाणीमें
शिवजीके
थका@@
कलरव@@
हाहाकार
रसिकता
हिमवान
शनार
देवताओंको
कनीनिका
जातकर
राजकुमार
गके
सराएँ
बलिने
ञानसम
अकाल@@
केर
दुक
कदर
घटने
नेहयुक
विदाह
दिया-
योगिजनों
किरीटा@@
मांगा
षू
जानु
दानु@@
णपर
कसङ
रुक@@
कलियों
लोमश
गौरबटु
मरणा@@
कनकम@@
नवीन@@
11@@
कनाडा@@
वकी@@
उप-@@
अभिभाव@@
अंबा
गीकर
अभ@@
गुजरात-@@
यालय-@@
अहमदा@@
.सी@@
टराई
शृं@@
चाइल
हिक@@
2-0
रने@@
परहि@@
पिशुनता
नियमित@@
रजित
यायार
दैवात
पतन@@
दीश
वरद
तपतीको
कलि
यासने
सतान
मुनी@@
जाओगी
रणाम@@
चेतना@@
समीपवर
कृत-महाविद
मानसी
रवान
युधा@@
षू@@
रपू@@
चिताभस
कालक
शिवा@@
सरत
समावे@@
निरूप
मप@@
वेदग
नटेश
डरीकाक
मंद@@
मसन
किंवा
निरूप@@
रहसन
दृढव
रीरामहृदय
जमद@@
सेतुबन
समष
जीवत
पीडिता
अनुगृहीत
देवगणों
यशृङ
णपात
शौचा@@
मुनीन
टका@@
ताटका
रघुनाथ
हीरे
मायामनुष
कलादि
रोमाञ
ञानुसार
विकारी
तमसा
कानन
टिसंस
कालो@@
षेम
सखा@@
याभिषेक
आकाशस
शरभङ
सुतीक
याकृत
मूलप
मतन
कासा@@
नसंज
तलज
मारयिष
अवलोक
डीयते
सुहृदाम
हितकामानाम
ठेषु
असहत
थसञ
तपः@@
पादितवती
सुलभम
गरागः
परिजनाः
रतिवेशिनी
अपहाय
नीडम
तृषार
चौरहार
रातृभाज
भारकारि
रमिव
येका
षेयम
पोषकम
उदिते
सेलति
विपिने
ओषधीः
योतिषाम
भूयश
शरदः
यथ@@
ौक@@
संवदध
भागम
कमलम
पीयमानम
आपे@@
अभिसं@@
राधयन
मजम
आभरण@@
शकटिकया
तिकाश@@
रमृज
यथम
अवसा@@
विवृतम
भृशम
भीः
तङ
सनैराश
झञ
निषण
देवागारे
पिहितद
तमोवृते
गलिकः
दारयते
षां@@
शाटिकाम
पांसुरभूमिम
सलीलम
सविधे
वानुरूपा
थिरा
सुखप
णरूक
गतरसम
पूति
शारीरम
रिवि@@
पूजार
सादनार
अनुपकारिणे
उदाहृतम
डवाः
महतीम
केतुः
भोजः
पुङ
सौभद
मालाः
मालया
मालयोः
रामेभ
रामाद
रामाणाम
रोदनम
लौहकारः
सौचिकः
यूत@@
भकारः
गौः
रतो@@
डदीपः
अतीतः
अवरोहति
यतनम
अहिः
अरिः
कपिः
गुरुवासरः
शनिवासरः
रमासः
नलिका
निचोलः
दानवः
यायाधीशः
गगन@@
रिकः
उट
ककः
दङ
वधि@@
विदूषकः
वधूः
गायकः
नटः
पटुः
पाचकः
ललाटम
उरः
उदरम
जरम
रणः
तैलम
पटगृहम
गनम
कलशः
यचिह
यवन@@
शिबिका
नकुलः
डकः
कोकिलः
अजगरः
गोधिका
मधुकर
नारङ
नारिके@@
पूरम
शाकः
पटोलः
कारवेल
शुनः
नकम
लवङ
कलायः
मरीचिका
वकः
कटीवृक
हिः
राकम
दारः
शिखरम
रतरङ
फेनः
यूहः
तडागः
डपः
चोलः
रुकम
मलः
सुवास@@
गुलीयकम
पाकशाला
नानगृहम
दिः
चकम
सिंहासनम
सुखासन
आपद
युगम
भेदी
षर@@
यमम
ऋजुः
चतुरस
रिभु@@
कोणः
मदर
मापि@@
कागदम
दिनदर
भूप@@
षुरपत
वनितास
नाण@@
फेनकम
गान@@
धूमः
छुरिका
णाङ
षणयन
लति
कासते
पीडयति
आरोपयति
तोलयति
वितरति
संयोजयति
णयति
पिनष
रोट@@
कलयति
लवते
रुणद
गमयति
फूत
छिनत
पीतः
केस@@
नपञ
रयोदश
एकोन@@
अशीतिः
अखि@@
चरं
षुस
अजस
अथातः
अधन
यानः
अनिर
अनिलः
चारय
मरेत
तःस
अपठम
अपरा
हरणं
अपहर
चेतसां
अभिजन@@
अभियाचना
यसू@@
भुजः
भसि
नैपुण
थयते
थार
मिः
अवध
रूण@@
अविना@@
ञेयं
शुचौ
शुभान
असं@@
असूया
अहि
षरः
ञानजं
ञानां
मभू@@
मसंस
तुतिः
भवि@@
मिकं
आपदां
आपृच
आब
आभरणम
जवं
तिनः
वृताः
आवेशित
यमयं
रयेत
आसनस
सिनं
चयान
आहर
आहारः
आहाराः
आहुः
इमाः
षुभिः
इहैव
तमाङ
सृजामि
उदासीनः
नवत
हृतं
धरेत
उपचारः
उपजायते
रमेत
उपवि@@
उपात
उपै@@
उर@@
लोल
उषित
वरे@@
ऋच
ऋतं
ऋषिभिः
एतयोः
एधते
एनं
लिनी
तारका
दसङ
शिखि@@
शूराः
परायणाः
संमूढ@@
संघे
संयत
संयोगं
संयोगात
संविग
संशितव
सकृदपि
गदं
गवी@@
सदानन
सनातनं
तरिष
निहिते
समाचर
समाधातुं
समाधिस
समाहर
समाहितः
समे
पाणां
वगतं
रगः
वारेषु
ववित
सलक
सलिल
सहदेवः
सायंप
सुकुमा@@
सुकृतं
सुखे
सुमनस
विपुलं
सुषुप
सुज
सृजति
सः@@
वंति
थिरः
वकीय
तेजसा
गलोकं
हरन
हिमालयः
षमी
षुधार
षुभ
षेम@@
षुषः
लवेन
ञानिनः
गीकरोति
अतिरमणीय
रभूति
यारभ
यापनम
अनुवादः
अभिलाषः
बुजम
करग
आकाशः
आचरणम
दोलनम
आलोकः
आवेदनम
पलम
शीलः
उपदिशति
उपहसति
एकवारम
चन-@@
दुकः
काशते
तूह@@
कौशे@@
खङ
खेदः
गगनम
टानादः
रट
जलाशयः
जागरू@@
यागः
याकम
पलायनम
पावकः
रदक
रशासनम
भष
मातामहः
मूलकम
ठनम
वधः
विजानाति
विहरति
शेखरः
समाचारः
हिमम
राँचीनगरे
यवाः
वीडियोगेम
झरः
मामपि
सवेषु
छता@@
दिवस@@
मातुलगृहं
गेहे
यवसाये
षणि@@
नुसारम
लोकानां
ञानमात
ञत
दाद
योगिनो
धीयानो
राधी@@
थकाममोक
वण@@
तफल@@
समाधिः
लोकज
बिनः
रामार
सपुत
ऽभि@@
पमप
विभवः
नानृ@@
शूरः
तेत
महेतुः
रोरपि
देकं
रणस
णोऽपि
वपे@@
टाचा@@
थमपि
जीवेत
रीबन
तोतव
याघातः
तिनो
छाद
यनार
पिशा@@
सहायः
लंघ@@
लाघ@@
आपदर
पुरुषेभ
वशरी@@
पठावः
रीडावः
वदतः
गुरुम
कुरुथः
वाराणसी@@
चतमः
गुणवते
रफलानि
याभिः
हसितम
पातव
षयितव
उपगम
नृपेण
अगम@@
रालये
एवमपि
गीकृतं
रयोजकः
बहुकालतः
ीयम
गृहीतवान
काफ@@
गमनात
विवाहितः
दशनिमे@@
दिनानां
एतावन
पणीं
तदे@@
गोदा@@
सरसि
उदारचरितानां
लघुपतन@@
याऽऽह
यातु@@
भिधा@@
वसथः
यमिच
तावूचतु@@
यमुच
भिला@@
चटके
लिकाः
गुली@@
बसयाने
पयोदर
बालुका@@
जीविकाम
लीतः
रतीकारम
थकः
नियुद
तादृशानि
तपतु
राणे
तृषा@@
पय
रचयाम
विमले
करवाम
खग@@
ठाश
अलमति@@
वगतम
रोशः
भणति
जवेन
कृषीवलः
थापयितुम
धेनूनाम
आविरा@@
रवैः
विमुखः
रकुप
उदीरितः
गितज
अनुव
रवम
विधूय
कराल@@
अंगुष
ठोदकमात
शफरी
गृही
थकार
चौर
थापितवन
मुदितः
वारितः
लीलयैव
विमूढधीः
षुष
सरन
वथयति
उपश@@
माभ
सरसः
पीतानि
कृतोपकारः
काननानि
गगने
रमदः
यवच
सितुं
संमर
ूक
तेरन
सितव
सारल
शता@@
निभृतः
कृतनिश
शोच
परिपाल
मयै@@
वमभि@@
पादितम
यजाम
पलाय
दसाम
सदृशा@@
रगुण@@
लाघा@@
गली@@
निपु@@
षमाणः
रौषीत
दीपप
यनव@@
षणानन
रावी@@
मुमूर
समायाति
बधिरः
वरमे@@
टोऽपि
भाषमा@@
वटु@@
काषा@@
दद@@
रुश
चिनोत
समजनि
दिवम
वलेन
शाटी
तराः
विलसन
सहचरी
रमाणाम
तेऽभि@@
एकाकिनी
जनसङ
नवन@@
धीनं
षिपा@@
फुरत
रथाङ
वरैर
विभूषितं
तेक
रागा@@
लोकनम
जद
रेमवापी@@
लिकाम
वनिर
अनारोग
यमना@@
वेषाद
रतुः
ञेषु
यपे@@
अपेयाः
निनः
नराधि@@
कूपखननं
दिकाः
वेपथुः
परवर
दूरभा@@
सौकर
रुतगत
निधेहि
निके@@
परितो
दुहिता
योपे@@
सहसैव
अशेषे
मीयन
कामम
धृतानि
रशास@@
तोपाधिना
जलिम
यपृच
कुसुमस
दिवास
खैः
रदो@@
कृतिम
संरम
रूढः
निगृह
पीत@@
निभृ@@
अजात@@
अभिमत@@
तपां@@
सानुयात
यसत
मिताशी
मिताननः
सधैर
पुनरधि@@
पयामास
यामीति
वैदेशि@@
चष@@
कश@@
यजनाः
पितम@@
वयंभु@@
विवक
मृण
घशीलः
रुतप
विधिज
लोकेन
रियवृत
रुतपारदृश
वदान
रियया
थोपपत
अवितथम
नभस
भासु@@
यमानात
पृहः
निवासिनः
यदलस
शिखण
षशोभितः
डरी@@
लवम
ौष
आलाप@@
निष@@
वारण
फुरन
येदकर
येवाधिकारस
वरत
लवाः
यमाणाः
यकारिणम
केयूराणि
धजाः
कोदर@@
डमण
दिगन
षोडश@@
देशीयः
कपोल@@
रजेन
येयम
मनै@@
अनुमीयते
यून@@
राणायामः
शुचिता
येरन
निनादय
लसन
समीरे
यवसत
डीय
निवारयन
अवतारयामि
आससाद
मयात
निरतौ
अनुमतिम
रतिकूलानि
भाषणेन
वरैः
षयिणी
डनाय
मराल@@
वरमा@@
विनोदयिष
यायस
अगायत
कुरम
पोषयति
करणात
चालयतु
कृतास
रहरणम
ठश
यातु
अभिवादये
गोग
लौहघटि@@
दीयताम
तथानुष
यागतः
यावादिन
सुतम
यमानोऽपि
गभ
लोलोच
सिक@@
मातुम
बबन
सविमर
वैदुष
वतशृङ
परदाराभिमर
धीरः
सश@@
हताश
रोधमूर
छितः
वामे@@
वापी
सूकर
अशि@@
पिः
अवधारय
मेकम@@
शिशिरसन
तमाश
तगीतवादित
निकष@@
काप
निखिलभुवन@@
डना@@
नामा
ससार
ललना
तनय@@
विषण
मनुज@@
टिताः
मकर@@
अपां
संहतिः
धारि@@
घातैः
कालोऽ@@
मारम
निधनात
दासा@@
दुहि@@
तिथी@@
यसी
थापिताः
वकक
अतिथी@@
राणिति
रतिदिव@@
कोमल@@
राशिः
परावर
निरुध
रि-@@
मुखी@@
नलिनी@@
वगन
रकृतयः
उदकं
सूनृता
षरति
शूलं
शोषः
विभवे
बाणा@@
ऽवस
कथयत
तेनाऽपि
नेहान
परिषे@@
रसैर
मधुराम
ऽव@@
मृणा@@
नामुत
सशर
नेः
गोधूमचूर
ससर
सयुक
पिबे@@
षामहे
लोऽस
सुनोति
नृणाम
यमाप
मनसो
भोजस
सुष@@
वनः
विषन
नहु@@
सुवीराः
वदेम
वाँ@@
हृदयेन
षिणात
वेषं
णोमि
धनप
मातृदेवो
असतो
फलेषु
सहच@@
वमुक
तमग
करणानि
नतं
विमि@@
पथि@@
थुः
यच@@
एषाम
भज@@
धयत
टयः
संबभूवुः
बिभर
रिरे
भौ
चसा
रमादं
विसृ@@
धमाना
गूढम
सलिलं
कवयः
रतीष
चीनः
रातरम
रपा
घौ
नातः
चयार
वाशि@@
रयुज
दिवं
यपश
उदितः
बाहू
अभीवर
मणिना
यदस
पमान@@
वमिदानीं
हुसै@@
ञापयसि
यमहं
पुरात
बालकात
निःसरति
टिकया
मूषकं
मील@@
गानम
हिंसनम
उपानत
घटी@@
तलस
अनयत
नरे@@
पतामि
षालितम
पचिष
यापकस
वहिष
पसि
चके
कटं
नयसि
रेषितः
वारात
बरम
परिधास
रजतस
षैः
भेण
रभूतं
केनचिद
एकाकिना
रजति
रजामि
नामधेयं
निवससि
-ज
पूषन
टये
नरे
केदा@@
रय-विक
लुनन
घृतस
तदानी@@
परिमाणम
घद
परिमाणं
ऋणं
थापनम
शृणोषि
मातुली
जामि
अपूपं
अहमत
अटामि
अटिष
अटित
आनीतम
दुहित@@
निपुणः
तपोवनम
जीवितव
पिधाय
नगराद
भगवतः
जुनस
जनास
जयिन
भगवते
जनपदः
सेनः
रातृ
यौवनम
वाचकः
ञानतः
मृगाश
लेखो
ऽनुष
मुवाच
रुट
वामः
वानरा
थिन
औत
बभञ
नयत
देवम
नवीनम
पुराणम
समूहस
समूहे
सूपं
पानाय
लिखितः
मनोरथः
बुधस
तवते
मालां
यमं
रवौ
रचितम
रजापतिः
मुरारिः
मुनेः
ठु
सायंकालपर
भुना
रोः
भवसि
धातृ
टृ
टारं
धावत
दमे
ञातृ
वथि@@
वभाषा@@
मोदकान
हवनार
गोधूमाः
डुलाः
कठिनम
पाहि
पानार
तारकाः
तयितुम
गायाः
करां
मरणपुस
शिवालये
उपदेशम
यानश
दारक
मानयत
रयाञ
रूपिणौ
दभा@@
मतुः
ददृ@@
धयोज@@
तरतः
भैक
यचर
मवित
महाश
राहुः
रयोऽपि
जलमेव
ठताम
ठाम
पचामहे
केते
षोभते
षमे
डते
चिरञ
छाद@@
रोदिषि
होष
अबिभे@@
अददा@@
णेत
चरणेन
रातिष
रयतिष
रभवेत
इयत
षभः
षामः
तोय
समासाद
धनि
निवेश@@
ठितः
रुतवत
योऽयम
भगवता
रधि@@
ससङ
थसम
तः-
यदुदाहृतम
मामाह
योजय
रयोज@@
रियात
महातेजाः
वातिः
रयोगस
सुरैः
नगाः
भिताः
ञापय
भेषु
दितस
जयित
सूचनात
यैतत
यगुण@@
आसाम@@
रीणा@@
थेष
वने@@
नखा@@
णसम
तेस
णीयानि
पराजयः
रोधं
यूनम
चितस
चितमेव
कपोतगृहे
अपतन
दोला@@
यूतस
समाप@@
आगामिष
विशाले
तरंबू@@
जार@@
अमेरि@@
ममैव
नागपुरं
भाटकं
मको@@
अवका@@
सफलतां
सीतामातरं
रथमवारं
बालगीतं
मिलावः
आकारः
अमिलत
विमतिः
तिमः
याधिकारिणः
ताहः
संहारं
यरात
रमांकं
रसेवार
सेवनं
आसनसो@@
ददानि
कैला@@
धछिन
वोढुं
अवतरण@@
तासां
अनुभवं
कृषिकार
विमाने
दुराचारिणः
दशवारम
एकसप
सहोदरी
तिकां
पाथेयं
मकराणां
बूले
धनदपत
चारं
रीतवती
षालि@@
पलायि@@
बीमा@@
ऋषिदेवः
ऋषी@@
युवतिः
विशालं
यवतमा@@
तादृशाः
पाकशालां
पनसं
परिचालकः
कटाहे
चणकं
पितरम
पारितोषिकं
णाटकराज
मोमकं
भोजनसमारोहं
मानानि
बधि@@
कृतिक@@
कृतलेखनं
कारगिलपर
जवालितवन
णीयं
उरुकं
भोपालं
सोढ
बीजवपनं
षुकाय
उपवासं
नूतनाः
मात@@
थितवती
कोल@@
चलितुम
वीथिः
चालयामि
गायसि
चषके
गुहायां
गहनं
तिलस
षताः
अजायन
सोपा@@
षेपणम
चलामः
रतिजै@@
अवलोकयति
थातः
शीशां@@
रिकाम
सफला
रतीरे
शावकानां
लितानि
रतरा
डकं
वनिं
रेरणां
ागे
यंजनानि
भगतसिंहः
जनकं
रृणोषि
रवाटिका
णातु
रचय
छवस
समापयति
गुरूं
रजतपदकं
दीपक@@
दीपा@@
दीपाव@@
पिबतु
सूचितवान
अजे
मासाभ
पादपाः
ञोपवीतं
पटगृहे
रीडतः
धनिकाः
कृणन
शालायाम
रजकस
धतिं
संशोधनं
नवमे
नासिकस
भयेन
उपधानस
नौकायां
टकानि
पंजाब@@
घाटयिष
रोति
पीडनयन
याणं
अनेकानां
वतात
समापयतु
गृहीतवन
पाठशालासु
लवन
पूरितम
गापयति
राँचीं
जरस
मरीचिकां
वादकः
शाकानां
करांशुकम
आवुत
यानचाल@@
कारागारं
संच@@
घटम
ददन
कासयिष
तिगीतं
कृशाङ
यमिकविद
कृतसंभाषणं
पूरयामि
पानकं
रामि
पृशामि
रामत
नतानि
शिबिरम
आरोहणं
यातस
युवराजः
रमसि
षसान
आहुतिम
शाकविक
यवादं
मंस
रेलयानस
सरोवरे
दतु
लाजपतरायस
अवतरणयानस
जागरूकाः
यापी@@
तनागे
कपाटिकायां
थसहितं
संगीतं
ठीवनं
राजकी@@
रायाम
राहकान
राथमि@@
केनिपातेन
निपुणा
रकात
अवकाशस
आवेदनं
शदा@@
धाल@@
उपावेशयति
चलितवान
मातामह
परिवारजनैः
परिसरस
लोकयानस
तिवाचनं
वलीं
सुमधुरेण
चलभाषस
गमञ
कृतभाषायामेव
सेवफलं
बहुविधां
णेभ
बयति
वासम
अनुभवन
वेदपाठं
अवरोधयन
दोलने
देवरस
णपुष
मरणी@@
रावयामि
रीयसङ
बालकेषु
शिवकुमारस
उपवासः
गुरुचरण@@
धारयित
रृंगारं
संचालकः
वातायनात
सत@@
सदनस
दीपस
लेखनीयानि
दिनस
वजारोहणं
बालतालं
पिपीलिकाः
कृतवत
थगितानि
ङि
शवाः
वराः
एकसहस
समाजाय
दूषणम
रजले
षपस
सरि@@
मतगणना@@
संसदि
रतिनिधयः
कृतपाठः
वासां
गणयिष
विधानि
सुरवरः
शाय@@
भीका
वलिता
यापारः
षोडशदिनाङ
मारके
वातंत
रतिप
तोलनं
कृषकं
कुलाः
नतिम
गौरवस
दिकः
वयतः
रकाराः
वीकृतवती
मालति
गणनां
नागतवती
रीशः
विराम@@
हसतः
पुणेनगरे
अमेरिकायां
रौढ@@
बालेभ
रमुखं
किंचन
गिका
अपमार
अपमृत
मादः
युवकौ
गायि@@
पाठकाः
वासिनौ
दिली@@
अभिनयति
नगरपर
काशीतः
उचितः
अंगुल
मनोह@@
लखनऊमेलरेलयानं
लखनऊ@@
भीताः
कवितां
सभासदः
निजा@@
भुत@@
युवयोर
कीत
दोषेण
नाशनम
कवये
अंगुली@@
वारयति
मातु
नदीषु
वीनां
रवासे
रवणे
रामायणं
पठनीयः
गतवत
पाठयिष
वदितुम
लिखितुम
रहीतुम
याचितुम
रातरौ
मारयत
अपठन
णपुरं
जनकेन
तवति
संचलने
नह
सायाम
भाषणे
धाष
विहायसा
संघा@@
काका
नापितो
रधी@@
रवृ@@
रागच
कथमिव
वासाः
कोपो
णोद@@
वेलां
गुलीयकं
शीले
वजने
कथमेतत
यपस
मिताः
नैपुणम
रियमेव
पिनद
कुमुद@@
विदितं
नसत
धूमा@@
कुलेन
भूतये
चूत@@
गक
भनानि
षारसः
सेवाम
दिनेशः
भाष@@
फलरसं
नायकं
गीतां
रोटिका
अकारयत
अलेख@@
बालिकया
तमायाः
बहुशः
रसगोलकानि
अरक
यायत
उपवने
संगतिः
कमलिनी@@
अवैमि
षिणेन
वीतचिन
षीरवृक
दारेषु
नेहप
वामा
लष
ऋ
यतस
धनुस
गवेष
धरणी
अंशु
मृगा@@
रबोध
यूतौ
पुरातन@@
पुरातनाः
वायो
पुंसाम
टानां
येऽपि
रेशः
रेण@@
हंहो
यथोचितं
समायातः
वादृ@@
लोकद
तावर
पैश
परायणः
नयतु
कलः
पदि
गव@@
जोद
पुरुषोऽ@@
तवो
रभृतयः
दनिर
लादयः
रहणाद
विपा@@
वाणा@@
चसु
अतो
नां@@
हुर
भवतश
लोकार
रोतव
यमिन
लध
नभो@@
रपदा@@
हेम
दोषाणां
पूरण@@
निता
रभत
शिरा@@
षये@@
तनख@@
तितो@@
पुनरे@@
ण-
रकुपितो
स-
यंतर@@
पीठ@@
योजि@@
शोफः
पठाम
रतटा
फलेभ
कालेऽपि
आदा@@
चिदा@@
अकथयताम
अहमे@@
षकल
विरोधम
अपमानं
रशासन@@
महोदये
तीकृता
मनसा@@
गोऽयं
गजधरा
ललित-@@
रहीतुमिच
मासान
परेषां
यारत
मतिं
लेनाभि@@
धिप
वलि
महतो
जानाम
हमे@@
मृगा
फलच
छायासमन
किमन
वनराजपदाय
सवर
लाभस
करणीयमिति
राणेभ
शोचितुमर
धयस
वसू@@
याने@@
तरव
थावरजङ
रियाप
तुकम
याथ
तानपि
भवितुमर
मेवाऽ@@
धीते
सादि@@
रुचिर
सतत@@
नयेन
नौकाश
रयविक
ययश
मुप
एकतया
पायाः
धोऽस
पूरयत
कूपस
षिकायाः
वावपि
रेषितवती
दसिंहस
यतत
रतिपादितम
निमीलयति
फलानाम
रजीवने
नमतिः
रियायाः
रतिपादितवान
साधोः
मनां
चलन@@
कापुरुषा
रमयति
खेदम
यासक
वगृह@@
रोधा@@
पूजयन
पयिष
यालिङ
आहार@@
पालयत
तुमुद
जारस
पाषाण@@
रवदन
मापि
षामपि
वपरि@@
वैरं
ञभा@@
पुरो
रेय@@
मादेव
मैथि@@
कामये
वेध@@
विरच
णिता
बभ
तृणे
परिरक
जुम
रीवा@@
तिरे@@
वगर
पौरुषम
निदाघ@@
पानाम
किनः
वाताः
तदानीन
शमनाय
छेद@@
षणैः
यापृ@@
यागम
कुलपूजिताः
धीरतया
मायत
अभू@@
रूरः
मारुतः
घनाः
वनान
धराः
याधिपतिः
वानाम
तामा@@
गंभी@@
हृदयो
शकः
नेहनम
शृणुध
विमुञ
तुरग@@
तिते
जरान
लित@@
तंग@@
रीर
रियध
तराम
हतम
तयिष
जीविनः
कटुः
मौनम
आकुञ
वोऽ@@
दशं
खोऽस
पकानि
भूद
गतोऽसि
बहुवारं
मागतः
तिनं
ऽनुकू@@
यृ@@
वाठ
तादि@@
यंश
यमेवेश
इं
पिवति
रेषन
शुन
पश@@
राए@@
बुड
मृगो
रसारयन
शमी@@
तपत
मेते
माणाय
रयणाय
हारस
पादय
तनिवा@@
भिरा@@
ुः
पालो
राजमन
भोस
लेभ
मियं
समाजं
जातोऽस
जनाश
मवलोक
बलवद
वौ@@
साधुसमागमम
सदाचारेण
षेन
दयालुः
अशौ@@
दशाकम
पालङ
शाकप
ताकम
मूलिका
शकरकन
वेतकन
रासभ
देवराजः
रचारार
रामाय@@
तैलीयं
व-स
कलहेन
-द
दरभ@@
नाथं
रीणाम
पोतः
टवक
मितवती
पानके
मृषा
भूचण@@
चलितुं
समयावकाशः
भोजनान
ईशोपास@@
अलीकं
रथमो
जनैर
गमस
तामेव
रदूषणस
किमिदं
मानसं
बली@@
मवृद
एकशतं
कृत-पुस
पाठशालायाः
अतरत
नौकाः
भारतदेशं
वाधिकं
गुरुकुलानि
कृत-भाषा
कृत-भाषायां
गूढं
घोटकः
विवाहस
अवपत
ऋतौ
मतगणनायाः
रीणात
तिमं
मणां
नोतु
फलैः
नवाम
बुभिर
लगिष
अलगत
झंझावा@@
भजनं
पिहि@@
लतायै
लतया
जालिनी
पासते
पालय
यरतः
गलः
गोजिह
तकोषतः
कोषे
चदशदिनाङ
वसृ@@
गणिका
षणमेव
तकोषः
रयोगशालां
तपोवनं
वचसा
थण
परिजनाश
राजनाथसिंहः
सवानुबन
Sभवत
आवेद@@
राधिकरणस
षिनिके@@
दोलनस
चसंवत
वतन@@
कुलपतिवर
धिकारिणः
दितानि
रकुत
वयम@@
निरताः
डद
रसभा@@
चतरविद
यदलेन
रकाशिताः
रमहा@@
००
शरीत
३१
-केन
रोगाः
बहिरागतः
कालीन@@
पितानि
केरलसर
रपुरस
बहुमान@@
थांशं
थांश@@
पोखारा
विमाननिल@@
सहकारेण
हिमपातः
शबरि@@
ताहद
४०००
यूयोर
रणे@@
विजितवान
तृतीयदिनाङ
समीपप
यारोप
गिनि@@
मकरान
विघा@@
पतितवत
अपघातस
दियं
तनिवारण@@
बाढ@@
मेलनावसरे
सपरिवारं
रदेशं
खादनेन
चाऽपि
येदं
याकार
शुभाशुभम
दयत
रियवादिनम
विषकुम
पयोमुखम
यादृशी
रहणेषु
चेतश
रयोर
वृषभस
यागेन
पुरुषा@@
मेदिनी
रसंगेन
तग
दशगुणं
शतैरपि
गावो
मेघस
ैरपि
यमनित
मुपागतः
तमतां
सुतरां
येको
वाऽभ
षाटनं
विचेष
योऽश
कृशा@@
वयमे@@
राब
बित@@
शौचमिन
दशकं
मनोऽ@@
धोप@@
मातापितृ@@
बलिर
यचिद
वमात
सुखदुःखयोः
हुः
गुरुरग
कथितः
थञ
वचस
विशन
तोषस
नारायणा@@
कुतस
येषा@@
तराणां
तुतिं
निलये
ंशु@@
गसङ
नीलाम
बुजश
मराम@@
वीरं
तरुणा@@
पूरि@@
भोगान
पदद
षाभ
शुभस
दोषश
चानु@@
धूली@@
विभूषि@@
वसन@@
सुरभी@@
वलयं
सुत@@
तहस
गिसङ
यह@@
तिमिच
यजे@@
गिनां
तवाङ
रिद
तिमेवाभिवाञ
पादकमले
धमपि
रजाम
कारुणि@@
षणाः
यमानासु
गृहान
शोचति
टक-@@
यावसा@@
निवि@@
ततं
रैस
हरिर
चापा@@
वग@@
रुमः
दामोद@@
लवस
चितमा@@
वारमा@@
वपृष
ताति@@
विषा
दनैः
वलाः
रसस
नपानं
वयोर
भेदात
कचित
छृ@@
शोधप
छेदन@@
षा-@@
मुदरं
भया@@
शूला@@
शसां
कषा@@
यमुद
यमल
येच
फलादिभिः
नीलोत
विधेयं
भोजनमद
लैर
नवनीत@@
यमग
चोष
रभावस
येः
तमि@@
यायास
योष@@
भेदतः
वासा@@
पठेन
तवानु@@
सीतालक
चाङ
निहतः
मारी@@
यमब
णोऽ@@
विनयान
मणमब
वगात
वलोकस
पूजितः
यतन@@
रावणो
षस@@
रुलोचनः
समानाय
रगदापद
योतयन
रमी@@
मूले
विपिन@@
नुज@@
रदं
परदा@@
रघुपति@@
विभासि
हरं
बाहुभ
भुजौ
ततोऽब
ममान
गुणैर
सिंहव
रमपदं
पादयो@@
यवहशयत
जलिर
तेऽद
थावि@@
ॆ@@
नूनम@@
दाशर@@
रीवसचि@@
अहमप
यादात
तावु@@
वालिनं
मणाभ
सेवितम
वुर
दिसम
सुधीः
पोखरणे
रसारण@@
पूरिताः
सदृशाः
मतदानार
सेनायां
पठितं
जुहू@@
चायम
कृतसं@@
मनोहरं
तैलयुक
परिवारजनान
वातावरणे
रयणीयम
छलेन
रमिकस
थापनाम
वाणीं
युतके
निवारयितुं
मतानां
अधिकेषु
गणवेशं
जबल@@
इतोपि
दशमे
धेनूनां
जनयोः
वीरपुरे
नवजातस
निशाम
निवेदयन
टकाः
षिणहस
यटकाः
भगिनी@@
थलानां
दीपावल
वंशस
मानितः
धीरजः
विविधप
पूरयितुं
रिमे
सोपानेन
तिकया
गीतायाः
थानराज
तृतम
विधायकस
तसप
रतिगृह
विवादः
विशालाः
शालिना
जयपुरं
विता@@
चाम
ताहस
शिबि@@
दनीयेभ
नमांसि
भूयांसि
काsपि
अवतरामः
शिशिर@@
घाणि
सावधानं
मरीचि@@
मीनस
मशालायां
मिलिष
धनमपि
ताहात
थसिद
विजै@@
टिश
रोपण@@
शालाविधौ
सोऽर
पदवी@@
रदेशेभ
बेङ
शकानां
एतदति@@
टयित
यादृशः
रीडाक
8.00
चनां
पादनं
कवचं
षमसे
नामिव
चरितम
शयि@@
सकाशं
यादाय
पराग@@
अगमिष
अपठिष
भिर@@
सममेव
तिमात
नुरा@@
नृपस
धितया
मिहा@@
हेम@@
भुज@@
भाषन
रोऽस
रोगाणां
रितानां
हारो
शीतो
याध@@
पठेद
नयनं
यामे@@
गतानां
रतिकर
कारिणां
निध@@
ततोऽन
यमाने@@
षणे@@
यंतु
रपट
मिमं
येके
मैर
कय
छेन
पंचधा
बैलं
णमस
शुकं
पता@@
सरम
युतो
तैलमे@@
कलशे
सहभागि@@
कुदा@@
लौकि@@
ञानिक@@
नति@@
षमते
निरो@@
सुदृढ@@
गमनागमन@@
येऽद
सोऽन
याज@@
सारसा@@
युड
दृढा@@
मानेष
भवेद
जायेत
दानन
रदानं
निरामया
ऋषीणाम
सीमाया
षकान
राजपथि
राजपथः
कलासु
परिषदः
मातृभूमिः
यापारं
तुमेव
शासनं
सोपस
रचलिता
पुरातने
वीरसैनिका
थलसेनायाः
डेयः
भयंकरः
वासे
सेनानिनः
बोसः
विदेशस
भावनया
तिरङ
तमिलना@@
महोदयाय
तानस
तवादनतः
नियमान
आचरामः
अभूत
तृ-@@
कृतभाषाम
भवानेव
रेखायाः
धांजलिम
सवम
रेरयन
कृत-सं@@
कलह@@
योगदिने
हेन
आनीय
धायै
विधातव
सुकाः
अमितस
जास
यवन-@@
मतिक
नगराणि
राधान
रीत@@
रियपुरस
पराजितः
रामजन
अनुशील@@
संसदः
नेतृभिः
कालपर
अधिकारिभिः
रतानिर
आगतानि
भौमान
गासा@@
थानाशि@@
लामिक@@
रंशं
वकारीय-@@
रमैः
मणिपुरराज
भुषुण
वाचनाय
नामाङ
रो.प
कैरली@@
रचलितं
तनाय
परिहाराय
वेषणस
छायाग
येताभ
तयितुं
रिय-
तनिवारणसमित
भारयुक
अकादमी@@
योगिकी@@
रालयस
यमुनानद
गिकातिक
दुरवस
विशदी@@
तावः
यापितम
रमोदिनः
योरपि
वंशजः
परमोन
यपुरस
नामकेन
तमानेन
टिदुष
विविधराज
हिमाचले
वातावरणनिरीक
आराज
वासशिबिराणि
षूटौट
सहितस
२०१८
रमिदं
जरव@@
यनया
चीनराष
पतक@@
रचाराय
-दिनाङ
वतीवन
आधुनिककाले
कृतदिनमहोत
दिवसीयं
धनकरः
मेय
-२०
विनोदसञ
नगर@@
चलनानि
गलवासरे
एकदिनक
योजनां
अभिसंबुद
रदेशवासिनः
ताविकं
रतिभागि@@
सैनिक@@
योमाक
कारप
रयोगाय
वसूचनां
रदेशात
चेङ
जेर
लवर
कृतविभागाध
डी.@@
रथमचरणे
शतेषु
लोकसभासदस
तापं
बाधितेभ
रतिवेदि@@
याचिकां
मृतौ
लाहो@@
वेदिकासु
अवतारयिष
डितरत
चाबस
संयोजन@@
नामग
यायासनेन
कोटिरूप
वीकृतः
हारं
पिणरायि
रोगप
वीपराष
धयिष
पानः
भूप
अजि@@
जगदीपधन
कुजग
रहात
रकरणं
विषवातकप
नीचप
वारमेव
पदमा@@
रीराष
घाटनसत
शोधपत
दृढीकर
जीकृताः
तापमानं
डलानि
हिका@@
पितमासीत
दशलक
बै
सामाजिक-@@
उपरित@@
नागलान
येतयोः
मतदानप
याविहीनः
षानीतेः
रसारं
डूर
यापकानां
माणस
चोपस
रेलियां
वारकाणां
९९
१०६
विभेदाः
शिलाखण
सहायकं
आतिथेयत
डीसल
मलिनीकरणं
टेभ
युवशं
तरूपेण
६००
मापिन
७९
योमसीम
समादृता
रिवारं
चीनयोर
यनाथ@@
यगादीत
णापि
अपघाते
थानमावहन
रेलियायां
वीकरणी@@
समुचितं
जनुवरि
यसंघटनेन
७२
रभज
ओडी@@
लाण
रन@@
वैरपि
तिपरीक
परिमि@@
गढ@@
रयानानि
णीतः
वासरपर
मारभ@@
परिमितस
दानां
चायाः
देशमनुसृत
यनयोः
थांशचक
रीडामण
नेतृस
१८२
णतरङ
दुकैः
रभाषणं
रभाषण@@
मतदा@@
नाधि@@
रीडि@@
विजयेन
वसूरिका@@
युवा@@
बहिराकाशनिलयात
भौमनिरीक
वजनसंख
नारायणः
पुरनाट
कारसमर
थापितः
.४
रयान@@
कृतानां
खानः
बादे
४००
अनुशोचितवन
नासया
गतद
ओण
मोदिवर
सुनकः
विजयप
विजयलक
वीरमृत
ययनप
नाषणल
धिपत
३०@@
तीकृतमिति
डय@@
नावसरे
वधाय
रमणे
रोगिणां
अतिबृहत
हैन
तीकरणाय
अरी@@
किलोमीट
जोण
टताला@@
पालनीया
भाषणानि
तारकम
तदश@@
रकटयन
ञानिकः
१९९@@
तृणा
रिङ
कमान
गारप
काबूलस
रोहणं
सविशेष@@
रवृष
केरली@@
अतितीव
गलानां
आदिशङ
नामुपरि
आतुरालयस
भारतीयछात
४३
धैक@@
षिपुरुषैः
तीरं
यूची
वासाय
रकल
कारागारदण
शिबिरस
रानखा@@
वैदि@@
रावणपूर
गणक@@
यूनक
भोपालनगरे
वमित
षोपरि
सिंहा@@
योद@@
यादीन
षि-@@
केतनः
वजे
केशरवर
ठाद
रभाविता
आकाशबाणस
छेदाः
ञापिता
देशकाल@@
धनैरपि
दिवसं
भूतो
लेर
ताडयेत
लालयेत
कोकिलानां
कुरूपाणां
विनाम
रिते
विदेशः
नाऽपि
यजेद
मैथुनं
भयत
कनकं
तापताडनैः
मविदः
शूरस
पृहस
रवासेषु
दीपो
बंधु@@
योऽध
जिते
थिता@@
वजनेषु
थितानाम
मानमिच
तितुल
तोषात
णायाः
दयाप@@
भूषयते
भोगेन
हीनो
ऽऽर
पादं
लोचनाभ
भुवनत
साधकः
शरीराणि
निहितो
ऽऽत
याधो
मणिर
चतुरो
यदुरा@@
नाऽन
तेषाम@@
सकृ@@
विनो
यदिच
मारक@@
रविनोदेन
यसनेन
लघुपतनकनामा
चलितः
मौपम
भागिनः
रतो
पुरुषेणेह
हातव
भूतिमिच
मूषि@@
संला@@
गृहमागतः
गामि@@
येकेन
पतनं
गिरेः
तमहं
पदैर
रेति
थरो
वाच-
शृगालेन
लेऽपि
धवा
तोऽनन
कजे
इती@@
मितो
सुखि@@
रध@@
दिवि
ममास
नामकीर
भुवनं
चरो
वेदे
सनातनम
रेणु@@
फलति
शरीरम@@
ययो
कुटीरे
मेरवक
रारविन
खिलम
कुरङ
मिता@@
ऋषयश
यैते
विनाशं
कोऽर
यासमं
णुते
मुपेक
विरलाः
सूते
सदै@@
षियन
शिवसंकल
ठिता
यावा@@
पायाद@@
षत@@
शिवे
मनुजा@@
रामाभि@@
दयि@@
पुलिने
लीप
वसतु
गिरिम
भुवन@@
वदनं
जीवितम@@
वतां
तोर
वेधा
हरिभक
जेत
गृहाद
रुजने
नामैव
नृणां
हिचित
सेवितं
णुना
वरमिह
येता@@
विकारो
निरहङ
मेऽस
रियान
नीयमाना
यथान
नचिके@@
येवाक
षतां
विदुः
पृहयामि
पृथू@@
समुक
दृशी
रेणैव
बाबागुरोस
नरवरे
भिरर
ऽथ
नूत@@
जुलै
यामिव
मशे@@
यैस
विजिह
किंचिद
गजाश
मतिप
कृतोत
णा-
नुक
बकं
पृथव
विदेशगमने
कारान
दोहनं
मासपर
मामे@@
योऽणिमा
धिङ
विनयाद
धनमाप
शुभाशुभ@@
मातृसमा
तसयै
यायो
राहुर
रियमाणं
जयशङ
रशशंस
यूनत
आयकर@@
भागभागित
खगान
रतिरोधमन
कृतभारती
अनुकूल@@
मालवीयमिशनशिक
षणकार
अतिकठि@@
चये
४६
डयनं
१००
भारतीयसंस
अधिकार@@
विगते
ऊढ
ऊनत
रकारैः
रवाहयिष
तलेखाः
समायो@@
नवदेहलीस
मलेष
यविभागेन
रोपरितलात
दीपदीप@@
यापकानाम
पेट@@
२०११
पदी@@
नेनैव
याकाशनिलयात
येतेषां
रं-@@
रेरिताः
टानिक
टैट
यकस
भागेषु
डुलिपि@@
थितानां
कलोत
दृढं
रधारः
भारभूता
रूपे
विलेपनं
रयते
तवै@@
कृतिर
पतिश
पावनं
यशोदाकिशोरे
झङ
मीत
मदो
परेण
देवाश
मौ
काशं
हमिति
भरताय
सनस
रुपरीताक
रामे@@
रयाते
सीतासमे@@
सीतेति
दीनं
रामोऽपि
मणे@@
निवेद
गोसहस
गौरबटु@@
रुद@@
छिता
याशा@@
भाषि@@
यायाधिपा
रवेशनानुमतिपत
कृताकादम
मूले@@
परिनिष
मणार
षाद@@
भेदेन
पीत-@@
सहायो
विशेषा
रेकोर
दुभयो
भोजयित
वहश
भीरुता
मारे@@
वालीस
बिताती
ापन
बचना
परदे
राती
ोसन
भिजवा
नियति
हावे
लेटे
बहलाती
भोले
हटो
निखार
पैना
रिदेवों
निराकार
पुकारती
सिखाई
नागफनी
बगीचियों
हकार
वादिता
युपकार
समवाय
निषेध@@
नैति@@
यूह
युयु@@
पुरुजित
शैब
युधामन
मझ@@
पोंछना
बेचना
हैजा
यूबलाइट
लैकबोर
वैशाख
रहाय@@
माघ
नली
पजामा
मछु@@
बुनकर
बुन@@
मूंछ
पिंडली
लिपस
मटकी
अगर@@
लंग@@
राकेट
साँड
सूंड
मोर@@
नागिन
पकली
चीं@@
ोंक
नारंगी
कॉर
गुं@@
शंक
भूसी
फूलदान
बुल@@
बूँद
पालना
केट
बाँधना
पेंच
पैनल
ँग@@
रीट
माउस
ोन
बाएं
रिकोण
बीन
सादी
रंगीन
पूरक
रपान
बटुआ
लिफ
य-पत
पटिया
मामीटर
ाइल
मुहर
हथौड
सुल
सरौता
रेशर
पंचिंग
बरबाद
नी-@@
मथने
सिलाई
बिखेरती
मथनी
सरक
बोना
बुनाई
पीसता
गूं@@
हंसता
बचाता
हिलाता
भावनाओं
हिचक
वटी@@
पुजारियों
विभाज
सिखाना
परहे@@
m@@
बेरोजगार
सोचती
बहुवचन
याहार
ैरमज
अवशो@@
विकला@@
भुलक
हटानेवाला
वंसक
मकता
लेआउट
बूंद
मंथन
रेपन
नौना
मंदता
लाइड
y@@
b@@
वासघाती
संकुचन
पैटर
विकृत
निरंकुश
शैतान
रसादम
वाचक@@
मसात
यवाणी
लहर@@
गुज@@
शाता
रावधान
रेंट
नागों
इशा@@
पांड@@
बीसवें
मका@@
बेड@@
शंभू
नायकों
विधानसभाओं
सजी
समन@@
निपटा@@
समभा@@
समभार
बाहु
समाजवाद
सिंग
समीकरण
महासागरों
निलंबन
रेसर
मजात
मख
ाह
साहसिक
मोम
पंदन
नेही
मणिपुष
सुंदरी
शुभचिंतकों
रतिभा
चूक
पकवान
s
नुम
सपने
हँसने
वंचित
भाता
रधानों
वसनीय
बदलते
माफी
निटी
सीखा
हथेलियों
मेहमान
हक
सभापति
दोहरा@@
वले
मदनी
र-शस
बहनोई
बनावटी
मछुआरा
रेशम
बारी
सोस
पेड़ों
सूंघना
रकारी
ियाघर
इप
राना
पिटाई
सहानु@@
नज़@@
निराकरण
वेट
नती@@
परिशीलन
हरा-भरा
पकना
परकोटा
फलना
भौंकना
याना
मलना
संयोजित
लाँ@@
बरसना
हँसा@@
यकीन
भूलना
हंसना
सलाई
ा-लिखा
सूखना
रुटि
साहचर
मिलावट
सौं@@
लीयत
मैना
सींचना
फुरित
ललकारना
रांची
मीटिंग
योगक
डोर
बल-टेनिस
हूँगा
मिठाइयाँ
सुनाती
रतिध
महापापों
मनोवांछित
महाविघ
षुषापि
रंड
सेमल
सुखों
उता@@
बुझती
चैन
इह@@
लाहना
रखनी
षपात
पंचमहाभूत
मलमूत
लड@@
बनारस
रमता
आठ@@
शीशे
हाथ-पांव
भूलो
रवाती
पहुंचाते
साहब
भवन-निर
सचे@@
सचिवा@@
भूलिए
भुला
हरिए
डाक@@
सिमाएँ
रुके@@
बाल-@@
ाओ
पलायन@@
लौटूंगा
रा-पत
फुटपाथ
रूपये-@@
यासियों
बहे@@
फुदक
मजदूरनी
बीच-बीच
बे-@@
वॉली@@
राहगीर
बनाएँ
रलोक
लौटें
निगल@@
लानेवाली
भयोत
फटकारती
लासा
रोहू
रगामी
भला-बुरा
बहुमंजिले
बिखर
भौंरे
वंशपरम
यपरायण
सीधापन
पहुँची
शोकयुक
ऽम
रतापदुर
होइए
पहचाना
यासिनः
भकार
मुखवाला
युदारः
रतारहित
सेवे@@
भुजबन
वनमालासे
वभावसे
सचिव@@
बालोंसे
मुसकान
लसित
रूभङ
समुख
हृदयहारी
रिवलीयुक
नयनोंसे
हंसोंके
फीका
नुकीले
मिटा@@
लौटते
निभाते
विलंब
हवा@@
यदेश
घों@@
शावक
यारि@@
भील
बोधित
पु
लपेटा
महीन
वेगवाला
राणवायु
वजित
यागादि
पपीहा
नियामक
रोकटोक
सुकुमार
विवेकियों
पशुशास
रामशास
बिखेरता
रोधोत
सुख-दुख
बँधता
विकला
बाजूबन
याचकों
बीतने
रवधू
लालि@@
बूँदों
मनमोहक
हीनों
निगाह
ूगा
लिपटी
भगाया
सुखान
र-स
षसराज
पनिद
परिणामभूत
मथे
बफलके
हनुमानजीको
फैलाये
षडयन
समयचक
यरस
मोहमयी
शिवानाम
सियारों
वलय
पेरिस
लालिमा
महलों
सूनी
बिजलियों
मले@@
वेषभू@@
मेहमा@@
बोये
निवात
यागपत
पकाये
सभामण
यवधान
वलता
रतिबुद
होठों
बाँटकर
बाणादि
पियों
मालाएँ
राणधारणमात
मणिभद
षपणकवृत
नियमन
तोदर
विदाहकारक
आमा@@
हृदयग
सिम
पतिया
फूलो
शिखि
मास-@@
मृणाल
लवेतस
मनवाले
भूलते
यहीन
बचाए
संगठित
बनाइए
रशंसक
ाएँ
लुटेरे
बहरे
सांमनस
मानोरंजन
सहचर
यावा
पुरावृक
अवरोध@@
भादि
सेचन
षारयुक
मापा
भूरे
वेदि
मरणशील
पशु-पक
बीजरूप
बतला
हृदयों
वदे
रियवाणी
हविष
भभूत
पुरूषों
सौमनस
राजी
नज़ारा
टिया
सूई
फुलका
सुरमा
पाँवों
योपासना
सूरती
बेरे
ीसाज
सिखाया
पकाएगा
ज़हर
हुनर
ौजी
लखाना
पहनेगा
ंसों
भूलोक
ास
मोटा-ताज
पीटा
नह@@
अपने-@@
जती
रचने
सिलसिला
रचे
ललचाओ
बिकता
पैसों
रीपति
न-तीन
समरण
मासी
भूलूँगा
रीबी
वदानन
बिडाल
वीरें
ूं
सुननेवाला
यशर
पोशाक
चौदह@@
माननेवाला
साफ़
हद
शपथपूर
मनाएगा
बालपन
लवाला
रशंसा@@
पुकारा
ढूँ@@
लुढ
लाज
बराबरी
ँ-@@
लाओगे
ूल
याधिकारी
वातायन
हब
ानेवाला
विलि@@
वानचन
रामकृष
याकर@@
लंधर
पेशावर
मिलाप
पीटेगा
रुस
मेरु
बूढ़ा
फिसला
ज़मीन
संतरा
मूंग
बाबू@@
माँजने
वरदत
बताऊँगा
रीदता
मलिनता
रीदते
नाम-नामक
नोटबुक
पहनाए
शांतियुक
मृषावादी
परिवृद
मनमाने
पिघलता
नियमहीन
सिखाए
सीखे
बिछौना
नौकरों
मांगे
हिलना
याणयुक
भैंसें
विजपन
नयज
मथते
बरसता
मांगते
सहता
रंगते
ढां@@
समझाएंगे
यापता
मापते
पोषन
हवनं
रोया
=
बांट
यशवाला
साकर
नियोज@@
गोश
विवेचनपूर
सतयुग
वायम
रेता@@
वेदोपदेश
रयोगं
मंचन
नारदा@@
विजयोत
वजमह
रूपा
रदण
भौंहें
मृतप
सावधा@@
विदिशाओं
सतम
वारशाला
रंगपीठ
पिशाचों
वपर
वासुकि
सामाजिकों
सामनीति
मृतियों
पूजा-@@
षागृह
पताकास
वारित
रियभाषी
पतिका
यासजी
टित
मणिमय
रतत
सुरससुबोधा
अटै@@
पोषकः
षेपक
अंधे@@
शारदापीठ
नावशेष
मेथी
मूँगफली
बाघा
मवीर
यतिथि
यंति
मातृदिन
मशताब
षणाधिकारी
बिग
होलिकोत
सीखनी
ेंगी
भूनिये
निये
पेंट
रसेवा
यसमाज
पहुँचाते
फेड
रिगो
पनीर
नासमझी
खाँ@@
लछवानी
मरुभूमि
बाकू
यरफोन
पिलाया
सहारनपुर
सूचिपारा
मौनव
हिया
चेयर
यदल
िसी
आति@@
शबाजी
बहाती
लाएगी
सें@@
शिवगंगा
भोजनसमारोह
रिलोकीनाथ
मूक@@
रपूजा
यशैली
फेंकते
काग@@
नगरसेविका
रवेशद
पैन
राये
पोज
नहाती
बूझ
माँगकर
सोड
भलगढ
सोच@@
सीखी
सील
सुनेगा
फेनपात
मेनू
मैली
डेल
सुंदरवन
शोभयात
वाघेश
गोंड@@
लगाएँ
सीढियाँ
पहुंचेंगे
सुविधापूर
पाऊँगा
सुसभ
पोंगल
नहार
यूमेंट
राइविंग
रसीद
पलें
रजतपदक
जिये
रोसरी
रुवी
वनिवे@@
नरसों
नवलशंकर
हीं@@
नादस
हरिहर
पहुँचाती
भाँगड
पीलने
पनवेल
परमावश
पाएँगी
बालाकोट
रेलवेस
पीयूष
यपुरुष
पुतला
मामीजी
पाएगी
बाजरे
सेंक
वविजेता
मुला@@
काती
लेटफॉर
रणसिंह
ीलिखी
सहेलियाँ
M
पॉल
पानीपत
पूछूँगा
वायुसैनिक
सुनूँगा
सोंठपाक
नानागार
मैथिली
खाए
लुटूथ
सीजी
रपाठ
यशकीर
रमिणी
राजपूताना
निगम
सीमापार
रुकू@@
शनाचार
पबद
रोहियों
रूपाली
मानेगी
लोकनृत
बियाँ
यापीठम
षाकाल
मालकिन
रची
पेज
बोरीवली
मिठाई@@
रूज
मैनेजर
लोकाधिकारी
विचारता
नोदेवी
सारंग
सूरदास
बेचती
माँ@@
मीलमुट
वाचोनिधि
विजिलेन
विदुला
भोजपुरी
लटकाती
यागारः
पूना
निरहंकारी
रगीत
वधी@@
राचीनतम
पालतू
बहाते
हिसिल
शरदपूर
बनाएँगे
मिग
शनगङ
विमिंग
फानी
लपलप
भोजनालय
लिखनी
रिकाएँ
राहिमां
राहिमाम
लिप@@
सुजित
सुबोध
सुला
सुलोचना
सुवचन
नुरागिणी
पारामारिबो
परेशन
सेनाधिकारी
सेरेलेक
शोकमग
वजोत
लिंगायत
रांगण
हिने
हीर@@
बाबासाहेब
बेडकर
पहननी
होस
रुपयों
जुला@@
बेजोड
रामगोपाल
सामूहिक
पूनम
बारा
धुरी
मादकता
माँगना
निशाने
मिणी
सीतायै
वरूणा
रेलयान
पुरुषोतम
नैतिक
मयूरी
मीठे@@
समिधा
शुभेच
पाशुपतास
लुटेरों
रोकता
रोकती
बनियों
षालन
राघवेन
रघु
सूँघा
यासकार
पियेगें
हुना
मूय
पिघलना
बिछो@@
निंद
निरादर
लूले
फिस@@
नवमालि@@
सींचता
युगपद
यसनोदयाभ
मदशान
शोचनीय
पोंछकर
रसाधनों
पहनाया
लादित
बेचारी
महावर
लायें
मेश
लहरी
सबल
लिखाया
लिनियों
हरेभरे
मंगलकारी
मयूरों
बरौनी
रंगता
समझाते
मुरझा@@
भटकन
ययंत
रुई
बलराम
लुहार
यवाला
पहिनना
रवाली
निकाल@@
यंच
यनक
शेषनाग
सारथ@@
सदृशता
यनी
मैल
योंही
मूहूर
सुगठित
फटा@@
मेधा
बतया
रुआ
बीपात
मुरझा
यअहिंसा
मुखवाले
वाकु@@
वीरतापूर
पारलौकिक
यभाव
यें@@
वंतरि@@
विनीकुमार
विनीकुमारों
शीतकी
विविधात
राणिगण
पहु@@
वरके
होजायँ
कंद
येजाते
शांतिका
रतीकार
वीस
रुतसंहि@@
रथमोऽध
यायकी
नोंमें
निदा@@
मरूपसे
वाजीकरण@@
रसायनतन
रुतसंहिता
विधिसे
भीरु
पुरुषोंमें
विषके
समयपर
लिंग@@
राकृति
मूढगर
पथरी
भगंदर
पसे
मादिक
याधिके
रणका
यादिको
षिनिमेष
पंदरह
रावृट
वचाको
भकारक
रादिक
रुधिरकी
टाई
नसों
दां@@
राका
लेको
बलनाश
वलकेभी
रमेहपि@@
वायुके
राजयक
लीह
वातो@@
षणता
रहनेसे
भीतरकी
संधिक
होतो
लीकी
हीनकर
रंथि
अगा@@
बनादे
पडना
फोहा
मदित
फुन
पड़ने
हलदी
मले
लजा@@
मलकर
षोंकी
सहत
नाडि@@
बुरका
काएँ
रेलवे@@
विधालय
शाका
मनोरथों
वटुरूपधारी
यरचितम
फलित
योतिबा
सायरा
बहुल
भवननिर
बगीचों
मिटटी
लहु@@
शिलाओं
शाबाश
बड़ी
शोभायुक
षीराज
पटकर
बाई
विषैली
हरे@@
शाली@@
वयोवृद
रणों
राणी@@
सहरी
फुद@@
किना@@
सकोगे
लकडियों
विधेयात
योगयज
पापरहित
पापियों
৷
भिष
मोहवश
विषयभोगों
लवणयुक
पावश
निरुक
मदेश
नयपाल
सुजन
बंगा@@
सभामें
वेदोक
नुकूल
याचरण@@
सचिदानन
शिज
रुओ
लाग
शथवा
भाज
बोते
बहुलता
परिचायिका
बूंद-बूंद
रजाति
सवप
भोपालनगर
रिकल
मिटेड
सिख
रीग
हरिकृष
माहेश
शलातुर
संगण@@
किस@@
सौरमण
लोकमान
षायुर
बसूत
बालचर
योगनिद
योगशास
नालन
ाक
हरिदत
सामन
पूजे
सिंहनी
सुदूर
पचता
भावित
पाकड
नीली
सींचती
मारो
हिसात
शासकीय
पंखे
बैर
सुनाए
वाकु
भाईयों
पूरति@@
यौति
वेटरी
पुरुषत
पापरूपी
संङ
राजमहल
गिरा@@
निरूपण
विचारपूर
सिखाते
हजा@@
मतवाले
रवाहों
मल-@@
रदेशवासियो
वालो
भयरहित
वांग
भाई@@
पोंछने
भागो
रेहड
फ-@@
मरोड
फेंको
रेतों
सिकोड
व-पश
रतिमहीने
शठ@@
ँठ
सकेगी
हुआा
भयोध
शभी
वातव
सुभगे
वशं@@
सुवेरा
रवाला
होगया
खें
नाक@@
सबलोग
मूंछें
मुसलमानों
हरिवर
रमवर
वलाका
होजाती
मछ@@
फूले
फलवाले
बूल
नीं@@
वसंत@@
लोय
शंखा@@
वृ
ळ
शिवप
जामा
बुन
पें
वापर
ासा
यूत
राशी
समाह
केभी
शकर
पांचसौ
बढता
लिखेंगे
सिकन
बीतेगी
नीर-क
मौलसिरी
बथुआ
सौफ
भेंड
लोमडी
पारन
सीतामढ़ी
बेतिया
लेटकर
पाचिका
रूमाल
बुझाता
मैरुदण
रोज़
युनिवर
पादांगुष
मोबाई@@
ंसि@@
पीड़ित
समें
पाकविद
हलवा
भूनो
पढ़ेंगे
यहाँ-वहाँ
पढ़ी
पहनकर
हेलना
बातूनी
भरतनाट
विभाकर
लॉग
यायि
बोएगा
नागेन
सहभागी
मटका
पहर
मदुर@@
पहुँचे@@
बड़बड़ाता
बड़बड़@@
बड़बड़ाएगी
बड़बड़ाया
हटाता
षिओं
टरी
ॅपरे@@
पहाड़े
नासिकाओं
बगी@@
वरुप
बूँ@@
साई@@
बाजा@@
पों@@
लड़कियाँ
रणेता
सहेली
गांठ
l
फेंकती
नाँ@@
पधारिये
सुनाइये
परदादा
परनाना
भतीजी
सोहागिन
रंडा
कामनाएँ
यूँ
मेना-बेटी
ाहट
वदलीय
लासे
वंदन
योजनाएं
हलकों
रीगण
मरम
यूरेनस
पौडेल
षाएँ
सहयोग@@
निशमन
परानंद
संभालने
रोमुरली
शोर-शरा@@
बाइडेन
नना@@
मिमी
मानवरहित
संगीत@@
हिंटन
मुलाकात
शाया
है-विश
डिवी@@
इडु@@
नतीजों
वाडोर
अजी@@
मथुरापुरी
निकोबारी
फहराते
भसुरक
भलीभांति
मादा
बताकर
वामिभक
संतोष@@
हिच@@
मलों
फूस
बसंत
भौरा
वरन
बजाकर
बूढ़ी
हारकर
१०००
वांकु@@
मेधावान
वरोंको
वतोंको
पोंको
वंशीनि@@
वंशीकी
मुरारे
विचरता
पड़ेगा
राणनाथ
पड़ा
भाँ@@
षीर-
वरकी
रसकी
चाँ@@
हरिचन
माको
रुओंको
मतेज@@
वेदोंका
पितृतर
नौकर-चाकर
मयज
पितृयज
वदेव
विषसे
लानेवाला
रीगमन
महापातक
विजाति@@
याहीन
नोंतक
राजासे
सेवासे
योपार
आसन@@
निके
बीचसे
षण-क
षणमें
पुरुषकी
मधुरप
लोकोत
रतिपाद
वरूपिणी
माधवप
युतकी
रेयसी
भारे
बिठा
रघुवंशनाथ
रसने
पुं@@
षोंको
बहुत-@@
लंकाको
ामणि
रीजानकी@@
रीहनुमानजी
विभोर
पवनकुमार
हनुमानजीका
हारिणी
सोताजीका
रावणको
कुमु@@
षाका
पुंज
भोगोंको
रमणियोंके
रनीलमणि@@
हाथका
मयूर@@
रमारमण
यमुनातटके
निकुं@@
वसुदेवनन
रीयमुनाजीके
लहराते
वधूटी
मुरारिको
रेके
मोरपंख@@
सनकादि
छ-@@
यदुनन
रीराधिकाजीका
लीलाके
वनकी
वीथी@@
रससे
लोगो
पादुकाएँ
रागादि
वोंमें
मण-@@
रजराज
लोकोंके
ोचित
मैया
निषूदन
निशाचरी
पापि@@
भवसागरके
संसाररूप
राजराजेश
लानेवाले
कछु@@
माताकी
पुरुषोंको
संगसे
ववेत
लोभसे
मरणमें
भगवच
षणके
सेवाके
सालोक
सायुज
लका
रेमपात
रेमके
होनेमें
मानशून
फुटित
हितैषी
विचारने
परमव
निकुण
विहारभूमि
मेनका
रतिवे@@
पारावार
छोटे-@@
संहरण
वापर@@
पौराणिक
लेखकों
महाराग
पपित
महुए
मास-रस
विदाही
वजनो
शाथ
वयुक
भाजन
रथित
मेदो@@
सहार
पहिचान
यलोक
निपातजन
षतोदर
हाने
फुरण
रमेह
निशोथ
वातोदर
बीजसे
र-रोग
निःसा@@
पाच@@
रिफला
मास-
वावित
मासा
पठा@@
केशर
शालि
यामाक
भूने
वहा
बढाता
नाभस
माए
पलीमूल
पेयादि
पाचो
समिता
पणखा
रिशिरा
निरपरा@@
राणवल
रूपवान
सुसेवित
शंकरजी
रोधपूर
सुवासित
षाण@@
ललकारा
बतलाता
भैंसे
ललकार
रममण
पावति
वादल
योगियों
वानरराज
मुनिगणों
08@@
१९९६
सेलुलर
राशन
पुरुषवेश
नानकाना
साहिब
रीठे
ियेगा
नंदिता
भारतमाता
विरोधयात
वियर
पिये@@
यानचालक
ोंगा
बाबु
नागेश
भोजनशुल
पटल
यवंत
टियाँ
बनवाई
भोजनाव@@
षिणभारतीय
मनःशुद
लौटेगा
कबू@@
रतिभाशालिनी
फेंकूँ
बाँसुरी
रेठ
मुखर
मीदवारों
मंडला
यूबवेल
रूपाणी
वारोहण
षाखंड
रिटीशरों
विमानों
सुखाने
रॉल
सियाँ
राजबाई
विलासबा
हॉउस
शिका@@
यसामग
वयुद
मारेगी
दाहि@@
रुवथिरा
षीयों
सतलज
पठान@@
वतारोहण
वेदवाङ
मदनलाल
महाबलि
रसिंह
विभूषण
कू
आइस@@
मगन
मुगलशासक
कहि@@
सासजी
भराने
परदादाजी
बैनर
मैंगते
नेइजैंग
रोहा
बाँधता
रहीं
लीपता
पदवीदान
मेरठ
हँसाते
वचनपालन
सुखड
भगाने
संवाददाताओं
शोकसंतप
राजनाथ@@
रीकान
षिताचार
बिहारघाट
सनातनधर
सींचते
लिपिक
मरणयोग
वोलो
विदेशों
लौर
विरङ
सुनायी
रूपये
रामनवमी
परोसो
बदन
राधवेन
विदेशियों
नेआने
जैसे@@
रविकान
यामला
हमसब
भारतपाकिस
सकने
विनती
रोचना
रुपात
फसलें
मैनें
महाज
विदीर
रोगोंकी
शांतिके
बालकको
पिलाने
वाजीकरण
ीको
विनीकुमा@@
पृथि@@
बैल@@
सरदी
नायु
विषम@@
महाव
याहृ@@
षमें
मारभृत
राजोंके
लेनेपर
रमही
पहले@@
रुईका
यादिक
रुधिरादि@@
होठ
रोगी@@
यमाण
बांध@@
रोगीका
युगपर
टौ@@
षसादि@@
रकृतिविरुद
रोगयुक
रोगोंका
ीसे
भरनेवाला
वेगो@@
षीणतामें
संधियोंमें
वृषण@@
मिं
पसवाड@@
रोम@@
मलादि@@
मांसका
यंतर
सोमात
ंसा
रंसन
विशेषों
बलको
होजाते
निकल@@
मरिका
पकजाना
राथ
यहाँपर
भिगो@@
रासे
लोंको
पप@@
हकी
लावे
भरजाय
वढ@@
शोथमें
खाड
रोदय
लड़@@
लडकियाँ
बैडमिंटन
रगाढ
ववाङ
पौराणिकता
मुखरित
रेमचन
बेंच
नदि@@
भैंसों
ंटी
रणै@@
रसीले
लोहकार
बंदूक
सरवा
मूंड
पीनेवाला
सुनहरी
मनृ@@
बनानेवाले
ानेवाले
मूट
नीर
निरोग
हिटलर
विये@@
रगति@@
रमणि
यकला
रदेवो
येयमन
पालती
कंप@@
फेंस
हूण
मसाले
मजबूती
टिल
वेशपरिवर
नेएक
सैंडर
वाचित
ड़िसा
मयूरभंज
मोहबनी
रखेंगे
लादेशः
बोडिया
पढ़ें
वीरांगना
फहरा
रामाई
सिका
सरोजिनी
विधानमण
रंजी@@
वेदादिभाष
यभूमिकां
१९१५
मोरारजी
भारतदेश
हमसे
युवाशक
विधिलिङ
बछड़े
माँजी
मलयाली
शिवगं@@
बेध
मराठी
निःसंकोच
बलूचिस
नारियों
लोदी
मुग़ल
वंशजों
बटुकेश
यतीन
राकुमारी
पीज़ा
शाहजहाँ
बनवाया
महालय
संवारे
ड़िया
फिरता
बाढ़
C@@
सुखड़ी
पढ़ेगा
रौढ़
रूपया
ढ़मंडला
शनरूप
लगाऊँगा
पाठन
पढ़कर
होईये
मानवी
योमेश
मोरीबी
मधुरिमा
रुँधे
बिलख@@
चौरा@@
रुककर
सैट
समानांतर
हाफिस
सईद
य-संगठन
राफा
फिलिस
सून
बमबारी
लपे@@
अख@@
वगै@@
सौंपे
रिसर
राजनीति@@
फोटोग
राफर
मिलीं
नामीबिया
वेलि@@
निदेश@@
अकाद@@
रेडियो@@
रंथ@@
रिपाठ@@
सरका@@
ह-जगह
ंदर
वेधशाला
रिशूर
फुकुशिमा
रनो@@
परमाणु-ऊर
पेनल
शूटआउट
यावरणीय
साहो
वाशिंगटन
वहीदा
शॉट
हांगकांग
बर-@@
शुभारंभ
मलप
माराकेच
मनोरं@@
फॉ@@
पीएस
नावों
रीगन
पारण
हारों
परौहा
मौखिक
परिचयात
बागसेव@@
रतिभागियों
भागीदारी
सुरंगों
मौजूदगी
डोक
लैन
मेसो@@
लियोमा
भाईचारा
हादसे
यू.एसवाराणसी
सिजी
रभारी
पंचायत
सौंपने
रतिकृति@@
नोसेंट
रंता
शाते
मलबे
तराल
विकास-समाधान-@@
लामा@@
वार-@@
लीलता
सजीव
रिगुणात
नेशनल
रिब
यूनल
यूरो
पिडेमियो@@
संके@@
परिलक
शिवाय
रेखांकित
फोटों
मांडा
रांतीय
पीके
रीशमः
सरागर
लिफोर
रिटी
N@@
मेयर
लेगी
तारी@@
दो-@@
दिन-@@
मपुरा@@
रोराम@@
सला@@
विवेदी-प
यनाथ
विजयगुप
बीमारियाँ
पंजीकृत
रिटोल
रीवाणी
सीवर
मुंडूर
सजिता
लादिमीर
ेजा
रावेल
महाशिवरात
वेटोरियल
मितोह
योजनाओं
शिलान
बेंगलुरु
सलाल
हैमना
पदभार
सीरिया
मापी
बैलून
ॉल
पादन-@@
निभाई
सरों
समायोज@@
समाचा@@
यालक
एशन
नया-@@
समाजों
रपिता
शहा@@
बदलकर
एंटी@@
X
फेस
पोन
बलमेट
सटीक
रूड
इल
राउरक
संगीत-साहित
पान-@@
सैटेलाइट
पीटर
बल-@@
मुवानी
अजे@@
रेंस
नेल
रोएशिया
सह-मंत
सुखविंदर
परेड
सुओं
वंगा
मंडोस
साराभाई
रोये@@
एशि@@
वाली@@
200@@
सेनेगल
मुकाबले
वासुरी
षण-प
रेटा
याचिकाएं
नामेंटों
पीएसएलवी@@
बैत
फंस
रीनिवास@@
वरखेड
वी.
सेबेस
पुराणट
भयावह
नोएडा
रूपरेखा
रीति-रिवाजों
मेलबर
नाइजीरिया
नाइजीरियाई
पुतिरी
शुभांगी
सूसी
पीटी@@
वसीरा@@
भारतीय-प
रोनियल
रोटोस
शताब
सुनक
मीथेन
ॉय
लेषण
सपो
लोकतांत
मतपे@@
रंटो
मिकी
रावणिका
संविदा
भटकता
राजदूत
साय@@
लॉक
रण-@@
रभावी
याली@@
बुडोक
नोटिस
साइट
पुतिन
फैलाने
पागल@@
शावली
एएस@@
लंदन
V@@
मेमोरियल
हैयीशु
पुतिन-मोदी
फेडरर
हैए@@
मिया
फैलाई
पीएच@@
मोरल
मनोदर
51
सबरीगिरि
षाढ
शीष
पा-प
रलय-@@
शान@@
रोमा@@
मानक
वनंत@@
लायंस
फाइटर
फिलीपींस
हुआ-@@
बिज@@
नमारिया
रखंड
रायपुर
हरिहरेश
पलट
फैन
मनिरपेक
यू-नालिका@@
मंगलम
बकर
रवेल
गरेट
फहराने
मानपूर
वेंकैया
बानासुरा
रमसंवत
१९५६
वालियर
व-प
भीमबैटका
राहो
पचमढ
यूमी@@
सुखदायी
रसभा
षा-प
षितों
रकाशोत
भौगो@@
लिखेगी
पोंगलपों
पयोहिमम
सापु@@
सातवलेकर
रकाशवर
ड़ेदान
रटते
परपीड
षाशुल
सफ़ेद
ईमान@@
रगौरव
समारोहपूर
मीबाई
वेद-शास
शारदा-@@
विमेन
नगरमें
सोकर
बोली-
रविचित
वायुमंडलीय
रेंज
रदराज
मोशन
बांबी
रविषयक
सार-@@
संकलन
बंधु-बांधवों
शृंग@@
ीणाम
सोची
लाड़-दुलार
न-किसी
लगाए
टेगा
लांघकर
विजों
शृंगार
ंडित
म-कर
पुद
वैतरणी
विषहीन
बिगड
सोच-समझकर
तिन@@
भाई-बं@@
बिताए
यभिचारी
समझाने-बुझाने
फंसा
विषय-वासना@@
यौवनरूपी
पग-@@
भगा
भार-धारी
सिखाता
रोचक
रथितम
सैंकड
बीतता
वंशहीन
वभावत
रयोजनवश
रेमाला@@
योंकि-
बांधे
समसे
लिय
विग@@
धती
रहे@@
बदलता
भोजनों
राने
वभावतः
शीलता
हरती
पद-@@
सहनशी@@
रंग-बि@@
रंगा
लूटा
कुरूप@@
रतापी
विरहि@@
पतिकी
वेदोंके
महिमारूप
बसे
षुरक
से-जैसे
यराशि@@
फण@@
शेषनाग@@
शरीरभे@@
वेदत
पैरोंकी
नाथवान
हरणीय
होनेकी
याकी
पापराशि@@
मोके
राजालोग
लोकनाथ
नरकमें
हमलोगोंको
बाधाएँ
निराम@@
षासे
शरीररूपी
रामें
याचल@@
सभीके
भगवान@@
९५
रेम-@@
रथी@@
यरूपसे
मुनिजनो@@
वालामाला@@
वरो@@
हृदयरूप
१११
हाथोंसे
विजवर
शोकसन
शोकह@@
ीन
परमपदको
वहाँ@@
रजका
रेणुको
रुतियाँ
यशोदाके
महीनों
भवबाधा@@
महापुरुषको
ंकि
रीपतिको
वनमा@@
वावस
वेधकर
माधवकी
रानि@@
वेदको
मौन@@
सायंसन
षोंसे
षोंमें
सभीका
यशका
परदेशमें
भपर
शह@@
टका
साधुओंका
लोभके
भयसे
ससे
वीरके
नामात
पर-स
मधुरभा@@
म-इन
रहनेवालोंके
षा-
बिगा@@
वमें
संसार-सागरको
मोहका
सुध-
नेवालो@@
विषयानन
रमर-@@
वीमें
माके
याणके
यविक
बाधक
रोक@@
बाधा@@
यूतक
समया
रखनेवाला
भयको
विचरनेवाले
संहारकारी
मिटानेवाले
यासद
शिवरूप
यामो@@
शरणागत@@
रिनेत
१४१
रामको
रकटित
वारिका@@
यलोक@@
मायामृग@@
वनादि@@
साकेत@@
वैदेही@@
नामको
नेवालोंको
रमाको
रंगके
रूपधारी
रसका
मथुरानाथ
सुनाते
रेमवापिकाके
मुसकान@@
लंघन@@
वनमालाधारी
यादव@@
मोरमु@@
रिभुवनसुख@@
रमय
पंकज@@
मधुरसे
राणाधार
रिभुवनके
गुफा@@
यशोदा@@
वनिसे
लीलामय
रामरूप
मोरपंख
वंशोद
बरधारी
ोदक@@
सारथि@@
मनोवृत
याणकी
पुरुषके
रहणमें
गुंजा@@
संसारकूप@@
बके
षपद@@
पुरुषका
भरोसा
सरी@@
है-स
रमधर
हेको
बातका
पिताके
पतिके
रहू@@
यरूपी
पांचों
रुधिरके
री-पुत
नवधा
पुलकित
निःसं@@
वैकुण
नाम-@@
राजहंस@@
लोककी
रपाणे
रोद@@
निमे
भिषेक
रुतचित
रहग
बार-
मबुद
संसार-@@
ममताशून
सरोवर@@
महाराजा@@
यमूर
यागे
यारहवें
वाजश
याणार
र-पौत
रहंत
दनी
पितरोंकी
संवरणके
नामकी
रममें
वपञ
वेदी@@
नरौ@@
शिवशास
बाबागुरूजी
पमति
मनोरम
रगत
वाख
मसूत
राजप
वतप
शिवलोक
याहत@@
रीगुरुजी
पशुपक
नीरस
विमल
हनुमद
ीय
मैसूर
रमसंख
मरणीय
हाथ@@
परिणय
रमग
पुनरुद
रजापालन
नीतियों
राजकार
पुरोहि@@
निवेदित
परशु
बोज
निकालनेके
रजापति@@
मुह
टेर
नुनासि@@
रणको
भूतादि@@
षोभू@@
हेमं@@
विहारकी
मैथु@@
शिलाजतु
विदारी@@
विदारि@@
लपर
बढावे
हें@@
सुराही
ंडे
मैडम
मूलभूत
विमानशास
यभटी@@
महाशक
रोजलिन
मिजोरम
नगालैण
परमकल
पुचकार
नाया
याघ@@
हंस-@@
र-दिवस-पर
भाव-@@
य-शास
निरोगी
बढ़ाता
पुरू@@
मायने
शूरता
वरक
रिपुर
निकाय
मीदेवी
संवेदना
महानु@@
गुडा@@
भोगो@@
मबन
विकर
रवित
योगसंसिद
नज@@
रीलंकाई
लगे@@
सिंधु
फीसदी
ाइन
ूत
मजे
हरिसिद
नेमा@@
बूक
संविधानसभायां
लिब@@
मिसाइलों
मनीराम
सिंघल
बही
नापल
य-समुद
वारावल
रीकियों
यूजी@@
राजकुमारी
बट@@
मेलन@@
सदी
हंसल
बीएसएफ
रिंग@@
संसदी@@
मजदूरों
यूनिस
एलो@@
समिट
सह-संस
री-फाइनल
रिगेड
नेतन
हमास-@@
बेनी
पेलोड
सिलसिले
पख
सोमनाथ
बहेगा
फोर-@@
बियानो
पीएम
लिजिन
महिलाएं
षोल
नारों
निंघम
सरम@@
रेखारानीबंसल
वादा
रवेशित
मरी
बोक
बागेश
इका@@
वाधान
राजकाचार
.एस-@@
मंडप
वयान@@
सांडि@@
मई
टेज
फूट
विशेष-@@
-ऊर
रेडि@@
मूवर
साउथ
ॉ
फिया
सरगोड
पटना-@@
मनग@@
O
निट
हुमायूँ
तिग
पनडुब
वोलु
रामब
फत
नाविकों
नसन
भवनों
विशेषताएँ
विजया@@
वारिस
भगवद@@
मोतिहारी
लोब
A
I@@
हासन
भती@@
पांडुलिपि
पीपी
निशि@@
पाटल
पी.@@
रचूड
न-बालभारती
संगीत-छात
विचारित
याटिक
हुसिरो
भूपेश
हिमखंडों
वभौ@@
फान
लन@@
रांट
रासंगि@@
शिं@@
लाम-पक
पूजा-स
नेम
सोवि@@
मिखा@@
सामयि@@
बजरंग
पुनिया
रासि@@
मेयो
मृदुभाषिणी
रातों
पुंसक
भुजा@@
षीरसागर
वैभवसे
पाकादि
हाथीके
बातो@@
सुशीलता@@
सुख-दुःख@@
बोधदान@@
पदकी
य-अन
निःशरण
पाथेय
पुरुषो@@
रातृप
रीहरिको
रुतुल
यहाँसे
रसास
विषयोंको
सहे@@
रृंग
बालकृष
नयनाभिराम
नासिके
सेविता
झं@@
तराज@@
राजमान
लपटों
राराधन@@
पंचत
रीडा-@@
रिलोकीका
पराकाष
रायन
परमेष
भरतेश
६३
महानिमित
बनावें
पंचकल
लोककल
शिकी
भूतगण@@
वेतद
बतायें
सुडौल
मुख-@@
मुखमण
भसे
संवरण@@
राजाओंमें
राजाने
पौण
षसेश
वामनपुराण
रमाणको
वरतक
नृपावनसे
वतीतक
सरको
पालनकी
ठुर
मैस
यायोग
रवाहण
वेगो
रकुपित
वलियो
सारिवा
रोतों
मथा
नाटकादि
यवंश
मलोक
पतिदेव
पूछी
सपर
रसातल
सेज
नृपश
रघुवंश
मधुरमु@@
बेठे
रदय
मरूप
वतीजी
रामराम
पुकारने
महानाद
सुबन
वैयाकरण@@
भूषणसार
रणय
भेदने
भावी
विपुलबुद
वती-@@
वटु-@@
लजा
पाठी
हरिणी
बटु
हुई-सी
सोमनाथ@@
वैदूर
महाघण
बीजापुर
लोक-@@
यवन-युवक
षाविद
विंद
याशा
रियास
शमीम
हमद
रांच
रशा@@
नौटि@@
परिणामस
वसुंधरा
लीग
लाभार
शन-@@
संबद
फेर
मेनन
मेदार
मादा-@@
रमुखों
भूत-@@
नाल-@@
सप@@
पिंग
L@@
वावधान
वैदिक-विश
भाषण-प
वेद-संस
रीय-व
सरल-मानक-संस
बदनाम
वेदाचार
रीमाता
भदोही
बीवी
सुवी@@
वयू@@
मों@@
राकृत
रमाणित
रसाक
मैन
रूथ
यदे@@
सहगल
टा-@@
सोहम
नवल
मूलाधार
भावशून
रताके
पपी@@
सुदामाके
यापते
रामानुज
मानव-शरीर
रोही
रुव@@
चराच@@
वकी
रपितामह
मीके
वापरके
नदीतक
रभावती
सिरायें
दीख@@
भावक
वेध
विमला
शंखध
याभी
निशुल
सनाथ
निपुण@@
सिंहदुर
रोणाचार
रोइंदु
ूरी
बई-@@
वाहाटी
सारिणी
वीपी
वीरस@@
लोकोप@@
निषेधाज
विसंगति
नीति-प
रकलाशाक
नायर
साहू
यशोदे
पहा@@
मेना@@
मुनियो
नता-
वामनकी
निवासका
वंशमें
राचीनकालमें
विरोचनके
विरोचन
यकशिपुके
विरोधमें
पकर
पुरोडा@@
हलका
रुधिरको
वटु-
शहाबुद
बीएस@@
रामदास
नीवा@@
यमिता
समतामूलक
बहु-@@
सोसाइटी
रनील
लंकारों
मनाती
भूषणा@@
मातृबुद
निकाण
सभाजिता
रीनिखिल@@
रों-@@
महापुण
मंगला@@
सादात
वाजिद
पुजोल
राठौड
रामसेवक
लिंका
में22
होप
रृगा@@
हामृग
रकरी
रकृतियाँ
नियताप
विलोभ@@
वहण
भाषित
रोदात
विॐ
हैस
पीठमर
परकीया
पुरश
रीशंकर
रामावतार
घरा@@
भरण
मृगादि
बोलेएक
सुपक
लोकसुन
मूढजन
नरशार
मिथिलापुरी
शतानन
रीवशिष
मिथिला@@
रीवसिष
रीना@@
रदजी
षिना@@
वशवर
संसृति
सीते
रथारूढ
मँगाकर
पूजाकर
फलमूलादि
षमार
वसङ
मीक
मीकि@@
वपश
शोकाश
वेधी
विधे
रीतिपूर
वाज@@
पनस
नवदन
विमोहित
सुखदुःख
रिमुनि
सूया
यकुण
हों@@
निजिह
मशरीर
थावरज@@
पीज
बैंगकॉ@@
मूढैः
बहुरत
सहासीत
षमावशीकृतिर
नासद
मैवम
पीडिताः
यापयत
रतारणाम
मृदुता
सेवेत
मसाधनम
भूतगणा
रीतदासः
पूजोप@@
षदेशीया
सदृशानाम
वोदर@@
पूति@@
वकीयम
वेषस
यातव
राजहार
विलेपनम
मादन
रपतङ
शिवसङ
शतात
विवाचसम
यवसायः
रवाकादिशोभि@@
लघुपल
वलमिव
विषाददैन
यवशगम
यानक
विमृ@@
हृदयः
वलितद
युतीनि
नायमानानि
वासय
यातिशयप
राजसंसत
रुतवाक
विषताम
षवर
सौवर
रातिवेशिकः
मनोविघा@@
परिपाकम
यवहृतम
लोम
वोपकरणम
भीमतपोभिः
शुभः
शतघ
रूरा
निशितः
समानीयते
विलुप
वनाशार
योतते
षावलम
नीतिर
षेऽनु@@
वाटिका@@
संलक
रसादयन
वव@@
मसृणयन
झावा@@
षालनद
फुटय
भिलाषी
रेह
वेदजलार
षतिः
वभावजा
रविहितम
षांसि
भाहङ
विकप
षविदाहिनः
यायाभ
यसनम
परिचक
युपकारार
याभावः
मुदित
योधनः
रौप@@
मालायाः
मालायाम
मालासु
मासु
य़ः
रामैः
वधि
हसनम
वैणिकः
शूकरः
शिविरम
मंजू@@
बुधवासरः
वैशाख@@
यैष
पौषमा@@
समीकरः
निपेटिका
वाहः
सारथिः
यानपालकः
वामनः
वैमानिकः
नाभिः
पादतलम
शोथः
हनुः
रिशू@@
वृषभ@@
विमानम
षेपणी
वराहः
नीडः
चिकः
शलभः
शतपदी
रमरः
पनसः
यफलम
लुकम
वारुकम
माणडम
लकु@@
यकान
वेणुः
रकाण
वृतिः
पातः
वीपः
रधनुः
सौरव
रेङ
बाणः
पादांशुकम
णलोल@@
नूपुरः
किरीटम
पदकम
शयनप
मभूमिः
मशक@@
नेय@@
हलम
वनिमुद
मूषकम
नपत
सरे@@
कनी
रसूची
रणयन
पानम
पिहित@@
षिलाफलकम
मापकम
पूग@@
मुस@@
निशलाका
योभाण
लेढि
परिवेषयति
रसाधयति
मूलयति
वयते
वालयति
वापयति
रामयति
रणु@@
पुटी@@
फति
वथति
लालयति
लयति
परिणयति
भोजयति
पाटलः
शुकहरितः
सपादपञ
षवादनम
रयोविंशतिः
निषु
चलप
अचा@@
पलं
वेशनं
यमनसः
ययोगेन
भिसन
अनसू@@
नमनाः
वेगकरं
शासि@@
शोचन
वशो@@
ैशु@@
हनं
रमेयं
भवात
यधिकः
नादयन
यसूयकाः
यारो@@
यासयोगेन
बुधि
वेगाः
भसा
पवयस
लेहः
साद@@
शिनं
यवसायि@@
शमः
षवे
नामि
विनौ
मूढाः
तीनि
याहि
लभाषा
मजः
मवन
भूतयः
लुता
मभु@@
रफलम
षोः
वासनं
वासयामास
सिनः
रियेभ
रियैः
ररूपः
विदां
पातय
सीदे@@
मीलित
सृ
वारुकं
लसि@@
एकाकि@@
शंससि
शठः
शतकोटि
शतशः
शयना@@
शरः
यकारः
शाखाः
रविधिं
शिरोवेदना
शीतम
शुची@@
शृगालः
शोचि@@
मासाः
सयत
संगर
संनिधौ
संमार
संयाति
संशयं
संशोधनम
रिणो
संधिः
हिनः
सचन
सततयुक
वसंशुद
सदो@@
तनाः
बक@@
समतीतानि
समधिगच
समवे@@
समाधी
समाधौ
समिद
समुपाश
पादकः
वितस
राहयित
सरसां
सरोवरम
वदेहि@@
वभूतस
वभूतहिते
वभूतानां
ववृक
सवितृ
सशरं
सहज@@
वतु
सहयोगः
सागरं
यसमिद
साधकं
साधियज
सिकस
सालम
साहङ
सीदन
सुवृत
सुकृतदुष
सुकृति@@
सुकृतिनां
सुखमेधते
सुखेषु
सुपू@@
पादाङ
सुरगणाः
सुराणां
सुवि@@
सुशीलत
सूचिका
सेनयोः
सेवामहे
सैषा
सोमः
सौदामिनी
सौहृद
रंसते
रियश
बितः
रोतसां
वजनं
वनुष
नावबोधस
नावस
वाराज
वैर@@
हंसा@@
हरः
हरसि
हरितम
विः
हिनस
हुतं
हुत@@
हृषीकेशं
षयात
षयाय
मषाः
षुध
षूद
षेमं
षोभं
ंतं
विहिनः
याचारः
रमणी
रवाणी
नेयः
षकालयः
साहः
ऐति@@
कारकम
मुदी
वथितम
रामीणः
नोती
रावासः
पथिकः
परिमार
परिवारः
पवनः
पाठनम
पाथेयम
पारितोषिकम
रचारः
रणामः
राकारः
लु
बीजम
लूकः
मांसम
मृ
मृज
मोदकः
रजनी
लोपः
वनिता
वपनम
विचारः
शीतकः
रृगाल
शोकः
संयमः
सवादः
संशोधक
नाहः
सभाजनम
समापनम
साहयति
सूपः
फुर
हननम
भाषाध
षकाभिभावक@@
बलटेनिस
पतये
भूमिरापोऽन@@
महापापात
पापान
निषत
हमयं
विनाशः
युपकारं
युपकार@@
भयाद@@
रविशेत
षिपेत
परदारान
रमार
सूनृ@@
पातकं
मीमांस
नोपे@@
शूरो
रादा@@
बहुजन
नानुवर
भागधेयः
नरकान
रियवादि@@
लाला@@
सुजीर
पिचुमन
यथाश
रमनुगच
नुगति@@
वाणम
यशत
षूत
णाम@@
पोहति
हंसाः
शृणो@@
यागतं
संविभा@@
मोहयति
संगः
नुजीवि@@
यनुग
यथाऽऽज
सविशेषं
वामिनो
निकं
यवहारानु@@
पानां
परशरीरं
रंशयति
संसारभयं
मतिर
शकृन
रभाजनं
यपापजन
लिखावः
पिब@@
महापुरुषः
यामश
वपाठं
सेवकाय
हिमालयात
वतानां
हतवान
वपुत
शिशुभिः
यागम@@
यवह@@
लभस
हससि
भावयति
शुभरात
मरतु
बहुदिनेभ
पिबाम
पिबामः
निवेदयतु
मितिः
षाणीयम
परिहासाय
सहोदराः
निवेदितः
शीलाः
रलप@@
वासितवान
परीवर
वरयानस
सुखयानेन
यभागः
रीडाम
सहाध
रोपदेशाय
वरी@@
वायसोऽवदत
यकोऽवदत
मेतत
नाथी@@
शुनकौ
विहरतः
मधराणि
रामगृहम
रमिका
रचयाव
यटनाय
विहारम
बालुकागृहम
मनोरथैः
पिककाक@@
वैनते@@
यथासमर
पदत
वारयितुम
वसनानि
मठौ
षमम
नातुम
वायुविहारम
रविशाम
बुदमालाम
बरभूषाम
रतियाम
यसचक
रसनम
शतशकटीयानम
पयानमाला
संसरणम
पाषाणी
पयः@@
समीरचालिता
पेटया
रमारी
बुकः
यमानौ
रहरन
ध-
रदीधिति
लेषस
समानाभिजनौ
समुदाचारः
वापत
हलमूढ
ढु@@
यवोचत
वृषभौ
वेषि
परितोषयिष
फलाः
खरः
पोथयित
भाराः
यमाख
रेण-
पदातिरेव
पुंसः
षिणम
रोशद
वयान
पटले
भारवेदनया
यदुक
युदीरयेत
परिभूयते
विदुषाम
रीडन@@
बहुभूमि@@
फालद
षामकण
समाविशन
वामनकल
बकसहस
रवासिना
मृणालपटली
बूनि
नलिनानि
निषेवितानि
भीमभानौ
निदाघे
वारिदेन
विकिरता
रसालमुकुलानि
युपैतु
मदावविधुराणि
नानानदीनदश@@
सावधानमनसा
वसुधाम
यायात
रजातन
रेयांसः
पादयिष
मवेक
विपणि@@
ऽत
रातृराज
यापहारिणम
येवम
मितभा@@
रसदृशप
बलिम
वोचत
मामनु@@
रमपश
नाज
यवासाः
रीयाश
रभू@@
रतिरुन
वविदाम
रयासेन
निना@@
निशीथे
विधेयम
भैषीः
यभुवि
विभासमाना
नीयाम
निवह@@
वादिनी
वाधिपत
वोन
थकाम@@
पतिपत
योऽभि@@
यायाव@@
परिषस
यिनी
उपनि@@
णीन
नूपुरा@@
लसत
वनमाल@@
हता@@
यैकर@@
वोचि@@
रसाधनैर
निषेव
नूपु@@
मला@@
लाह@@
षणो@@
लसद
सूचित@@
मीश
भूतेन
यहा@@
शंसन
नाशो
वराणां
वादु@@
रमासाद
पिशुनस
रुहाः
निगूढ@@
बिलस
रविधिः
रेलयान@@
शिखरे
रखराः
विधेहि
येयस
मोचयिष
शमय
भणि@@
षालयन
विरमन
लोमशिका
निलीना
वसः
समागतवती
निखिलम
रोडे
रुतचिन
विदारणे
सबला
परिपू@@
रसभरिता
रकटीभूताः
यितृ@@
मातॄणाम
मापयितुम
रिहस
परिमाणात
मिकीम
लौहयष
निभालयन
भारान
रतिदाने
नियोजयसि
संकटे
निधानेन
रियवादिनी
रोगिता
वसाम
रवातम
मिभिः
नाशं@@
निषिध
बालसत
सलयति
विरम@@
रसदृ@@
नीड@@
निपति@@
मृगया
भक@@
संचरमाण
शित@@
नृशंसः
विनीतवसते
पदानुगाः
सविस
याहरत
रगी@@
ऽभवत
शंसत
रीणी@@
बहिरागत
रतिमार
समाधातुम
समदुःखसुखः
यतात
वेशि@@
विजानी@@
शलाकया
शयेन
मातरिश
वजिति
पेदे
यवित
यतिष
रदेयम
नियोगक
परीवाद
सुमेरोः
रभिन
रदेयाधिक@@
रदः
शिशिरः
शकलः
रमौचित
दिना
रकिरति
लापैः
वलः
फारित@@
शरीरयात
निबध
हारान
भवादृ@@
रतारणकुशलैः
रलपितम
नीरज@@
वृणते
रीणयन
परगुण@@
वतीकृत
विकसन
यतिक
नातानाम
रादुरभूत
नवदनाम
पकृत@@
रहरि@@
रेणुभिः
वैगुण
बोधगम
विगलिता
वापित
यतरः
मृदुं
ललित@@
भूतमा@@
सरसा
रसाला
सनीरे
सवानीरतीरे
मधुमाधवीनाम
पपुञ
मलयमारु@@
वनन
लेत
वालोलुप@@
विषीदति
नगेन
रुपरि
होद
रमागतः
रसादात
यौवराज
पादपम
पुरुषैः
वीचि@@
विभूतयः
भगुर
महीमण
सरोवराणाम
रीडितम
लुः
हठमाचरति
शलाकादिकम
यकव@@
विनोदयितारम
पलायमानं
संबोध@@
यटसि
निदाघदिवसे
रीडासहा@@
षानियोग@@
षदपि
वैरे@@
वकृत
पादिता
वैदु@@
बलाधि@@
हतेषु
शरान
मदृते
यशौ@@
पदातिना
रशम@@
रहो@@
यपन@@
विभवक
पुरुषाधमः
नानोपकरणहस
टम@@
विवद@@
पितृचरण@@
नाऽधी@@
परिधानैः
भोगी@@
वमुपेत
मकरा@@
विदधद
रामताम
सोपानमार
रोदुम
रामसि
सवैलक
नयनयुगलम
यतलोचना
विलापं
षसेन
यमानाम
वैदेहीम
विगर
हयेत
कवच@@
बाणधरः
पतगसत
नितस
महातेजा
बाहून
हरत
लावन@@
सरितः
पवना
षकर
ोमयः
पीयमानानाम
वाचमपि
मनिल@@
युपाख
सनातन@@
युरिति
विषे@@
हतगाण
हिमवद
भारतीयभाषा@@
लयम
निधान@@
याधिना
सकाशम
वासिनी
पारा@@
लायति
वियति
निःस@@
रावे
रपरिवर
विगतः
नैमिषम
राशीकृताः
भूमिगर
रावयित
वकुलायान
निमिषमात
यासङ
शवर
यादी@@
मणपु@@
मृतिस
तकौ@@
रावरण@@
रावं
मुदी@@
विट@@
पानु@@
निवातनिष
निगदन
बफलाधरोष
निली@@
वनमिव
हृन
वि-त
यीकृतम
सितप
राभिः
पिशि@@
यसनिता
रणेयत
योचित@@
मोम@@
परिभवः
गतान
पतिसहस
रमुक
पूजितं
मृततृप
वाड
मनसी
षाग
वरिता
सुशि@@
रपतन
मूला
शोपचिताङ
सौकुमार
पुंसा
हीयेत
निवारयति
पिपासाकुलः
रुधिरप
पयन
नाख
विरहणक
मुनिसमेतेनास
शनक
नैवं
नापि@@
यथादृष
रसूता
सुहृदश
येयुर
षीणचिकित
रावय@@
ललवणात
ऽनुलोम@@
लोपाक@@
शरीरः
मौष@@
फलानां
सपि@@
पिबेन
मधुमतीं
धीम@@
महते
शृणुयाम
हृदा
रोऽहं
शोधयेत
संमनसः
रीची@@
सुरु@@
नातिवादी
मधुमत
सुप@@
रहीता
मपा@@
समिध
रमादमतन
मधुमती
वजेभ
शतहस
शयो
माकीं
विषो
नीयात
निदस
मातुर
रिकर
निवै
विदथे
युश
यदग
यशसं
यमुपै@@
संगमेमहि
शप@@
बधिरा
नैषा
मतिरापनेया
लवो
पितृदेवो
सुखसन
पापेन
राणाय
वासांसि
धरे@@
मानमात
मामेकं
मनोबुद
मूलमनुरक
विषयोप@@
निवेशं
रवो@@
सुतस
मदे
सोमस
मानैः
महीं
रविं
हितानि
उरू@@
मानवानां
रवतः
विभर
सश
योमन
वरूपा@@
पवस
परिगृह
पृतन
वधया
महिना
मनीषा
रेतो@@
वेषम
बचः
सचेष
यौष
समाने
हामि
मनीषिणः
विधेम
भितम
षयणः
वृषा
वीराणाम
बिराजानि
भुवे
वमथु@@
वमुत
वलसि
वलामि
बानगरे
महानसम
लेखनाय
रीडनाय
निवारणं
पाटवम
वीकरणम
भोजनात
नहस
वारिणः
भीत
मुखोद
सायङ
रथकारः
लौहः
विडालः
पचसि
वहामि
चनः
पालितः
परिदधाति
परिदधा@@
नारदः
परमः
भूतलम
पालितवान
पालयामि
सकलम
विधिम
रयौ
रैकया
पणैः
याकारी
रापादेन
सेटकद
लोकत
येकम
रीधरः
शिवालयं
पितृभगिनी
मातृभगिनी
कुमारी
षयि@@
परिचार@@
कूपात
यतिः
पुरुषेण
पिहितम
रीतम
मातरि
बदरी@@
वनगरं
भूषितम
मणेभ
शावकः
नीवारकणः
निधानम
विभेषि
षकत
पेभ
रामरावणयोः
रतिभा@@
सेवे
यवदत
पथिन
रतिवचः
निःसारित
रसादेन
भावित@@
राजाः
वणम
यापादितवान
विलिप
यापादित
विशेषम
लुलो@@
परिधा@@
नापश
साधुभिर
भिवादये
महावीरः
महाशयः
भीषणम
ववेश
समुपवेश
वरयामास
मोचयामास
रतिपेदिरे
धिकार
पिपासा
समाया@@
वादयामि
रथाश
लिनी@@
विदध
योपयो@@
वनम@@
रजाश
महापङ
समीहित
संभवति
लघु-@@
महामात
रावा@@
रदन
साधु-अच
समासादित
शिखराभ-शिखर
निवेदयितुम
भेक
नृ
परिवेदना
विलपसि
रतीपम
निलीयन
वरात
यकामः
पाठे
वातायनं
रथेन
रवणाय
विहगः
योधः
मानाय
षयितुम
विरेफः
यायामम
मुखप
पाणिनिः
रवे
याकरणम
भूपतिः
नृपतिना
नृपतेः
मुनौ
धोः
यवे
साधुना
मरुः
नायुः
वरितः
वपिमि
वपिषि
भुवनस
वेतनम
याकरणस
नवनीतं
रीडितुं
लेपः
षालयसि
वेषः
हसनं
सितुम
पातुं
रीणासि
माष@@
रीणति
विलोक@@
यमुनायाः
पादुके
शृणोमि
नैवास
रेषि@@
मरावती
यमान-
वंशकर
पौरप
याभिसन
हयमेधः
परिचरेत
याजयेत
यापयेत
यीत
परिपालयेत
रजनः
याचेत
राजीवम
हातुम
पिपासे
विनोपमौ
रूपः
रतिगृहीतवान
नावम
महिषाः
समधीत
विजातित
वरेताः
वधाकारः
मूषतः
यजावः
मूषन
मोडति
मथसि
मथामि
रजावः
मेघो
राऽस
तनिष
राऽतिष
मरतः
पचावहे
णते
रारभ@@
षेते
यथते
राजमणिः
यजते
रजतः
बोधिष
रयतः
विपदश
यैयि
येषि
यौतिषमध
रैवास
सिष
येथे
होमि
वेवेष
मिमीवहे
भरिष
बिभीमः
मिमीते
नुवम
णोति
नाकरोत
राभातिकं
निषेधति
पाणिः
संसारयात
लोकाराधन
राभातिक
सुजात
मबलातिग
संशयम
यंशः
पुरोचनः
रभृतः
यापादयितुम
निहत
नियोज
रबोधः
वभौमः
वायस
लीयम
समकालीन
रमुखाः
परिवारितम
यवेदः
यथातत
मानसैः
यवेदस
सोपदेश
मानुदर
वशिल
सेतिहा@@
वेदाननुस
वेदाङ
यवेदं
सामभ
पितामहं
विजा
शिकीमपि
यालङ
रदात
रयोगपरितोषिताः
वोपकरणानि
षराक
ौकसः
षाभूतः
षणसम
यवेश
महच
रुहि@@
विनियुक
नियोजिता
महाबल@@
वारपाल@@
पिशाचा
विनिक
मकम
रसेषु
नयो@@
रौषधि@@
शुभां
योनिं
नोऽन
नवस
विवदन
मतुल
पुराणे
यंसम
रघोः
वीपि@@
नीश
मूलः
रदारादि@@
महीतले
रोश@@
हारकुमुदोत
नादितम
षादिसङ
रतरायां
यानपे@@
रमिकौ
ततोगत
षेपकं
ययनेन
मारकम
यकेन
संचाल
लघू@@
परिचयम
पूरयतु
षालनार
यीजनाः
विपरीतं
रदूषणम
पकस
राफेलविमानं
मेलयामि
रवीणेन
नारिकेलस
रीनाथं
समापितानि
लवणी@@
मेथि@@
मशानतः
रालेपनं
मेभ
भूचणकपट
पाहारे
षुरसं
षाऋतौ
रदिवसे
षायानेन
मवीरः
परोपकारि@@
यमहोदयाः
यतिथिः
कारगि@@
रदिनम
लोकसन
रमिक@@
मातृदिनम
मातृभाषा@@
रातृजायायाः
सोमवसारः
ितवन
रमितवती
जतु
यंके
मूलदेशः
भारतदेशः
बाधन
वेदपाठः
शनादं
लोपकरणं
रसगोलकं
मेलि@@
गृहीताः
विधिवेत
रेरणा@@
शासनकाले
रिकाचालकाः
पदकं
समाचारउद
मितवन
वथ@@
ानि
षीणा
वादशैली
यकालस
पचन
मलिना
लवादनं
वायुचुल
सहारनपुरतः
सूचितवती
नीमेव
हितवान
वीथितः
वीथिं
पसदृशः
रिकायाम
शकेन
विरमति
समयम
पितामहि
बादतः
माषगर
लीयं
संशोधने
गाम@@
रिलोकीनाथ@@
रभाकरः
विजयादशम
हण@@
यशै@@
मठे
योगेषु
विजेतारः
विशालम
राजकोटे
यालयसंचालकः
दितवान
यामफलके
पेषु
रशंसाम
याचित
यवसायार
यूँ@@
वीणां
रोटयन
निषेधितवती
रीणातु
वातायनानि
ाकाले
दरव@@
ाम
रामशाहः
होलिकां
रांगः
जायाः
संजयस
पादकीयं
राजकोटं
षकाय
मसमये
सूचयिष
यंकस
रमिकाय
यातायात@@
रयणं
यानचालकस
लविद
रचू@@
भाजने
ागेषु
शीशांसि@@
नदीत@@
सहसे
याधिम
कोलका@@
लिकायाः
सेविकाम
वापय
यानचालन@@
षिणभारते
अवतार@@
रहारे
सामवेदं
दीपे@@
फलकानि
सुखमयी
वैदिकशिक
विहो@@
महिले
रिशतं
नादिकं
यानचालने
नूतनां
नवसम
नवजातं
ाजगतः
मूषकस
नागरिकेभ
नामांकनपत
लिकायां
हरिहरदुर
सारणिम
निषेधयति
बिभीहि
पंकजः
षीणां
पंजाबस
पंजा@@
शासने
नेतव
राहकेभ
वीका@@
रसनिष
पनवे@@
शरीरात
रथमवर
षतविक
पाठशालायाम
मिलामि
पारसः
यपुरुषाय
पुरातनानां
पूरिकाः
यापयिष
शाटिकायां
रागम
मनिरीक
षकरूपेण
वविजयिनी
यजनस
मतदानम
वालितवन
साहे
मेलयित
नदीतटं
पानीपतं
ितः
सोपानैः
वादितवान
वीरेभ
मोहि@@
रपाठं
याता@@
राजपूत@@
शीतिसहस
लोकयानम
सीमापारं
रिकाले
राणानाम
पराः
रुमाः
विरामार
शुनस
कूटा@@
षासमये
षोटं
वकीयेन
मचित
यकणिकाः
वातावरणस
रेलकोष
शिकां
रसदृशं
पाकशालायां
लेखापरीक
वनति
शकटे
यांगः
मातामहस
सूचयेत
नामफलकं
मारितवती
सिंहमहाराजस
शाक@@
पायसस
विवृणोति
षिणभागे
युतकस
समानं
सारंगः
विराजिष
रतिरविवासरे
मृगात
भोजनवेदिकाः
यातनां
सीमां
वायुसैनिकाः
वाचो@@
यनानि
विकारः
विदेशतः
भोजपुरी@@
वैधानिकं
विभायाः
विवादेन
विशाखायाः
वदति@@
यूतात
माणाधी@@
वीरसावरकरं
रेषितवन
वीरता@@
बाणम
रगीतं
परिधानं
रयतन
पतितवती
निःसंदेहम
शीश
पमेव
शशां@@
समापनं
नयेत
हिमशिवलिङ
पदेषु
रीहरि@@
सदने
वभावं
लेखनीया
मंगलकामनाः
मिलिताः
वरुचि@@
यानपेटिकायाः
रसाद@@
सूचनाः
मातृभ
वाहनस
षेपयुक
सरलः
पदवीं
संतुलनं
रिकाचालनम
वदध
सामाजिकं
रिकातः
सोपानात
सुजितः
सुधायाः
सीयः
संदेशं
भारतीविद
सुबो@@
सुभाषः
सुभा@@
रनामं
याशि@@
वराज@@
वराजः
सेविके
षोडशविद
मतयन
वाधीनतादिवसे
लिंगायतसमुदायस
रहितार
पालयामः
नागरिकाः
षालयितुं
सुभाषितानि
भोजनसमये
वाचनायोगः
षभावेन
वजा@@
समराङ
शितवन
रतिमासं
हरितानि
रावयिष
नवान
मनं
समपि
भगिनीं
परिशीलितवान
सुधे
नाटके
रवासं
मिलामः
पाठनं
सामूहिक@@
रयोदशवर
बालानां
रमुखा@@
विजयनगरे
ववेक
रमायाः
ययाः
सहोद@@
पठनार
वाणीद
निषादरामयोः
रसारः
बसद
मीटरदूरमस
वरुणारेलयानं
मेलापकम
टालिका@@
यथाकथमपि
परदेशे
याणकारकम
वाचनालयं
सुकरम
भोपालस
याचनां
रमया
सुकोम@@
नेहं
यापेक
सकलाः
परिशीलयन
फलोद@@
साधने
शयं
पैतृ@@
षभ
मधुरेण
रासं
विभेति
नाभूत
सुहृदां
कपी@@
समूहं
वपुषः
पेः
महाकालमन
सकाशा@@
नेया
याचमानः
याचिष
पठिता
पाठिन
लिखतः
लिखामः
रातरः
यासकारः
मूषकाः
वाहनं
वदताम
परितस
शिलां
मिदमाह
रटतः
संवरणे
परिभाषणे
संयोगे
रभिवर
मोहे
संतापे
लवने
हानौ
हिंसायाम
भरणे
विलोडना
षोभे
ायाम
रतिघा@@
रविनामे
लेपने
रियायाम
वैचित
शौचे
विजुगुप
रतीव
सुनुते
मेताव@@
सानुक
नामो@@
वनत@@
शोचनी@@
वीरप
रसविनी
मलङ
रियता@@
वनदेवता@@
ैरा@@
विरोधिनः
यहृदया
मरणीयमिति
रकृतिपेलवा
लेखमात
शमीमिव
नारिकेलसमुद
शिखामज
वदाम
वहतु
मथुरां
सेवध
महै
पठनीया
सेवकेन
पततः
पुरातनी
राधया
वसने
भमन
रुदित
हरितैः
मैः
विसृजति
रितवती
रोपणम
सहवासपरित
रसूतया
विरतानुबन
विषमीभवन
रियेण
षापि
लौकिकज
याऽसि
भूयिष
रूषस
मलयतटोन
मूलिता
पिताऽस
सहचारिणी
विशदः
रजको
बटुं
मधुव
रजक
मुहुस
सधस
सुखिन
बहिस
मदीय
वृज
लीक
रजनी@@
योतिस
शोणित
यिन
बदरी
पौर
नार@@
लिह
वाजिन
भागीरथी
परिवृ@@
यंसक
विषाण
लोलुप
फणीन
रुज
मनुज
पुरातनस
पठितवत
वसहिष
रासादे
यगच
सघृ@@
समरे
नीडानि
शरीरा@@
लाघवम
मेदसः
षातप@@
शाटीम
जलार
संजानताम
वनेषु
पातयन
यवहरिष
रणमन
पादपानां
पुरीषं
रतानि
मनोवाक
रुमत@@
भावयामि
वाचैवमस
ैरविरुद
रागभि@@
संरो@@
वमस
मिञ
वाऽग
संयोगा
शोणितसन
वैषम
यनिमित
वंतो
फलमूल@@
रसादयः
रादयः
पतितानां
रहणात
सविंशमध
यायशतं
यापये@@
याऽग
हवेषु
शनेषु
वारिंश@@
मृतकल
वियच
लवण@@
षसाः
भिरक
वहि@@
वेदास
निमेषः
वसंतग
षाशरद
वसंतः
षधीनाम@@
पां
वमव
युपदेक
षमुपस
निधा@@
योरापीनत
परि-
मंदोष
माग
शीतप
भंगो
विकाराणा@@
वमुप@@
होद@@
रांणा@@
समोभयपालिर
यदीर
रितो
लिरितराल
पपालिः
संधिकः
शोणित@@
रंथि@@
रसां@@
षौद
यादुष
सोः
मधुकं
सुसं@@
नाडी@@
सौचिक
गोला@@
सभागारं
विहगा
तालं
विहारं
बालुकागृहं
यजीविन
योजनानां
पादयोर
दशम
पेटिकायां
ललाटे
षमया
विकट@@
निवसत
मानवा
नीडं
नाशिता
सरित
सलिले
रपत@@
विविधैर
विंशतितमे
वयसि
फलि@@
भारतीयज
पुंसो
वानन
विचलति
योतिबा@@
रयासम
मापन@@
रायच
भोजनमपि
लोभं
शिवास
रिशत-सेटकमितं
रमक
रियमाणस
विभूत@@
यु-
हंसा
हानिस
यमी@@
वतमस
यवादिन
मूषका
येनो
सिकता@@
सोपान@@
ढुं
मोऽस
मीलितं
समाचरेद
विभूषितम
गेश
रथो
राणवायुं
रतिपादितवन
-पर
नगरमध
रपश
रमणीया
रमित@@
भयात
भवतोर
निधिर
मनुभवामि
सुरभि@@
मितस
नावसीदति
फला
मनुव
समान-शील-व
षधम
विधं
समवेतस
मेकां
यायाधीशेन
वमिति
पटु@@
परैर
सदाचारं
रमिता
भैरव@@
विनाशम
भवितासि
पैरपि
यावदे@@
मानवस
सुखदुःख@@
विगतस
भयक
नुन
शेषतः
मनसै@@
रनय@@
रवाप
रेयो
यागस
यमन@@
वमिष
समलोष
यनिन
मोहाद
पाश@@
शतैर
रदाः
मनःप
मवज
यासप
रसादा@@
वाने@@
वानुत
षाम@@
नामङ
मदेशः
पाठाय
मधुरेषु
भोजनादि@@
बाङ
रिणी@@
युच@@
लादीन
विधेया
यकारि@@
येवमेव
भिः@@
रुपै@@
रादयो
भपि
रीते
लाभो
लाठ
भाषास
भवेद@@
निरोद
मठं
मूलाधारः
वधं
सवाः
लादयति
रकटी
विधेयः
भोपाल@@
रावणमासे
येक@@
वासरे@@
मेलाप@@
भोपालनगरस
रामी@@
मूकः
रहिताः
रचितः
रजासु
यदुःखिता
विवादाय
बालच@@
शासकः
शमयतु
षाण
यूथम
वतीम
रहारो
वाधतोयाः
नियुङ
रहसि
मुपविष
रणीतम
रमुखे
पानात
विपच
षयते
वासश
सुखदुःखयो
विपाकात
निरामिषाशी
हमेवं
वीतरागेणेदं
रायणमध
रैकमत
लिखतम
वेत@@
भावपि
रागतः
नितराम
हालाहलं
रसादयति
मानोन
याधस
समुचितरूपेण
समीचीनतया
समागता
राजकीया
येऽर
यायतः
रणिपातेन
यजनेन
भवद@@
विकीर
रयोजना
याधेन
वधान
रीवेण
भिगम
परां
नीतिकुशलः
निपतितः
रहाणां
नवृत
रमाभ
यजूंषि
विधेभ
मदीयः
वनिकषग
रावा
वाङ@@
नादत
षव@@
सेकम
समारोप
रहणाय
युवान
ेक
शोचा@@
विजित
सहिमः
वारिधराः
सलिला@@
महीधराणाम
शिखिनः
मृगेन
युपैति
संयोजनस
वापेक
विसृजतु
मवादिन
विकाराः
यापृतः
निःशेष@@
परसदननिविष
नाशयेत
पादपस
वतसन
परितो@@
रयाताः
रमादात
नवसलिलेन
रमधु@@
भावयस
रुवाम
भावय
भाम
रुदिहि
मृच
खेषु
सनातनानि
मदीयाः
रकु@@
रासेन
वचो@@
बलयोः
सुभ@@
पदवीम
समीहते
रूढो
मेदि@@
षमन
निमेषानन
रलायेथाम
समाचरितम
रमुप@@
मुपगतः
यमागतः
शिथिली@@
पके@@
वितीर
सेचन@@
सारि@@
भेन
रसारणम
शवत
भिग
भानी@@
समचे
रमानय
वयाऽस
योस
साचि@@
मेतेषां
यञ@@
शदानी@@
शौष@@
निदानं
निदृत
नौकया
भहन
नाऽत
यकता@@
मासनं
यसदृ@@
भघ
चशतानि
समयो
वरकृपया
पभा@@
लला@@
भतिस
वमध
मुखो
सदाऽ@@
लादि@@
बुकस
यूनाः
निवारणा@@
यौषधम
भयन
पापिष
भृणु
येमे
भच
वादनु@@
महन
मृगान
रुरु@@
येने@@
पिका
सुवाक
यबद
फणी
मधुम@@
षासु
सुच
ममो@@
मातुलुङ
युचमानि
रङ@@
पाचयित
रशंस@@
यैकत
मिमी@@
सया
भुशुएड
शिरश
मोदनं
सेवनीयौ
भरः
पतेत
सोड@@
वयाम
वितानि
वारु@@
भयम@@
पषचशतानि
मेलितं
शतत
वणि
शनीयः
मानेतुं
मसत
रयोगेण
विषवृक
लौहेन
ऽश
वाराणासीं
लिखिष
रयागे
यमुनयो
संगमः
नागरिका
पावनतटे
लीनगरं
मंगलमयं
रमेम
लसुनम
महामरीचिका
शिखा@@
रगा@@
लूक
वशु@@
र-व
नासिकाया
सीतामढ़ी@@
बेति@@
योगासन-समये
री-मन
सकलः
मदेन
वापयामि
बूकं
बूकस
रदी@@
वशिरो@@
यामलवणं
पालि
य-पदार
लोकेशस
नाटकम
योगदिनम
रासनं
धनुरा@@
पूरितं
लयन
पीड़ितः
बहुकालपर
रतिमाम
रोतः
सहायकः
र-कुत
रमतः
विहीनाः
नविपत
रतिसोमवासरे
संदीपस
तेनास
भीमेन
नड़ियादे
समाजसेवां
वतीनगरे
नडियादं
परिणामं
पादयत
मुखपटले
विदेशीयं
यायिं
मफलं
सरस@@
मधुर@@
सुदृढ़@@
फलाय
विधुः
फलेन
पाभ
शुभ-@@
भूरिविलम
बितो
बीजानि
रवास@@
भूयात
विहगानाम
नोल
सदाचार@@
लतायाम
रसायन-उद
मुखावरणं
सारणीम
वितरणं
राचीना
लताभिः
लिनीं
वसीत
सुविधाः
नोन
भयान@@
निपातेन
लतायां
शशांकः
षासममस
विमानेन
रीणामः
रुचिरं
पठाव
परिवारजना
बीरफलं
रभेदः
बृन
शिखामूलं
वनमुद
मिलाम
पीबामि
ामि
भवंतं
हिमालयं
निमपि
बालकः@@
मीकक
लेखनार
रीडनार
शीते
रमाता@@
वसृपति
पितृप
पितृष
योषित
पिवामः
वटुरूपेण
सखायः
शरीरमाद
णति
योपवे@@
यमावहत
हाणां
याणमन
भीषायां
रीतसिंहः
पणीयम
नूतनहरितान
युदयः
रविज
नियं
विधेयकम@@
षदली@@
रशासक@@
विरतवेतनाभि@@
पोषकाहारन
यवैज
विमाननिलयाय
वादौ
लोकपाठं
शुभकामना@@
शकुमारमिश
राजनैतिका@@
सामाजि@@
तमिल@@
महिलाद
मृतिमुपगताः
फोटकनिर
वः@@
शालाः
वीपाः
भारतीयसंसदि
पालिता
हेतुतया
यूनीकृतम
रपौदे@@
रथमश
रेणी@@
निशमन@@
ऽसीत
परानन
पदमलङ
याविषये
अलौकि@@
भारतीयभैषज
वीपं
रो.मुरलीमनोहर@@
षपदमलङ
शोधविभागस
शिवशङ
रतिषेधकार
१,४@@
६५
शितानि
रचारणानि
षानीति-२०
यनुसारमेव
संयोजनं
बैडनस
षुचित
मनसमये
वितरणकेन
भारतजनसंसदः
रथमचरणं
होराः
वायुमलिनीकरणेन
वाससम
विजयकुमारगौ@@
२३००
९८
नुकूल@@
रकटितवान
य१५
५२
विमाननिलयं
शरणमन
रितानि
भारतमभिव
वचषक@@
याधिक@@
यूततया
वितीयवारमेव
रणरेखा@@
नामद
संघः
यालयीय@@
दशम@@
रतियोगितायां
वडो@@
रविवास@@
महानौकाकर
देशि@@
रतिकूलवातावरणमेव
वाचनायोगेन
यवहारनियमः
रतिदास
राजधा@@
पटः
विकासे
निकोबारीत
यदीः
बनुं
पचतः
यायामान
वतेष
वसमये
रतादिवसः
रुवरी@@
विंशतिदिनाङ
रादयश
मातुलगृह
पितृभगिन
अनुभू@@
यालयावकाशे
मानप
राजनीती
वतारोहणं
यजीवं
यजीवः
शशकेन
षयेद
यथाशास
मोपदेशविख
विषादप
यमृतं
ऽरण
वपुरा@@
रूपयौवनसम
विशालकुलसम
याहीना
रेः
वरमेकः
ऽऽलम
यैकोऽपि
नाशिनी
सहायास
यूतेन
पथार
सिंहादेकं
वायसात
यासंग
वामिभृत
हलस
लगु@@
रतिलो@@
मौषधम
षरवर
मलया@@
भाषान
राणाम@@
पय@@
नवीतोयं
वनवास@@
साहता
यसनानि
यदी@@
सुसिद
मौषधं
मैथुनम
मौनेन
वजना@@
यमहोरात
नीचस
विपरीता
यधो@@
यगः
रासनसंस
रासादशिखरस
मीकर@@
वदेहिनाम
नाधीतं
रतिमा@@
रपदं
मनुरक
मुकुल@@
विजयते
वहं
फुरद
राणाधि@@
सकलसिद
पाम
सुरासुर@@
विधू@@
यानास
ोद@@
मेदुरं
मुपास
वचिच
यतिकर@@
हेरम
नापूर@@
रपितामह@@
नुतं
रुतिस
युदितं
रवीन
रोधो
मुदितोऽ@@
यशश
यशो
रूयान
रादपि
भूमिरुदकं
रहां
पतिरेको
रियाणामसंयमः
येनेष
रावरणं
रामरवत
यामर
ममाचरेत
शोकस
शतानि
वदारे
यूषं
रोऽत
नवच
षमेव
वेदिवे
परिभू@@
सरसि@@
सरोज@@
लभाम
मनाद@@
पितचित
नामसङ
मदङ
पाणौ
रसज
रचन
षसां
रिकाम@@
माशा@@
वैभवस
मतो
मृतवन
मधुरि@@
हरी@@
निधिं
रोदिष
नीर@@
रली@@
तटी@@
वाटी@@
बाध@@
षानन
वारविन
वेणुवादन@@
पदाभ
बुजाभ
वा-
षिञ
लि-
नवि@@
संजगौ
वेणुना
निगम@@
भवनेषु
लवी@@
निबद
होऽ@@
मणहिताय
यमौ@@
नीलरत
भाराव@@
वंसन@@
रचितं
यितम
विरहेण
मुखाद@@
भीमा@@
मणे
रिताङ
नीभिः
पुराणवाक
विजन@@
निवासे@@
शतै@@
सुभग@@
यये
मुता@@
यमतः
विषवत
सारवेदिनः
सुरादि@@
विमृग
वमप
रिधा@@
रितयं
रणतोऽस
षवः
मलोके
विरतो
नाशान
विनिवृत
हेव
होति
नारायणं
यामव@@
मितीदम
योऽष
बभूवुः
मोऽयं
भगवतो
विहारस
यूनां
निधन@@
वगच
वासौ
सकष
शासनेन
यतीताः
पारावारः
पादानां
वलं
रभं
रपुरोगमाः
रुमा@@
हरते
भीषणं
वेता@@
शिंश@@
विनिवर
रतिदि@@
मते@@
पादप
याहू@@
यताडयत
महता
रगु@@
सहिता
माधिष
रसूय
रोऽप
लोकश
रगात
नेहस
योपस
मधूक@@
विदाहि
पृथ@@
वायोः
वयथु@@
रुचिप
रलेपः
यामनु@@
याधरा@@
यगी@@
पृथग
वास-कास-
षोभ@@
दको@@
ललवण@@
वासयेत
निरू@@
शमूलि@@
नागरं
षीरपलकल
भोजि@@
यकटु@@
मधुरस
यायामो
यासन@@
हेतुलक
यतेऽर
शसाम
विते
ोपा@@
सगुडा@@
वाऽथ
शये@@
भृष
हरीतकीम
युतां
विरूक
षणकाल@@
बाश
पलैः
मसूर@@
यादम
यवागू@@
नवः
वायो@@
बलवृद
साहो@@
निहेतु@@
नामयः
वादीन
पीता@@
पूत
शृतम
योगाच
वासितम
मदृष
रपाद@@
पनत@@
येज
मपर
नुसारतः
समीपतः
रीतटे
परिकरं
समालिङ
विशालाक
रिवा@@
रुतमुत
सीनं
रथे@@
भीमविक
भयः
पुनरप
भिरावृ@@
मायामानुष@@
वहषेण
बूनदप
मृगोऽ@@
राममभ
सीताप
सुरः
मालोक
राणेन
रामेति
निभम
भूषणैः
रमनिशं
मीड
निलयं
विमुखे@@
भवजल@@
पोतं
परधन@@
मितरुचि@@
सुरराज@@
वमिह
सीतान
वेषण@@
यदृश
परिवहष
वाचे@@
लोकम@@
राजान@@
वाचाम@@
लेऽ@@
राममालोक
वासने
सहानुजम
रकूटाद
यागमनं
मिनि
षेपाद
येऽहं
वचसां
शीलत
यमूक@@
मनःस
विनयावनतो
मब
पालनाय
परौ
रूपि@@
मणोऽ@@
यसंशयम
मथा@@
येतु
भयमा@@
यातौ
हनूमान
महता@@
वब
रणमेव
रामरामेति
महाकायो
महिषं
पातयामास
पादे@@
रमसन
हमप
षिपत
योजन@@
भुतमिवाभवत
मनर
पादभक
निरतो
पीन@@
वायत@@
रघा@@
भयविह
पाणिभ
मषैः
लोभमो@@
पृहा@@
रवह@@
यथासुखम
पूजिता
नानारत
योगमास
वरवर
विंशतिः@@
हैदराबाद@@
शीतितमे
राविशन
परमाणुपरीक
निकोबारे
सेलुलरकारागारे
रिटिश@@
रतापेन
सेवाभाविनः
पुरुषवेशं
मुगलसैनिकैः
सेवाकार
रभामहे
ाली
शावकान
विराजितः
सालयतः
कारणा@@
संकायस
शततमं
यतनानि
मूलिकाम
सेवफलमेव
लाहौरस
रासनृत
राणाहुतिं
लावनेन
रसिताः
नानामेव
वीपम
भारतीयस
परिवारजनेभ
रचुरं
षिणभारतीयं
रचनीयम
वशुरं
रेषिताः
पीठि@@
ायां
यागं
षिपाणि
रमणीये
भूभागे
रेल@@
रेर@@
नैकवारम
वंशीवाद
मलिने
याशीनां
रसाधनस
वाताय@@
रपुषं
मलनालात
नलकूपात
रमांकः
रपुषम
वीकरणीयानि
षाखण
यकणिका
नुसारमेव
लघुआपणेषु
षेपकम
षकक
नुदति
मेदसारः
हरितिमा
विमानचिटिका
वैदिकसंस
पाषाणाः
नखाः
रपितामहः
मोदः
फेनकेन
सोमवासरस
वासरस
वेदनं
रिषष
शनीयं
यापितवान
भिनद
साल@@
रीयानचालकानां
पारयित
यशोगानं
निशायाः
रहारं
शीतयष
नवशतं
पाठन@@
मीलितानि
ागं
पथिकालये
मदनलाल@@
भवेयम
महानगरे
वादुफलं
शीतलेहं
मुगलशासकः
रकाराणां
षालितानि
मारकं
बयामि
शावकं
पितु@@
मेरस
वायनाडतः
वालुकामयं
तितमे
संगीतानुसारं
महिलां
मामि
मेरठतः
पाठान
सूरततः
योगध
लघुमीनाः
ागस
वधूश
पूरितवन
लेखां
षमतायाः
विभे
बिहारस
वीरविनायकस
सावरकरस
मारयितुं
वनेः
शताधिकानां
वचनपालनं
गमनाग@@
यतीयते
रणकक
पलाययितुं
वंशति@@
भाषाभ
संवाददातृभिः
सशङ
लाभाय
वादशवादन
रेलयानानि
सरलतया
यापयितुम
सुपं
विशतम
सेनां
रेषणीयाः
राचीनभारतस
संवेद@@
महाभा@@
मनेभ
षेपणीयानि
लोकहिताय
याचारं
मरीचिकया
पेटिकां
वारद
यमानायाः
फलचित
बिहारघट
सिच
शुभो
वाऽऽप
यातो
रीबाबागुरु@@
विरचितं
वयतु
नागतवान
नाणकं
निमेषान
पठनाभ
बहुभ
विदेशेभ
रभाविताः
रुनगरं
शिनी@@
लवणमेव
भवतीं
वायुयानं
कपिल@@
राणवायुः
बारबारं
यालयपर
पराधीनम
रोदनं
राधां
यापकेन
रावणेन
बहुमन
मीरेभ
याकुमारीपर
ैक
लोकहितं
रोशे
बोधते
बोधसे
बोधति
बोधसि
रविश@@
यथाऽहं
पराद
ऽवलोक
लया
यैनं
यावदह@@
पयामि
षितां
रियंवदा@@
साधारणं
परितोष@@
येतस
विरच@@
याऽभ
अमे@@
बाहुभिः
विषयो
वजे@@
युगान
वरता@@
पितरमाश
पीडितं
विरहितं
वितन
रुदा@@
मारु@@
रसूर
नगैः
पवनात
षमाणस
वेऽर
नेतुः
रसाधन@@
मालोक@@
निकृत
रविभक
दिसं@@
याधीनामुपशमनार
वांग@@
षोन
युपसृष
शमनार
रुतो
भयां
षाराग
रणिधा@@
वैविध
विविधः
वाभावि@@
षविषा@@
संशोधन@@
हाराचा@@
संम
पतयो
ंति
यसमू@@
मिंदं
षीयं
पतित@@
यमुपा@@
सौष
रमकरं
भवेति
रिविधं
पयितव
यंगुलं
परान
यदुत
मुनयो
युतः
बेल@@
वताम
परिमोक
ररु@@
णश
षिणे@@
सरो
पचयप
रकोपो@@
षमिव
शाच@@
सं-
मेदः
यवनं
बीजार
षामति@@
वमल
फिग
भि-
मैथुने
धरो@@
नाशश
रव-
रयोगो
नामाभ
मितै@@
पानाभ
षेये
पिपासाक
बलवंतो
बंध@@
वनाम@@
रेवा@@
शोफ@@
संदध
वगंधा@@
लेष@@
शेषं
शोफता
ऽल
शृगालं
पाठेन
यधिक@@
लंकृत@@
षीणो
माना@@
पादने
नेऽपि
निहितं
मासानन
हीत
सूद
वयाऽ@@
निबर
बलत
पीडा@@
सभाम
युदं
पगा@@
बलवन
भवज
वसेयं
संयो@@
हौ
संचय@@
ेम
विशेषान
योऽत
रोगम
पापम
यटका
सुदूरेभ
नगरिम
संतु
समुपासका
हॉकीक
मोन
योगदानम
षकदिवसे
रतिमां
वतीनां
भारतविकास@@
नादिनम
राकृतिक@@
लजनानां
योगानां
रतिमं
वाधीनताया
सैनिका
वतश
रृंख@@
विचलिताः
यवे@@
भगत@@
वाचिता
परिवारे
भवामः
आदरणी@@
सकम
शासनस
वमतं
बोसस
बलिदानं
नशीलाः
एता@@
वीरांगनाः
शाहं
हेल@@
रुपेण
लालः
वाजस
रमुखानि
महिलानाम
यकाले
नमामः
भारतीयभाषाणां
पीडां
येकः
रीणयितुं
विविधभा@@
मेललेखया
मलयालीगीतं
पादपेभ
रापणस
रबंधकः
संरच@@
सदुपयोगं
विदेशे
महाभागाय
ताज@@
महलस
सविदः
माता-पितरौ
रेषयितुम
यूनातिन
रमेहः
वेदपाठिनः
सदाचारिणः
विकारान
संततिं
वतीये
रिकेटविषये
षेपणात
पुनरावलोकनम
बिड़ाली
दृढ़@@
विशत
विदेशी-@@
भूषिता
विदेशीयः
यूनीकर
बालतालतः
वपि@@
वायाः
बितवती
यावरणसंरक
सव-@@
रभावान
समाधानं
यादोलने
विषयम
सुभाषि@@
लौकिक@@
हिमां
रपशवोऽपि
विजये
लाऽ@@
ऽS@@
शाखि@@
माकलय
यावद@@
मियेष
यरण
मारेभे
बहुसंख
बाबरस
यानगरस
मभूमिस
मभूमिं
नामकोपग
विजयकरमभवत
येत@@
रमेस
रतिभागिनः
भवदिति
याजरूपेण
येषः
रगतिः
वासकोश@@
वेदने
रीयन
मनुभू@@
६४
रयेल@@
पलायनं
वचषक
परायां
नियमसभा
रकाशितानि
रवातावरणमन
नियमाः
भीकरसंघटनेन
बैड@@
फोटन@@
राथमिकविद
मभिव
रसख
रयेले
मेघविस
फोटने
यौपाने@@
महोदयैः
सहायकप
यसुरक
रसारितः
विहितं
विरामानन
रवासरस
युषसि
यीय@@
राजनैतिकदलानां
हेतुत
वादेव
कनपत
रचरण@@
राजनैतिक-@@
याकरणपरिप
मविमर
रमोदकुमारशर
ममहोदयो
बहुसम
यातवान
शनादि@@
षभ@@
वरतं
शालासु
परिशोधना
रिकाप
मतदान@@
रकरणान
यायाधिपानां
भारतीयपरम
रमणपथनिम
रोपरितले
भारतमा@@
परागत@@
शोधकेन
रीनगरगढ
वालस
शनकेन
तिथिरूपेण
महोदयाः
बोधितम
मणिपुरे
लैङ
याजप
वकार@@
भजे@@
षदलैः
रजाप
भौतिकशरीरं
पणाय
आदर@@
सूचकत
वकारीयकार
षरी@@
७३
लैफ
नामिकया
रयेण
लासु
भागात
विषयेऽस
वयाभ
रवाते
फुक
षिमा
वीरतास
वैट
यमभवत
होरा@@
४.४
रणामं
सामुदायि@@
पयितुं
नाडु
सेतवः
वलौकिक@@
भारत-कानड@@
वाषिङ
२०२१
यमानायां
रमाणेन
नमासीत
पथसञ
भारतश
नाटकानि
सौहृदं
मधि@@
भवेयुरिति
भारतविदेशकार
ययनस
सभामन
इतः@@
सदनम
विभागानां
मकरो@@
रसमूहस
नूतना@@
शिखरमे@@
नगरम@@
वाचनानि
षणपेटकं
रमनामकम
मदाबादस
१९९०
योजनया
यादिति
समादृतः
रविपण
पुरातनवस
यजीविसंस
वमावहत
योगदिना@@
विभागप
रमुखेन
संयोजकेन
पारौहामहोदयेन
वाचिकं
यालयपरिसरे
भूगर
रायेलेन
रतियोगितायाम
थाभ
पदकानि
भारतेषु
नेयिल
ोट
नामान
वैराणुव
रसारिता
सुदृढं
पालनीयाः
महतीं
भूमिकां
सकुशलं
सिटी@@
राजकीय-महिला@@
पूजनस
षूणां
,०००
२०१४
रसंघटनस
नसेन
वियोगे
समापन@@
शिताः
रभावम
नावशिष
लोकसभायाः
यायालयं
षेपान
पनानि
१८०
षवार
भूचलन@@
मनुभूतम
षरेखा@@
पूजनी@@
महाश@@
वाहनव
षकाधिरिभिः
रिगुणस
मपुरस
निबाधा@@
यजनानां
मलिनी@@
वमेधया
ययनफलम
रिकायामेव
नैकासु
यशासनस
निदेशकत
तेलु@@
रवेशानुमतिपत
विदेशीयानां
रजलवितानवर
मनोहरदृश
पानेन
३५
योगिक@@
वीपानां
सोपानद
रानुसारी
रणसंस
परिशोध@@
संगृहीतम
यनसन
विराजमानः
शिलायां
२००८
यापितः
रयितुं
याहर
नामकवैराणुबाधया
नामकराजनै@@
५५@@
८२
षिकानु@@
रकरणस
शिरोवस
वजनी@@
भारतीयवायु@@
यशपथं
३७
यसञ
विदिवसी@@
य-राष
रियसङ
बहिराकाश@@
नविभागेषु
षाणा@@
विविधजनपदेषु
मकाल@@
सितायाः
ययनफलानि
नागालान
रिपुरा@@
पादलेन
रमिति
माणमारब
रीडाङकणे
हन@@
रसारितम
परिशीलनं
आकाशबा@@
रुवस
समानः
नैके
विषयक@@
नवाध
नूतनशिक
रियतां
पाठकवर
यातिथि@@
वाचार
वतातिथिरूपेण
महानुभा@@
वकुल@@
नविभागस
भूतलसभागारे
नामनन
रेनस
लादिमिर
नमभवत
रणय@@
सवे@@
बहुकालं
षमं
पदनिर
षके@@
षिकवि@@
भागेन
००@@
रालयं
वकारीयविद
सादृश
संशो@@
सवकार
टोरियल
वैराणुबाधया
यूनीकरिष
नानाप
लुरु
पबाधितप
परितलात
विघटि@@
वभागे
रथमक
नूतनतया
यायाधि@@
सिरियेषु
भवनानां
वायुगोल@@
निबाण@@
मुपयुज
रसंरक
सेनया
वायुगो@@
२०२@@
परियोजनायाः
नराज
रेऽपि
वारापि
षिक-@@
मकेन
यभावस
रतिवार
८०००
रिमोपग
रकाशयत
रपितुः
मदिनं
राजभाषारूपेण
यजनेभ
यापनवृत
परिशीलन@@
रतिषेधः
१.५
सिङ
विमाननिलयस
मरणमानं
रकाशितस
विमाननिलयात
वाटं
विदेशराष
६०००
शायां
बहुभाषा@@
रोणा@@
फेडरेषन
नादारभ
यविशारदाः
सरेभ
रकाणि
पीटेर
भारतमागन
परिशो@@
यकमिति
मनुभूयते
पौराणां
पुनःस
रतिगृहं
राजनैतिक@@
वादप
षाङ
पतिनियुक
षनेता
नानायकः
४तमे
शपथविधि@@
पदीयाः
सहमन
रिणश
वंग@@
थानमा@@
दूरवा@@
शासनपक
शासनपदं
पतनम
साराभाय
होरापर
२०१@@
षयोः
सेनग@@
रियाध
९३
रदेशेन
रथमसोपाने
संघाः
येतौ
रूसदेशस
हिमपट@@
रोगस
सिनी@@
यौष@@
रतिषेधं
रशासनस
वकारं
२२@@
समयमनुसृत
पारितोषि@@
वरखेडी
सेबास
येऽस
महाभागेन
निमेषं
नोय
विमानसंस
यिभ
राजनैतिकद@@
नैजी@@
रतिरुद
नैजीरिया@@
पूतिरिः
माहा@@
माधवस
मुरलीमाधवन
परिचायनं
वाभिलेख@@
२००५
रावे@@
लेखाः
सीमनि
वासिनां
वीक@@
नीतवन
रनेतारः
विशेषण@@
मीथै@@
सैड
परिमाणः
रनटस
वेनैव
भारत-पाकिस
सायुध@@
याकाशवैज
रतिसंवत
रोहणानन
भवच
येनं
ययानि
निधाने
षनिर
वाचनसमित
मतदानपेटिकाः
मलिनीकरण@@
मलिनीकरणमानं
इट
परिलसति
रावणिकं
नोः
मकथाप@@
७४
लभाषायां
२०००
निबाणः
हिमपाते
वतारोह@@
राजदूतः
सरकालः
शुचित
र-कर
मकर-@@
रादेशि@@
आराध@@
लयात
योपचारकर
पोण
विविधराष
रतिवेदितम
षकालयाः
नातन@@
८६
सुविधया
पटे@@
यायालया@@
भारतविरुद
पुटे
वेदिकां
सायां
वकाराय
यापनमानं
३४
भारवाहकनौका
रोपणावसरे
पेटिकाः
रिकादेशस
हीरकः
रादेशिक@@
रमेSस
भागभाजः
यविश
रकाणां
मनावसरे
विशेषवार
विघातः
रैति
मारितवान
फेडररः
वाविंशे
रवण-@@
सैनिकवि@@
षेपणे
वनमेव
भूषणः
रसारिताः
रेमिणः
याः@@
हाम
रतिकू@@
राजधान
नामकरणं
लाना@@
रकाशितवन
भूमिका@@
रोगमुक
रोगबाधया
शताधि@@
सेषन
यावरणविभागेन
बयी@@
रभेदान
विमानवाहिनी
१६००
रवातः
नोबल
षेपचक
यायाधिप@@
ललितः
शपथवाच@@
हुसैनेन
भूतानामा@@
निजी@@
सहिते
२६००
रीकरोति
यनमनुवर
विसापत
सापत
षरेण
मरिया
यः@@
रायपुरे
संगृहीता
रथमवारे
रतिषे@@
७५०
परिधौ
यपरा@@
रुवरि@@
मुकाश
वहणं
शालिनीदीक
पाठनस
याकाशे
वरितप
रतादिन@@
नामभिः
लौकिकम
लौकिके
पोषणं
रमणवेगः
रमणपूर
१.@@
वितय@@
रजतपतकं
मानितवन
मालिकः
बानासुरासागर
यादिकं
माकं@@
महानगराणि
मिकस
वानरस
हृदयमपि
रमुदि@@
भवा
रतायै
षितानां
यलम
पशुपाल@@
वायुयानात
युगं
शृणुमः
मानव-@@
रीरामं
षेपणीयम
सैनिकैः
मिणः
लावनस
रविशामः
बृहदापणाद
रीतोऽस
सटल
वजारोहण@@
वाधीनतया
रगौरवस
मकरा
रीशिक
षा-आ@@
सहायतार
पुणे@@
विजयया
रीशिखरं
रगृह
वितीयाविभक
रूपाणि
यूनमर
विवयस
रपुरं
यमानानां
यानदुर
रसृताः
रेषितस
माता-@@
मही-
बकवत
नराधमाः
विलयं
मीकोदरसर
पवत
रीमतां
राजकुलेषु
परगे@@
रभावो
हेषु
यवहारेषु
सागराः
यजेदेकं
पातकम
मौने
सविद
रियवादिनाम
सुवृक
पितेन
वासितं
षोडशे
रवदाचरेत
भयाव@@
सुसञ
वयमागता
मृतो
यावज
सकृज
रीण
वबान
वशून
वाजिनां
पितरः
मातरः
भगाः
मोहसमो
यसमं
डालः
रजसा
भुंक
रुरपण
राजराज
विभागं
हेद
पुमांल
नामिह
हीनसेवा
नरकस
याऽऽत
रसूयते
भेषजं
पराधीनं
भूष@@
रबोधयेत
शीलतया
हीनश
यसेत
विहीनस
रगजेन
रसेवितं
रुमालयं
बुभोजनम
वदेशो
षसमा@@
विहंगमाः
रोगा
सहजा
भोजिनः
परकार
पैति
साधुसमागमः
मसंग
वयसः
भारेण
मूलानि
पापे
षुर@@
सुविचार
मनागपि
शयानं
षीरमिवाम
बुमध
पाटन@@
मेक@@
मूढो
यातिक
पादोद@@
परोपकरणं
विपदस
पशुभिर
हीनाः
युगमण
यमो
रुण
वायुस
लेखेव
शोऽयं
वाचां
संशयोच
सुतिनी
मिको
महतामपि
नीलकण
पुरुषकारेण
मकृतं
युतिम
याकुल@@
यामति@@
मानुषाणां
नामपि
लोमात
नातुं
महापंके
वभावो
षडेते
यमथाभ
यशसि
रकृतिसिद
षेणापि
पहार@@
संहतास
वभावात
यकारण@@
यतान
नदिम
निघ
विनाशे
नियते
रेषितो
नयनो
ऽऽलापैः
रिपवस
शूरमृ@@
बुको
शीतः
वासकारणम
मणाम
याऽपि
भोजनविशेषः
वायसं
वदेव@@
शनम@@
भैषज
भृतां
विरहोऽटनम
रीणामप
बलवा@@
परिच
पानीयं
लोऽसौ
सुखमा@@
निरीहता
मृगम@@
संचिन
निवासिनाम
नारीरूपं
रतापवान
यसति
रमणक
युषितं
महिमार
यमहि@@
निरपत
रविभाग@@
रदानैः
भूमये
मातुश
भोगि@@
यूख@@
यधामनि
वारणा@@
शोभि@@
नीयस
५३
मिती@@
वचनम@@
नारायणो
फलमिदं
यभृत
लापि@@
पव@@
भोजे
भूयसी
संछिनत
यशेषे
नैति
रामायणे
हीनजनो
नवक
नलक
येऽन
रयाश
भारतम@@
यमहो
रजोऽभिषेकम
कना@@
षितो
रियत
रीभिः
मुखान
मेऽ@@
संसारसा@@
शिवाङ
रसादाद
मुदि@@
हंसे
मदीये
बभौ
रवद
सहेते
षशतैरपि
यादाचार
षामेव
नामर
नृपत
नैतद
पयःपानं
विषवर
रकोपाय
पितेव
रियामविवेकः
परमापदां
यकारिणं
शासिता
सेवितः
सुदीर
विरला
दुःखिता
भागधेयम
विपरी@@
नयनयोर
यसनि@@
पशोर
रजटा@@
नवे@@
भुवनानि
॒
रुवो
हणा
रजानां
मृतेन
वरुणस
नेवेह
यथेतोऽस
रोर
यघ@@
समभ
वशतः
यमतो@@
यिकः
विरञ
रसिको
पुरारि@@
सुदुस
यवच@@
विमल@@
निधी
रिभुवना@@
विहित@@
रकरुणा@@
नुं
निधानं
निनाय
विकसित@@
वेणुं
मूकं
नलिन@@
भागधे@@
सकलनिगम@@
पौरुषं
पीतकौशेयवाससम
भृगु@@
शिखी
विं
बालं
रभवतु
सुहृदि
कमले
निजोत
यताम@@
मुकुलि@@
माधवं
विमलाम
रयाणसमये
नरका@@
मुपासते
विषमे
वायं
रसां
मनोऽभि@@
ऽयम@@
विचारयति
पोषणम
रूषते
मधुक
षणमिह
मोहम@@
वहत
शाखा-
फलपुष
वेह
भोधि@@
वशादु@@
रौति
वचश
ऽङ
सुनी@@
सीद@@
पुनरुत
विजानीयाद
वरमसिधारा
वरमुपवासः
वरमपि
वचांसि
शोऽपि
पिवा
यमश
रवीभवेत
विरहे
ममा
वचिद@@
पमेधसो
बहूनामेमि
वीतमन
रसृष
युमुखात
सृङ
रिणाचिके@@
निचाय
मेतद
नाचिके@@
रणोद
विचिकित
रपौत
रूपाश
नचिकेतोऽत
यमणु@@
विजानीतो
मदं
शके@@
पथस
रूपमव
संपदः
सिरसा
पुरवासि@@
योपाध
हरिरामः
दीना
संवरणस
वचनेन
मेवं
विबुधैर
ऽऽश
विहीन@@
शैल
महामणिम
यकल
यवार
यशैली@@
भृच
रधीः
शैव@@
विवाक
पकाले
विधिर
मोऽप
बुधा@@
बाबागुरुर
बाबागुरो@@
रहिता
फलार
पालन@@
वीरो
परिसं@@
वृत@@
ऽनेन
सकलार
रगण@@
लतिके
षिभिर
नामधेयाङ
माविष
सुदुः@@
सहानि
भिरभि@@
अकथ@@
नयनयो@@
मगतं
पितो
विजैः
शासनः
वारिधि
परप
यधा@@
राघवौ
संवि@@
यिनं
बोज@@
वाऽऽयुर
वोष
बलै@@
विधिवदुप@@
रा-
वसमर
तिव
यायाम@@
रभृति@@
बलोऽ@@
पादुत
यादय
रामनुभवति
शूलाग
रघो@@
वणा@@
सवानां
नामियं
यतश
वकरं
अवकर@@
भोजयन
भगिनीसप
रामीण@@
समाजो
रमुखस
शदुत
रामवासिन
रीतो
समबोधयत
वोद
रदूषणरहितं
सांसारिकं
विचारं
रीञ
मारब
यचन
सोऽयं
शीं
वनिना
ीष
वीये
रतमे
यमानोऽ@@
लावा@@
वितो
परवादेन
वरसान
विनामध
यंते
सदाश
यमूलनि
रविवे@@
मादर
रुरुर
सुतो
बुधश
रमतीव
राणांस
पीह
यदो@@
िच@@
नवानि
नैनं
मादपरिहार
रथाः
मानुवर
रजोगुण@@
वमादौ
भजाम
यसंन
वेगं
विनाशस
नोऽत
मयैव
विगणय
भूतलात
रुवप
हिमद
रवणेन
रुवभागस
रमणवेगपरिवर
रु-
लघूपग
रमणपथ@@
रूपीकृतः
९.@@
सरमहोत
वरितान
रमणः
हंसं
वानं
येट
यापितमासीत
नील-
५०,०००
६५०
षकवि@@
नामनिर
यानाय
रवेशमकुरुताम
नूतनमन
रिणोः
रवेशस
मासतः
निगृहीताः
नगराधि@@
रभामण
चदश@@
लेखनीयं
वैराणुः
षिणगासा@@
रयेलस
वीथिषु
षड@@
रिणा@@
रमिकाणां
१४०
शिलासमुच
वसमुद
लिथियलोहस
रयेलेन
विकानां
येतेषु
लोण
याकाशा@@
योजनायां
सायि@@
रेब
रायेलस
भूमिकायां
वदेशं
षिदलस
२०१५
पादनक
यानुशील@@
भेदं
रभञ
मीरेषु
भारतीयानाम
परिमिते
७१
हृताः
थयः
मोदाय
शुभावसरे
विभाजनविभी@@
माननीयकुल@@
याये
मादौ
रभृतयो
होक
रीडाप
याराष
विजयकिरीटम
फेडरेषनस
वंशीयकल@@
नीतिपीठस
रथमदिनाङ
सीय@@
४३@@
नीकृत
रापयिष
सौविध
रहवाह@@
बहिराकाशकेन
षणोपग
नानाविधा@@
निहिताः
संविधा@@
महानौ@@
पैतृकस
शोचनीया
याचिका@@
पूण@@
ैं
भाषाचित
मदाबा@@
षातः
शयविनिम@@
षकाधिकारी
बैडनः
टीमीटर
बरस
यायिनः
यसचि@@
भीषां
महाशयेन
महानौका@@
वरबाधया
रोगबाधि@@
रहैः
वयकः
रबो@@
युमुप@@
मृतिं
शोधस
रविभागेन
रियशिक
फरव@@
रहसनपरं
२०५०
षणमा@@
यकला@@
यायाधिपस
रचूडस
रोगिभ
वैभवं
टीना
रीहरिकोट
भाषितं
नियम-सम
पताका@@
विंश@@
येल
पुनियः
नामिकां
लादस
निगूढा@@
यलोके
भकजीवनाय
यालोच
बुजसेवनेन
पते@@
रुतिपु@@
वतद
साधुविलोकनेन
रहिते
सुनिन
रेऽवञ
संदृश
षयकरः
लभो
बूते
सुशीतलजलैः
रीखण
सुखयति
यङमप
सुकृतिनामाकृष
रोपमम
वविषयः
रतापार
रानखलांगुलप
रहरणः
विपेन
ररुधिरैस
सहसोत
वचनमुक
यदनृतं
परकलत
राभिगमनम
पिशुनवाक
षाशित
परधनास
वादनसुखम
वमद
वरु@@
वेदैः
नरताः
मूका
नयना@@
परजने
शाठ
साधुजने
नारीजने
रिपुं
मातेव
रमयत
मथनं
वामे
पाणा@@
विलोकयन
यूहो
यतापरिणतिस
रूमहे
बलिं
पौलस
महो
निःशब
रविहा@@
काशः
संधाय
समभवं
यभवदवलिप
सकाशादवगतं
यपगतः
नियत@@
ोऽप
सरितां
यमधुना
हेति
पितरस
पदमाप
पुरुषान
पाद-@@
विधम@@
वामने
वरदा
रबलानि
मकत
रूपानुकारेण
षुश
मिकः
पृथिवीतले
शेषरक
रमयामास
यकक
भिषेकार
रयाहि
पितुराज
यकारणम
रसातलं
लुतः
राघवम
भवनोत
वामेव
रियभार
राममनु@@
भूमो
शोकेन
हेदं
शनादेव
हमब
परेद
राममब
योगमायापि
मारय
पतितोऽस
राघवो
वभ
वाभरण@@
बाणधरं
यगो@@
संसृतिः
बाणे@@
मिदमब
विबु@@
याऽभि@@
रुचितं
याचेमि
संक@@
रोधश
रम-समये
हमुत
मिताम
विशिथि@@
नेदीयस
रमराज
वीरविक
फलादि@@
शनैर
विजयपुरा@@
शिववी@@
ससे@@
नवर
भरणा@@
रेरिता
यकां
भारतीयदर
शनविशेषज
रेप
याकाः
ली-देहरादूनयोः
षितरूपेण
५५
योजनायाः
२०३०
रतिबोधि@@
यटकानां
मेनोन
येताः
२०१२
विधयः
पिङः
यसमन
शचन
रियादिषु
वैराणुबाधा
पादितं
षिपाणिनि
शनविभागस
रसहा@@
वाचनकाले
महिलान
रमाणि@@
सोसायटीति
मक-@@
वछात
विक-@@
यापृता
राजनैतिकदलस
रियसुहृन
वायसो
विभूषयन
परहितं
लोभश
पातकैः
सौजन
सुमहिमा
रपयशो
रिपौ
मुदे
विभवैः
सांसारिकैः
वायोज
पुनरिदं
वामीशमभ
विचलने
वासरे
माधवः
भाक
येवमुक
माणमग
मिसमन
मसरः
वापरयोर
मारोप
रूपाणि-कुक
नख-@@
वाजः
शोभां
हनू@@
लोकविश
सकुलं
ससीतं
रमौ@@
रेडं
मपलास
परिशीलकाय
विषयकसहायकप
रीवीरसनातनपूर
यमहोद@@
ललितकुमार
साहु
सीस
वामनस
रभावं
यानामादिपुरुषो
यकशिपुः
लादो
सचराचरे
विषया
फलादीनि
यभाव@@
योपचक
मुनेर
शोकं
बोधनेन
मितवक
यसेऽचिरात
शरेण
रामागमन@@
संशय@@
भेदा
अमु@@
रिधा
मुखाद
मरामायणमु@@
याकरोति
पुरतस
सीताराम@@
परिवृतो
पाधि@@
सृजामी@@
यानगरे
साभा@@
मवनमाला@@
बरेण
मेवाहं
याधिपतिर
रूपिणः
रातरुत
मुनिभि@@
वदागमन@@
शयस
षमणे@@
सहलक
येतदा@@
यामहल
वदाश
रामोऽ@@
मायामोहित@@
मुदान
नेदुर
नृतुश
मुनिवहष@@
रोमहर
पौरजानप@@
पादचारेण
रामोऽतिविस
रघुत
मामू@@
दमब
मृगयासक
राममेवानु@@
परिवारितः
यविघातनम
युदीरितमाकर
भरतोऽब
ससैन
वादलश
राममेकान
रजला@@
मणेनापि
नानामृग@@
षिसङ
सुखोपविष
भाई-@@
विकों
रुपद
गिर@@
इम@@
बटन
ंडली
मॉ@@
टेली@@
जेंट
बैंग@@
p@@
बेह@@
भोर
w@@
बुझाने
सीने
U@@
a
सिरि@@
हलु@@
g
h@@
निरं@@
रॉ@@
विषय-@@
कुतर@@
हथि@@
अकाउ@@
सोचि@@
टोरिक
बरदस
वाही
भँ@@
चमक@@
अठा@@
हासपूर
-पक
समझा@@
राँ@@
फली
ढियाँ
लौ@@
जलियों
नती
खूब@@
टें
क़@@
ूंगा
जाओ@@
नुकी@@
सीख@@
सुरी
संहा@@
रंजन
वतार
रखि@@
उबाल@@
उतार@@
कानदार
T@@
पिक@@
ौता
कंजू@@
सों@@
भट@@
खिं@@
पहुँचा@@
पाटी
अंड@@
फैल@@
फलके
पंख@@
सूट@@
विहार@@
पीछे@@
अनंत@@
मुलह@@
रपौ@@
चहच@@
जोर-@@
मिला@@
बहुमं@@
ढ़ी@@
सुहृद@@
कठिना@@
समज@@
राहट
ँगा@@
फट@@
पोंछ@@
कानें
औ
नों@@
साले
बिछौ@@
शकर@@
फ़@@
मूंग@@
रुका@@
बड़बड़ा@@
जिए
लताके
दौड़@@
ंगल
भां@@
सरी
जँ@@
दुरी
लाइंस
सबरी@@
ईद
जुआ@@
मृगो@@
वनसे
मीठी@@
ठहर@@
रिलोकी@@
सोंके
वानर@@
पाँ@@
सुरभ@@
बोधस
षीरकाको@@
―
बत@@
यमाना@@
महाभूत
आलि@@
रीयमुना@@
आखि@@
जयं@@
दस@@
रेजि@@
पैथिक
उतर@@
बाबागुरु@@
कुमारभ@@
दोही
रेद
सच@@
रुई@@
ढू@@
ृद
लपट@@
फिस
फे
संगी@@
वीरांग@@
झू@@
उंग@@
पाँच@@
v@@
श-@@
बीजा@@
छोटा-@@
सिने@@
यनशिप
शेषों
G@@
T
मिठाइ@@
नागर
खुश@@
राजको@@
H@@
पहुंचे@@
रेगा
इमार@@
अमा@@
रामानन
COVI@@
D
मेज@@
वरम@@
लियो@@
फाई
खंडों
ील
एसएल@@
गाह
पिघ@@
तिके@@
सले
सराह@@
बायो@@
नेंगे
चेताव@@
किसली
जरू@@
हुई-@@
दादा@@
नौकर-चा@@
B@@
टे-@@
रंग-@@
खेल-@@
अके@@
भली-@@
यारह@@
यवहार@@
समय-@@
पुकार@@
हीन@@
छनीय
होने@@
यारों
साधुसमा@@
साधु-@@
शूरवी@@
नासमझ@@
गिणी
कौन@@
टकी
मूं@@
ललचा@@
शब@@
वालो@@
ँगे
ंगन
ोंवाला
इधर@@
करछु@@
सागरको
युगमें
अजग@@
भीति
गुरूजी
सजा@@
बरौ@@
जकर
॑
रोज@@
रथी
अंदा@@
वजारोह@@
पहुँ@@
मिसाइ@@
CO@@
V
जमी@@
नवं@@
अंतर@@
लिं@@
रोफे@@
फेड@@
सानों
दारों
एं@@
मिठा@@
बैंगलो@@
नियर
सह-@@
पचि@@
जब@@
योतिष@@
g@@
y
जिकल
लांकि
X@@
D@@
पीएसएल@@
शुरू@@
बीस@@
पें@@
योग-@@
निरहं@@
लोंसे
कौड
ऋषभ@@
भैं@@
राजके
तगीत@@
चूँगा
बलू@@
सामुदा@@
वसी@@
बाद-@@
कॉले@@
सात@@
ंघम
हथ@@
लतापूर
बाजू@@
जिस-@@
महाबा@@
रुँ@@
नते@@
हठ@@
जिनी
लाइ@@
सुवे@@
बिखे@@
इंदु
ढ़ा
सूंघ@@
पधा@@
जूट
पापरा@@
वही@@
संसारभ@@
समया@@
जानताम
यांसि
अवित@@
ंशुकम
फः
मश@@
पाथे@@
कारि
अनुयायि@@
अनुशोचि@@
षज
रिलो@@
पमेध@@
कलन
चारेण
शल@@
संपाद@@
संह@@
निविष
सुंद@@
छं@@
लाहल
हितै@@
वरुणः
चिदान@@
योरा@@
रूपानु@@
वासघा@@
आधु@@
नीयौ
राजका@@
यजीवि@@
शीति@@
शुभाव@@
सीः
हारिणम
हरित@@
विरोच@@
नैक@@
तोयाः
समादृ@@
आदान@@
ततो@@
युङ
नध
निगू@@
ततिं
वपु@@
वैदे@@
कमङ
ृम
देशीया
सौदा@@
मालू@@
धरोष
लोल@@
परदाराभि@@
रियाक
शीय
अनुम@@
ोचत
सनी@@
आबा@@
बरम@@
शूर@@
वेद-@@
खारी
बिभे@@
विषी@@
उदारच@@
पेशा@@
अत@@
डति
लोकन
ंगते
यवेद@@
इदं@@
महः
सदः
तिहा@@
वारितम
वाध@@
बृहदाप@@
सरोवरं
लालबहादुरशास
भयं@@
आलिम@@
भारतीयं
सैंया@@
गाँधी@@
आहि@@
रहण@@
यकणि@@
केशं
ढि
देवनाग@@
पाहा@@
नृशं@@
सोप@@
शीशांस@@
पुनराव@@
मेर@@
राफेल@@
राजतरं@@
हासि@@
रामर
वारं@@
रबं@@
परिवेष@@
षणीयाः
संवाददा@@
वालु@@
सिंगा@@
सोपाने
सरीसृ@@
होलि@@
वरुणा@@
लखन@@
यकशि@@
कटे@@
लांगु@@
पाठिनः
गमने
विहाय@@
संकु@@
वहे
येवा@@
रसगोल@@
तिनी
सुकृत@@
यंस
विदाहिनः
विंशमध
वाजी@@
देक
मधुमाध@@
समता@@
रपो@@
विह@@
पोषका@@
विदेशि@@
संकट@@
यभ@@
मिजो@@
भाय
वेतके@@
विमूढ@@
कृतोप@@
वीतरा@@
सुहृन
पपत
राजप@@
सेटक@@
मठा@@
अनागत@@
वीतरागेणे@@
आखे@@
रणीय
यौति@@
ुत
हारा@@
वीरसा@@
गमाः
कलय
गणय
रादुर@@
विवृ@@
जवनि@@
यथे@@
गृहीता
नीयानि
राठ@@
रीपति@@
सेवनेन
रसभ@@
सवै@@
दृच
शुकह@@
वोऽपि
हिन@@
चिकं
ृष
वायुं
असी@@
पीड़@@
रृणो@@
वादेन
वीरसावर@@
2-@@
तेरापं@@
विकास-@@
यांसः
अखाद@@
‚
$
भागि@@
मेना-@@
कोविड@@
इदानीं@@
१,@@
यायाधी@@
वाताव@@
शपथ@@
थां@@
रिमोप@@
ढाः
मेध@@
रूपयौवन@@
सुखमे@@
रुदि@@
जाला
मेः
मुरारि@@
रभङ
मथु@@
रीगर
रविरुद
जामी@@
रघुवंश@@
राभ@@
रभे@@
ह-@@
रैक@@
ताना
रमज
रूपाणि-@@
जाङ
बीजे@@
रभि@@
खब@@
पानीप@@
ललव@@
कनी@@
राममे@@
शतको@@
शतप@@
विदू@@
वैरा@@
हेश
दोत
षिप@@
लितवान
पंक@@
रातृजा@@
रितुम
वदि@@
रावणयोः
कामनाः
कायस
फलमेव
तुप
वसे@@
वाचना@@
मुपस
रोदि@@
रट@@
तात@@
रविशा@@
नुस
वसुं@@
पतिवर
नामुपशमनार
षधि@@
ंगल@@
ःक
मेदु@@
विलं@@
रोत@@
कि-
वेदनया
कें@@
पिचु@@
बैडमिं@@
राचीनकाल@@
भवान@@
सेऽ@@
मवा@@
महापा@@
यूर
षीत
ंसो
यादे
याविही@@
sपि
जलियां@@
संहि@@
आपात@@
..@@
परमाणु@@
सपरि@@
विदेशी@@
पिबा@@
निमील@@
समारोहं
निषेधि@@
देशाय
ेण
लथ@@
बिभी@@
विजे@@
यमेधः
बरमा@@
फेस@@
वंशीय@@
गोड
मीबिया
पादकी@@
यिका
याधिकारि@@
चौ
विकास@@
जगदीप@@
वसुध@@
राये@@
षणल
यमानानाम
टोस
विजयकुमार@@
अपघा@@
लैण
मुपगताः
रहणक
०००
कोशा@@
नाचार
शकुमार@@
सोसि@@
ङः
रचालिता
सरल-@@
लिथि@@
दिनक
वरखे@@
यदि@@
रिकैः
येशु@@
जनु@@
भौतिक@@
बस@@
दादी@@
जें@@
वेदिकाः
खननं
षणोप@@
निको@@
वायुमलिनीकरण@@
नुरागि@@
भीक@@
पोपु@@
सकाश@@
शोच@@
होदर
मभूमि@@
कारयत
चतर@@
फेन@@
ऐतिहासि@@
णेषु
रमणवेग@@
रुदण
मधुमे@@
भोपा@@
सेषु
रीतदा@@
उपावे@@
तोयं
दकं
रसंग@@
राजकु@@
ंगित
फस@@
कारिणे
रृं@@
सुदू@@
हितकामा@@
योपचार@@
राथ@@
हरिहर@@
परिधान@@
पंके
परिपा@@
शोत
मानो@@
पुनरि@@
ेति
कालये
राधिका@@
रोगि@@
मनः@@
मनाग@@
कुशि@@
दितव
सजल@@
लील@@
समुचित@@
सनै@@
पुरुषाध@@
दनाम
वासिन
शाङ
उरु@@
रजानन
वृणी@@
संज@@
सामि
शेत
वितान@@
यविघा@@
सूर@@
नोपकरण@@
इतो@@
तबा@@
मिद
·
यापाद@@
सामु@@
षधी@@
रीह@@
विधां
धराणाम
समुदायस
तराज
रिशत-@@
यङ@@
सदृश@@
शफ@@
लवा
वसते
ौल
रमिवाम
रोधो@@
राधन@@
भागित
सुखोप@@
कोऽवदत
औरंग@@
मनोहर@@
नेयं
शिखरसम
वरणं
तलात
विवेचन@@
०,०००
चमिन
सोमा@@
संगठ@@
कुमारशर
पुरराज
विविधा@@
रवाताव@@
टली
भारतजन@@
राजनैति@@
तनाग
धीशः
णमध
आरोप@@
षदल@@
तीस@@
बालभारती
मलयाल@@
षानी@@
कारागार@@
टनं
यू-ना@@
राके@@
तनानां
रुर@@
सुग@@
गणा
नयो
रसाल@@
वेप@@
मभूत
मालयं
सीं
नुभवति
यमुनातट@@
वापी@@
पूजिताः
मतु@@
चाव
रियं@@
रजानप@@
महान@@
नल@@
भयभी@@
मृषा@@
तमाकर
नविभाग@@
उपनय@@
कोपग
विभाजन@@
बाधितप
नीतिपी@@
जगदी@@
पौराणि@@
यभव@@
मोदि@@
याधी@@
ॅ
तुश
सचराच@@
पाणि-@@
निबो@@
तिविस
यावन@@
भागभा@@
बिहार@@
पदानु@@
वहष@@
सुरस@@
रिप@@
लाज@@
ऽऽज
पानी@@
वनानि
समीचीन@@
मांसि
आगं@@
हुमा@@
याका@@
नायकस
सिंहास@@
सीनः
दमतन
मरामाय@@
ञोपवी@@
लोकपा@@
गरे
विशारदाः
बभू@@
वुः
राजीव@@
रघू@@
हृषी@@
लोहस
वनग@@
मूला@@
मायामानु@@
फलो@@
टमा@@
भरतोऽ@@
बहुकाल@@
बुजा@@
